{
  "version": "1.0",
  "truncation": null,
  "padding": null,
  "added_tokens": [
    {
      "id": 0,
      "content": "[UNK]",
      "single_word": false,
      "lstrip": false,
      "rstrip": false,
      "normalized": false,
      "special": true
    },
    {
      "id": 1,
      "content": "[SOS]",
      "single_word": false,
      "lstrip": false,
      "rstrip": false,
      "normalized": false,
      "special": true
    },
    {
      "id": 2,
      "content": "[EOS]",
      "single_word": false,
      "lstrip": false,
      "rstrip": false,
      "normalized": false,
      "special": true
    },
    {
      "id": 3,
      "content": "[PAD]",
      "single_word": false,
      "lstrip": false,
      "rstrip": false,
      "normalized": false,
      "special": true
    }
  ],
  "normalizer": null,
  "pre_tokenizer": {
    "type": "Whitespace"
  },
  "post_processor": null,
  "decoder": null,
  "model": {
    "type": "BPE",
    "dropout": null,
    "unk_token": "[UNK]",
    "continuing_subword_prefix": null,
    "end_of_word_suffix": null,
    "fuse_unk": false,
    "byte_fallback": false,
    "vocab": {
      "[UNK]": 0,
      "[SOS]": 1,
      "[EOS]": 2,
      "[PAD]": 3,
      "!": 4,
      "\"": 5,
      "&": 6,
      "'": 7,
      "(": 8,
      ")": 9,
      "*": 10,
      ",": 11,
      "-": 12,
      ".": 13,
      "/": 14,
      "0": 15,
      "1": 16,
      "2": 17,
      "3": 18,
      "4": 19,
      "5": 20,
      "6": 21,
      "7": 22,
      "8": 23,
      "9": 24,
      ":": 25,
      ";": 26,
      "?": 27,
      "A": 28,
      "B": 29,
      "C": 30,
      "D": 31,
      "E": 32,
      "F": 33,
      "G": 34,
      "H": 35,
      "I": 36,
      "J": 37,
      "K": 38,
      "L": 39,
      "M": 40,
      "N": 41,
      "O": 42,
      "P": 43,
      "Q": 44,
      "R": 45,
      "S": 46,
      "T": 47,
      "U": 48,
      "V": 49,
      "W": 50,
      "X": 51,
      "Y": 52,
      "Z": 53,
      "[": 54,
      "]": 55,
      "_": 56,
      "`": 57,
      "a": 58,
      "b": 59,
      "c": 60,
      "d": 61,
      "e": 62,
      "f": 63,
      "g": 64,
      "h": 65,
      "i": 66,
      "j": 67,
      "k": 68,
      "l": 69,
      "m": 70,
      "n": 71,
      "o": 72,
      "p": 73,
      "q": 74,
      "r": 75,
      "s": 76,
      "t": 77,
      "u": 78,
      "v": 79,
      "w": 80,
      "x": 81,
      "y": 82,
      "z": 83,
      "{": 84,
      "}": 85,
      "£": 86,
      "Ç": 87,
      "È": 88,
      "É": 89,
      "à": 90,
      "â": 91,
      "ä": 92,
      "æ": 93,
      "ç": 94,
      "è": 95,
      "é": 96,
      "ê": 97,
      "ï": 98,
      "ò": 99,
      "ô": 100,
      "ü": 101,
      "Œ": 102,
      "œ": 103,
      "–": 104,
      "—": 105,
      "‘": 106,
      "’": 107,
      "“": 108,
      "”": 109,
      "…": 110,
      "he": 111,
      "in": 112,
      "an": 113,
      "the": 114,
      "re": 115,
      "ou": 116,
      "th": 117,
      "on": 118,
      "at": 119,
      "and": 120,
      "to": 121,
      "er": 122,
      "ed": 123,
      "as": 124,
      "is": 125,
      "ing": 126,
      "en": 127,
      "it": 128,
      "or": 129,
      "of": 130,
      "ll": 131,
      "ar": 132,
      "es": 133,
      "ha": 134,
      "me": 135,
      "no": 136,
      "le": 137,
      "se": 138,
      "st": 139,
      "be": 140,
      "hi": 141,
      "id": 142,
      "wi": 143,
      "was": 144,
      "ld": 145,
      "that": 146,
      "ro": 147,
      "ve": 148,
      "ly": 149,
      "ch": 150,
      "ce": 151,
      "ut": 152,
      "gh": 153,
      "you": 154,
      "ver": 155,
      "ent": 156,
      "with": 157,
      "not": 158,
      "his": 159,
      "al": 160,
      "for": 161,
      "her": 162,
      "so": 163,
      "had": 164,
      "we": 165,
      "sa": 166,
      "li": 167,
      "ho": 168,
      "ion": 169,
      "ad": 170,
      "all": 171,
      "ir": 172,
      "ght": 173,
      "ould": 174,
      "lo": 175,
      "my": 176,
      "ay": 177,
      "she": 178,
      "ri": 179,
      "him": 180,
      "fe": 181,
      "co": 182,
      "un": 183,
      "out": 184,
      "ab": 185,
      "ne": 186,
      "but": 187,
      "ter": 188,
      "ur": 189,
      "ac": 190,
      "ther": 191,
      "ow": 192,
      "one": 193,
      "ke": 194,
      "mo": 195,
      "pe": 196,
      "red": 197,
      "de": 198,
      "up": 199,
      "ge": 200,
      "ti": 201,
      "ain": 202,
      "con": 203,
      "go": 204,
      "us": 205,
      "ess": 206,
      "hat": 207,
      "whi": 208,
      "are": 209,
      "said": 210,
      "have": 211,
      "nd": 212,
      "whe": 213,
      "now": 214,
      "The": 215,
      "am": 216,
      "thing": 217,
      "res": 218,
      "po": 219,
      "do": 220,
      "od": 221,
      "qu": 222,
      "su": 223,
      "ct": 224,
      "which": 225,
      "ev": 226,
      "te": 227,
      "ok": 228,
      "man": 229,
      "if": 230,
      "our": 231,
      "ex": 232,
      "very": 233,
      "lf": 234,
      "ard": 235,
      "ca": 236,
      "ag": 237,
      "by": 238,
      "ant": 239,
      "they": 240,
      "rom": 241,
      "them": 242,
      "who": 243,
      "ul": 244,
      "si": 245,
      "this": 246,
      "were": 247,
      "fo": 248,
      "would": 249,
      "ind": 250,
      "mp": 251,
      "from": 252,
      "ra": 253,
      "et": 254,
      ",'": 255,
      "way": 256,
      "ust": 257,
      "self": 258,
      "what": 259,
      "some": 260,
      "ation": 261,
      "see": 262,
      "He": 263,
      "thou": 264,
      "ic": 265,
      "sh": 266,
      "rou": 267,
      "itt": 268,
      "sk": 269,
      "--": 270,
      "could": 271,
      "when": 272,
      "il": 273,
      ".'": 274,
      "bo": 275,
      "there": 276,
      "der": 277,
      "wor": 278,
      "own": 279,
      "ment": 280,
      "ong": 281,
      "pp": 282,
      "ak": 283,
      "pl": 284,
      "wo": 285,
      "est": 286,
      "per": 287,
      "end": 288,
      "sky": 289,
      "ast": 290,
      "fa": 291,
      "ate": 292,
      "ill": 293,
      "other": 294,
      "been": 295,
      "did": 296,
      "look": 297,
      "tr": 298,
      "bl": 299,
      "ight": 300,
      "will": 301,
      "ous": 302,
      "about": 303,
      ".\"": 304,
      "dis": 305,
      "art": 306,
      "any": 307,
      "af": 308,
      "ck": 309,
      "ple": 310,
      "more": 311,
      "their": 312,
      "ide": 313,
      "know": 314,
      "fore": 315,
      "med": 316,
      "..": 317,
      "na": 318,
      "ite": 319,
      "che": 320,
      "ved": 321,
      "can": 322,
      "?'": 323,
      "your": 324,
      "thought": 325,
      "!'": 326,
      "able": 327,
      "evin": 328,
      "It": 329,
      "Levin": 330,
      "ake": 331,
      "ure": 332,
      "ving": 333,
      "But": 334,
      "how": 335,
      "ress": 336,
      "ked": 337,
      "el": 338,
      "onsky": 339,
      "into": 340,
      "then": 341,
      "ble": 342,
      "urn": 343,
      "only": 344,
      "hand": 345,
      "ity": 346,
      "time": 347,
      "And": 348,
      "like": 349,
      "om": 350,
      "pos": 351,
      "ci": 352,
      "again": 353,
      "use": 354,
      "new": 355,
      "read": 356,
      "day": 357,
      "should": 358,
      "say": 359,
      "ound": 360,
      "gre": 361,
      "fi": 362,
      "ish": 363,
      "pr": 364,
      "la": 365,
      "over": 366,
      "ink": 367,
      "went": 368,
      "com": 369,
      "ass": 370,
      "come": 371,
      "ep": 372,
      "pro": 373,
      "sto": 374,
      "ist": 375,
      "ry": 376,
      "ally": 377,
      "ren": 378,
      "im": 379,
      "hed": 380,
      "down": 381,
      "gi": 382,
      "under": 383,
      "vi": 384,
      "than": 385,
      "She": 386,
      "str": 387,
      "long": 388,
      "turn": 389,
      "gl": 390,
      "ittle": 391,
      "ade": 392,
      "row": 393,
      "ort": 394,
      "oun": 395,
      "ance": 396,
      "little": 397,
      "came": 398,
      "ine": 399,
      "beg": 400,
      "We": 401,
      "ence": 402,
      "ary": 403,
      "ers": 404,
      "before": 405,
      "fir": 406,
      "ack": 407,
      "mu": 408,
      "after": 409,
      "ful": 410,
      "every": 411,
      "di": 412,
      "get": 413,
      "its": 414,
      "ang": 415,
      "vo": 416,
      "sp": 417,
      "sm": 418,
      "ward": 419,
      "?\"": 420,
      "lt": 421,
      "has": 422,
      "two": 423,
      "sha": 424,
      "off": 425,
      "You": 426,
      "pt": 427,
      "ey": 428,
      "An": 429,
      "ull": 430,
      "ree": 431,
      "never": 432,
      "ear": 433,
      "much": 434,
      "where": 435,
      "think": 436,
      "good": 437,
      "made": 438,
      "must": 439,
      "ness": 440,
      "ans": 441,
      "age": 442,
      "well": 443,
      "ated": 444,
      "rep": 445,
      "such": 446,
      "room": 447,
      "men": 448,
      "just": 449,
      "right": 450,
      "ried": 451,
      "pleas": 452,
      "first": 453,
      "ap": 454,
      "ting": 455,
      "even": 456,
      "No": 457,
      "mb": 458,
      "ions": 459,
      "ted": 460,
      "ol": 461,
      "ach": 462,
      "chi": 463,
      "op": 464,
      "cause": 465,
      "hy": 466,
      "cess": 467,
      "des": 468,
      "ty": 469,
      "Anna": 470,
      "great": 471,
      "ser": 472,
      "ven": 473,
      "ga": 474,
      "Vr": 475,
      "Vronsky": 476,
      "round": 477,
      "upon": 478,
      "without": 479,
      "himself": 480,
      "ning": 481,
      "ose": 482,
      "being": 483,
      "let": 484,
      "side": 485,
      "head": 486,
      "spe": 487,
      "arm": 488,
      "Mr": 489,
      "too": 490,
      "want": 491,
      "What": 492,
      "ened": 493,
      "aren": 494,
      "mar": 495,
      "cl": 496,
      "saw": 497,
      "here": 498,
      "felt": 499,
      ",\"": 500,
      "might": 501,
      "stand": 502,
      "less": 503,
      "life": 504,
      "feel": 505,
      "face": 506,
      "away": 507,
      "most": 508,
      "ru": 509,
      "put": 510,
      "ves": 511,
      "ise": 512,
      "don": 513,
      "bet": 514,
      "word": 515,
      "old": 516,
      "ten": 517,
      "car": 518,
      "ice": 519,
      "still": 520,
      "eyes": 521,
      "bro": 522,
      "iss": 523,
      "ace": 524,
      "quite": 525,
      "happ": 526,
      "clo": 527,
      "found": 528,
      "got": 529,
      "back": 530,
      "mor": 531,
      "comp": 532,
      "led": 533,
      "began": 534,
      "ouse": 535,
      "sho": 536,
      "tain": 537,
      "call": 538,
      "asked": 539,
      "ob": 540,
      "ft": 541,
      "pa": 542,
      "act": 543,
      "nothing": 544,
      "ily": 545,
      "alk": 546,
      "knew": 547,
      "these": 548,
      "those": 549,
      "light": 550,
      "ince": 551,
      "because": 552,
      "low": 553,
      "part": 554,
      "itty": 555,
      "gn": 556,
      "myself": 557,
      "llow": 558,
      "make": 559,
      "aking": 560,
      "ef": 561,
      "Kitty": 562,
      "Do": 563,
      "looked": 564,
      "yet": 565,
      "ever": 566,
      "rest": 567,
      "seemed": 568,
      "ies": 569,
      "ways": 570,
      "imp": 571,
      "ue": 572,
      "love": 573,
      "coun": 574,
      "tell": 575,
      "ished": 576,
      "pect": 577,
      "though": 578,
      "ced": 579,
      "cont": 580,
      "wat": 581,
      "full": 582,
      "sat": 583,
      "pi": 584,
      "gr": 585,
      "something": 586,
      "In": 587,
      "int": 588,
      "took": 589,
      "cons": 590,
      "Yes": 591,
      "ange": 592,
      "mer": 593,
      "...": 594,
      "br": 595,
      "Obl": 596,
      "pass": 597,
      "Oblonsky": 598,
      "ps": 599,
      "cle": 600,
      "hor": 601,
      "ner": 602,
      "lly": 603,
      "try": 604,
      "while": 605,
      "same": 606,
      "pre": 607,
      "mind": 608,
      "having": 609,
      "tor": 610,
      "ition": 611,
      "cre": 612,
      "jo": 613,
      "ople": 614,
      "land": 615,
      "take": 616,
      "child": 617,
      "house": 618,
      "work": 619,
      "pres": 620,
      "night": 621,
      "ris": 622,
      "hen": 623,
      "once": 624,
      "people": 625,
      "cour": 626,
      "last": 627,
      "set": 628,
      "always": 629,
      "ared": 630,
      "ently": 631,
      "another": 632,
      "turned": 633,
      "ER": 634,
      "wa": 635,
      "shall": 636,
      "ud": 637,
      "sible": 638,
      "tim": 639,
      "Well": 640,
      "app": 641,
      "things": 642,
      "sup": 643,
      "fort": 644,
      "going": 645,
      "left": 646,
      "cor": 647,
      "press": 648,
      "heard": 649,
      "ile": 650,
      "ster": 651,
      "rough": 652,
      "place": 653,
      "used": 654,
      "Karen": 655,
      "ive": 656,
      "door": 657,
      "Karenin": 658,
      "ect": 659,
      "moment": 660,
      "mat": 661,
      "tic": 662,
      "fl": 663,
      "tre": 664,
      "shi": 665,
      "three": 666,
      "Oh": 667,
      "Pr": 668,
      "mon": 669,
      "att": 670,
      "There": 671,
      "qui": 672,
      "stood": 673,
      "give": 674,
      "air": 675,
      "gu": 676,
      "um": 677,
      "ready": 678,
      "cer": 679,
      "ces": 680,
      "bed": 681,
      "boat": 682,
      "told": 683,
      "sol": 684,
      "ither": 685,
      "dif": 686,
      "may": 687,
      "cas": 688,
      "wife": 689,
      "ings": 690,
      "appe": 691,
      "son": 692,
      "ath": 693,
      "ste": 694,
      "den": 695,
      "kind": 696,
      "par": 697,
      "ough": 698,
      "dress": 699,
      "ts": 700,
      "They": 701,
      "looking": 702,
      "year": 703,
      "through": 704,
      "fri": 705,
      "possible": 706,
      "ious": 707,
      "heart": 708,
      "HA": 709,
      "vers": 710,
      "talk": 711,
      "cond": 712,
      "mber": 713,
      "min": 714,
      "soon": 715,
      "quest": 716,
      "nat": 717,
      "understand": 718,
      "ss": 719,
      "herself": 720,
      "Dolly": 721,
      "Ro": 722,
      "cur": 723,
      "done": 724,
      "raw": 725,
      "nor": 726,
      "ff": 727,
      "sur": 728,
      "!\"": 729,
      "So": 730,
      "hus": 731,
      "lea": 732,
      "ick": 733,
      "When": 734,
      "find": 735,
      "near": 736,
      "bod": 737,
      "ters": 738,
      "friend": 739,
      "bit": 740,
      "anything": 741,
      "words": 742,
      "fin": 743,
      "fect": 744,
      "ations": 745,
      "both": 746,
      "brother": 747,
      "band": 748,
      "expect": 749,
      "pped": 750,
      "better": 751,
      "spo": 752,
      "ask": 753,
      "ised": 754,
      "iz": 755,
      "cha": 756,
      "won": 757,
      "lad": 758,
      "many": 759,
      "God": 760,
      "hel": 761,
      "This": 762,
      "iness": 763,
      "toward": 764,
      "half": 765,
      "lice": 766,
      "ason": 767,
      "ng": 768,
      "rid": 769,
      "young": 770,
      "everything": 771,
      "smile": 772,
      "That": 773,
      "hur": 774,
      "cannot": 775,
      "body": 776,
      "wish": 777,
      "How": 778,
      "beli": 779,
      "din": 780,
      "wind": 781,
      "ane": 782,
      "dist": 783,
      "care": 784,
      "whole": 785,
      "wr": 786,
      "ched": 787,
      "cal": 788,
      "sub": 789,
      "express": 790,
      "gave": 791,
      "hear": 792,
      "hard": 793,
      "whom": 794,
      "sil": 795,
      "ught": 796,
      "husband": 797,
      "bre": 798,
      "till": 799,
      "water": 800,
      "Alice": 801,
      "contin": 802,
      "draw": 803,
      "sen": 804,
      "oc": 805,
      "sc": 806,
      "eas": 807,
      "called": 808,
      "...'": 809,
      "times": 810,
      "Why": 811,
      "voice": 812,
      "ual": 813,
      "ener": 814,
      "TER": 815,
      "inter": 816,
      "hands": 817,
      "far": 818,
      "ject": 819,
      "ran": 820,
      "wait": 821,
      "ot": 822,
      "follow": 823,
      "ded": 824,
      "lay": 825,
      "also": 826,
      "help": 827,
      "inde": 828,
      "reme": 829,
      "cho": 830,
      "rought": 831,
      "home": 832,
      "fully": 833,
      "vis": 834,
      "hour": 835,
      "sir": 836,
      "aken": 837,
      "woman": 838,
      "dre": 839,
      "eld": 840,
      "ought": 841,
      "morning": 842,
      "ered": 843,
      "course": 844,
      "Roche": 845,
      "wever": 846,
      "feren": 847,
      "brought": 848,
      "keep": 849,
      "Rochester": 850,
      "rel": 851,
      "ately": 852,
      "exc": 853,
      "ged": 854,
      "seen": 855,
      "lied": 856,
      "Ge": 857,
      "main": 858,
      "does": 859,
      "ire": 860,
      "inte": 861,
      "ars": 862,
      "fic": 863,
      "ny": 864,
      "hold": 865,
      "Geor": 866,
      "CHA": 867,
      "live": 868,
      "dden": 869,
      "pain": 870,
      "against": 871,
      "PTER": 872,
      "CHAPTER": 873,
      "Miss": 874,
      "pri": 875,
      "Then": 876,
      "ult": 877,
      "ref": 878,
      "eve": 879,
      "show": 880,
      "rect": 881,
      "ering": 882,
      "Jane": 883,
      "incess": 884,
      "sure": 885,
      "continu": 886,
      "cy": 887,
      "mean": 888,
      "smil": 889,
      "interest": 890,
      "order": 891,
      "cu": 892,
      "ov": 893,
      "stru": 894,
      "ark": 895,
      "speak": 896,
      "question": 897,
      "ship": 898,
      "ating": 899,
      "necess": 900,
      "mother": 901,
      "why": 902,
      "fam": 903,
      "sel": 904,
      "joy": 905,
      "certain": 906,
      "xt": 907,
      "enough": 908,
      "If": 909,
      "list": 910,
      "ka": 911,
      "pow": 912,
      "feeling": 913,
      "ined": 914,
      "world": 915,
      "hun": 916,
      "form": 917,
      "dou": 918,
      "lar": 919,
      "sent": 920,
      "gir": 921,
      "ling": 922,
      "Mo": 923,
      "His": 924,
      "ween": 925,
      "ush": 926,
      "wanted": 927,
      "consid": 928,
      "Princess": 929,
      "IN": 930,
      "whether": 931,
      "ta": 932,
      "pose": 933,
      "replied": 934,
      "les": 935,
      "lex": 936,
      "temp": 937,
      "ures": 938,
      "val": 939,
      "aw": 940,
      "ments": 941,
      "As": 942,
      "ig": 943,
      "taken": 944,
      "aster": 945,
      "cept": 946,
      "sudden": 947,
      "between": 948,
      "TH": 949,
      "children": 950,
      "ular": 951,
      "thoughts": 952,
      "already": 953,
      "convers": 954,
      "rown": 955,
      "sou": 956,
      "George": 957,
      "each": 958,
      "hind": 959,
      "table": 960,
      "next": 961,
      "father": 962,
      "wered": 963,
      "answ": 964,
      "ith": 965,
      "ma": 966,
      "sing": 967,
      "van": 968,
      "reco": 969,
      "arris": 970,
      "leep": 971,
      "alone": 972,
      "coming": 973,
      "present": 974,
      "rather": 975,
      "girl": 976,
      "run": 977,
      "really": 978,
      "either": 979,
      "ided": 980,
      "Harris": 981,
      "ks": 982,
      "illed": 983,
      "bes": 984,
      "du": 985,
      "vent": 986,
      "plain": 987,
      "ended": 988,
      "days": 989,
      "My": 990,
      "sit": 991,
      "suff": 992,
      "ove": 993,
      "shore": 994,
      "reason": 995,
      "ond": 996,
      "dec": 997,
      "conf": 998,
      "At": 999,
      "On": 1000,
      "av": 1001,
      "rose": 1002,
      "fair": 1003,
      "ign": 1004,
      "cei": 1005,
      "shed": 1006,
      "position": 1007,
      "answered": 1008,
      "indeed": 1009,
      "reg": 1010,
      "gether": 1011,
      "country": 1012,
      "together": 1013,
      "ants": 1014,
      "appro": 1015,
      "leave": 1016,
      "ew": 1017,
      "ms": 1018,
      "cold": 1019,
      "given": 1020,
      "gone": 1021,
      "sy": 1022,
      "sed": 1023,
      "sun": 1024,
      "happy": 1025,
      "En": 1026,
      "spir": 1027,
      "pie": 1028,
      "need": 1029,
      "Mrs": 1030,
      "years": 1031,
      "Ko": 1032,
      "since": 1033,
      "believe": 1034,
      "step": 1035,
      "bu": 1036,
      "clear": 1037,
      "Alex": 1038,
      "strange": 1039,
      "tri": 1040,
      "ross": 1041,
      "almost": 1042,
      "above": 1043,
      "ached": 1044,
      "bus": 1045,
      "fall": 1046,
      "ied": 1047,
      "anger": 1048,
      "lic": 1049,
      "evid": 1050,
      "sea": 1051,
      "ides": 1052,
      "others": 1053,
      "conversation": 1054,
      "dri": 1055,
      "hon": 1056,
      "char": 1057,
      "point": 1058,
      "lect": 1059,
      "meet": 1060,
      "large": 1061,
      "cially": 1062,
      "matter": 1063,
      "minut": 1064,
      "selves": 1065,
      "gener": 1066,
      "oh": 1067,
      "case": 1068,
      "Engl": 1069,
      "cus": 1070,
      "emp": 1071,
      "wished": 1072,
      "often": 1073,
      "pleasant": 1074,
      "appeared": 1075,
      "consider": 1076,
      "aut": 1077,
      "added": 1078,
      "kept": 1079,
      "evening": 1080,
      "ber": 1081,
      "haps": 1082,
      "tered": 1083,
      "turning": 1084,
      "diffic": 1085,
      "gent": 1086,
      "gra": 1087,
      "lau": 1088,
      "direct": 1089,
      "arms": 1090,
      "mis": 1091,
      "sis": 1092,
      "passed": 1093,
      "necessary": 1094,
      "cut": 1095,
      "few": 1096,
      "bar": 1097,
      "bur": 1098,
      "doub": 1099,
      "behind": 1100,
      "lov": 1101,
      "answer": 1102,
      "king": 1103,
      "resol": 1104,
      "law": 1105,
      "continued": 1106,
      "cri": 1107,
      "riage": 1108,
      "ount": 1109,
      "suddenly": 1110,
      "pur": 1111,
      "All": 1112,
      "ses": 1113,
      "To": 1114,
      "wh": 1115,
      "ety": 1116,
      "itting": 1117,
      "begin": 1118,
      "quiet": 1119,
      "Now": 1120,
      "gs": 1121,
      "ich": 1122,
      "book": 1123,
      "comm": 1124,
      "surpr": 1125,
      "ped": 1126,
      "tra": 1127,
      "arr": 1128,
      "fear": 1129,
      "wards": 1130,
      "ken": 1131,
      "tried": 1132,
      "zny": 1133,
      "real": 1134,
      "remain": 1135,
      "shev": 1136,
      "fire": 1137,
      "Kozny": 1138,
      "Koznyshev": 1139,
      "met": 1140,
      "uring": 1141,
      "foot": 1142,
      "Ha": 1143,
      "dark": 1144,
      "yes": 1145,
      "az": 1146,
      "stant": 1147,
      "dered": 1148,
      "open": 1149,
      "serv": 1150,
      "best": 1151,
      "stre": 1152,
      "high": 1153,
      "vered": 1154,
      "entered": 1155,
      "ird": 1156,
      "medi": 1157,
      "Re": 1158,
      "fact": 1159,
      "sound": 1160,
      "least": 1161,
      "peas": 1162,
      "soul": 1163,
      "person": 1164,
      "master": 1165,
      "ited": 1166,
      "wood": 1167,
      "differen": 1168,
      "cup": 1169,
      "making": 1170,
      "tle": 1171,
      "view": 1172,
      "anged": 1173,
      "pleasure": 1174,
      "among": 1175,
      "For": 1176,
      "taking": 1177,
      "II": 1178,
      "eng": 1179,
      "glad": 1180,
      "ceived": 1181,
      "espe": 1182,
      "notic": 1183,
      "impossible": 1184,
      "pleased": 1185,
      "import": 1186,
      "expected": 1187,
      "fast": 1188,
      "trou": 1189,
      "remar": 1190,
      "beaut": 1191,
      "else": 1192,
      "sort": 1193,
      "sign": 1194,
      "name": 1195,
      "small": 1196,
      "ned": 1197,
      "port": 1198,
      "repe": 1199,
      "Joh": 1200,
      "ump": 1201,
      "ont": 1202,
      "however": 1203,
      "ably": 1204,
      "quick": 1205,
      "bad": 1206,
      "ins": 1207,
      "THE": 1208,
      "white": 1209,
      "John": 1210,
      "wall": 1211,
      "especially": 1212,
      "hu": 1213,
      "road": 1214,
      "ket": 1215,
      "ding": 1216,
      "fr": 1217,
      "swe": 1218,
      "ene": 1219,
      "hope": 1220,
      "ils": 1221,
      "gentle": 1222,
      "Count": 1223,
      "ates": 1224,
      "start": 1225,
      "rov": 1226,
      "imag": 1227,
      "remember": 1228,
      "mil": 1229,
      "cow": 1230,
      "field": 1231,
      "bring": 1232,
      "sor": 1233,
      "state": 1234,
      "simp": 1235,
      "short": 1236,
      "satis": 1237,
      "St": 1238,
      "ground": 1239,
      "oud": 1240,
      "island": 1241,
      "stay": 1242,
      "Af": 1243,
      "lab": 1244,
      "walk": 1245,
      "move": 1246,
      "usual": 1247,
      "cked": 1248,
      "five": 1249,
      "subject": 1250,
      "ery": 1251,
      "resh": 1252,
      "longer": 1253,
      "close": 1254,
      "four": 1255,
      "mist": 1256,
      "nur": 1257,
      "perhaps": 1258,
      "After": 1259,
      "Is": 1260,
      "da": 1261,
      "tow": 1262,
      "ility": 1263,
      "sense": 1264,
      "pu": 1265,
      "ror": 1266,
      "expression": 1267,
      "power": 1268,
      "ni": 1269,
      "past": 1270,
      "cir": 1271,
      "peri": 1272,
      "immedi": 1273,
      "fortun": 1274,
      "natur": 1275,
      "ON": 1276,
      "thus": 1277,
      "stopped": 1278,
      "mit": 1279,
      "returned": 1280,
      "aced": 1281,
      "oney": 1282,
      "therefore": 1283,
      "posed": 1284,
      "strong": 1285,
      "aring": 1286,
      "aces": 1287,
      "chool": 1288,
      "saying": 1289,
      "family": 1290,
      "ial": 1291,
      "hair": 1292,
      "wild": 1293,
      "lived": 1294,
      "feet": 1295,
      "fellow": 1296,
      "death": 1297,
      "consci": 1298,
      "window": 1299,
      "pen": 1300,
      "sand": 1301,
      "hall": 1302,
      "change": 1303,
      "river": 1304,
      "boy": 1305,
      "eye": 1306,
      "pret": 1307,
      "partic": 1308,
      "Frid": 1309,
      "xed": 1310,
      "ash": 1311,
      "Friday": 1312,
      "lat": 1313,
      "ction": 1314,
      "sight": 1315,
      "dr": 1316,
      "gg": 1317,
      "chair": 1318,
      "),": 1319,
      "prom": 1320,
      "ank": 1321,
      "poor": 1322,
      "au": 1323,
      "ctor": 1324,
      "tone": 1325,
      "became": 1326,
      "within": 1327,
      "unt": 1328,
      "terri": 1329,
      "accoun": 1330,
      "themselves": 1331,
      "getting": 1332,
      "happened": 1333,
      "evidently": 1334,
      "prep": 1335,
      "sleep": 1336,
      "obser": 1337,
      "Se": 1338,
      "dle": 1339,
      "fur": 1340,
      "rock": 1341,
      "liar": 1342,
      "business": 1343,
      "immediately": 1344,
      "whis": 1345,
      "sidered": 1346,
      "followed": 1347,
      "Be": 1348,
      "reli": 1349,
      "ceed": 1350,
      "alked": 1351,
      "considered": 1352,
      "school": 1353,
      "moved": 1354,
      "doubt": 1355,
      "mid": 1356,
      "ude": 1357,
      "understood": 1358,
      "thinking": 1359,
      "spoke": 1360,
      "lady": 1361,
      "cat": 1362,
      "dro": 1363,
      "ie": 1364,
      "sof": 1365,
      "become": 1366,
      "dinner": 1367,
      "fine": 1368,
      "ls": 1369,
      "second": 1370,
      "stair": 1371,
      "dear": 1372,
      "aint": 1373,
      "rench": 1374,
      "wonder": 1375,
      "Pe": 1376,
      "ient": 1377,
      "pat": 1378,
      "held": 1379,
      "fell": 1380,
      "manner": 1381,
      "bright": 1382,
      "ths": 1383,
      "coat": 1384,
      "cap": 1385,
      "bot": 1386,
      "laugh": 1387,
      "different": 1388,
      "eat": 1389,
      "ured": 1390,
      "owed": 1391,
      "trying": 1392,
      "Prince": 1393,
      "talking": 1394,
      "Mary": 1395,
      "cent": 1396,
      "money": 1397,
      "rain": 1398,
      "suc": 1399,
      "says": 1400,
      "afterwards": 1401,
      "French": 1402,
      "respect": 1403,
      "women": 1404,
      "ending": 1405,
      "black": 1406,
      "comfort": 1407,
      "fied": 1408,
      "opin": 1409,
      "horse": 1410,
      "ian": 1411,
      "rit": 1412,
      "scow": 1413,
      "mere": 1414,
      "covered": 1415,
      "prince": 1416,
      "sister": 1417,
      "vin": 1418,
      "contr": 1419,
      "dread": 1420,
      "ons": 1421,
      "hay": 1422,
      "ching": 1423,
      "loved": 1424,
      "seeing": 1425,
      "noticed": 1426,
      "AN": 1427,
      "Ho": 1428,
      "fre": 1429,
      "doing": 1430,
      "ages": 1431,
      "creat": 1432,
      "kiss": 1433,
      "rup": 1434,
      "ances": 1435,
      "idea": 1436,
      "pict": 1437,
      "calm": 1438,
      "particular": 1439,
      "RE": 1440,
      "cing": 1441,
      "lost": 1442,
      "except": 1443,
      "play": 1444,
      "true": 1445,
      "Not": 1446,
      "listen": 1447,
      "minutes": 1448,
      "Rus": 1449,
      "fright": 1450,
      "sitting": 1451,
      "ones": 1452,
      "itself": 1453,
      "six": 1454,
      "Moscow": 1455,
      "cried": 1456,
      "late": 1457,
      "lled": 1458,
      "deep": 1459,
      "iled": 1460,
      "Th": 1461,
      "ention": 1462,
      "living": 1463,
      "prin": 1464,
      "glass": 1465,
      "div": 1466,
      "stead": 1467,
      "One": 1468,
      "Varen": 1469,
      "lear": 1470,
      "acqu": 1471,
      "ously": 1472,
      "known": 1473,
      "yourself": 1474,
      "carriage": 1475,
      "drawing": 1476,
      "English": 1477,
      "Ivan": 1478,
      "spr": 1479,
      "ards": 1480,
      "married": 1481,
      "nature": 1482,
      "har": 1483,
      "arri": 1484,
      "bey": 1485,
      "neither": 1486,
      "tive": 1487,
      "experi": 1488,
      "along": 1489,
      "ciety": 1490,
      "gaz": 1491,
      "return": 1492,
      "bled": 1493,
      "ches": 1494,
      "vol": 1495,
      "chief": 1496,
      "account": 1497,
      "Russi": 1498,
      "blo": 1499,
      "dred": 1500,
      "ase": 1501,
      "ute": 1502,
      "liked": 1503,
      "lips": 1504,
      "raid": 1505,
      "cher": 1506,
      "tou": 1507,
      "flu": 1508,
      "dream": 1509,
      "hundred": 1510,
      "alth": 1511,
      "bles": 1512,
      "pair": 1513,
      "drew": 1514,
      "tion": 1515,
      "tears": 1516,
      "iful": 1517,
      "tru": 1518,
      "difficul": 1519,
      "Go": 1520,
      "flow": 1521,
      "bear": 1522,
      "sad": 1523,
      "gover": 1524,
      "smiling": 1525,
      "Countess": 1526,
      "bered": 1527,
      "doctor": 1528,
      "afraid": 1529,
      "ized": 1530,
      "ughter": 1531,
      "sum": 1532,
      "easy": 1533,
      "ek": 1534,
      "grow": 1535,
      "shad": 1536,
      "means": 1537,
      "tea": 1538,
      "smiled": 1539,
      "Varenka": 1540,
      "ik": 1541,
      "jud": 1542,
      "smo": 1543,
      "stra": 1544,
      "deal": 1545,
      "quired": 1546,
      "condition": 1547,
      "friends": 1548,
      "waiting": 1549,
      "dest": 1550,
      "miss": 1551,
      "ome": 1552,
      "stu": 1553,
      "opened": 1554,
      "finished": 1555,
      "break": 1556,
      "aven": 1557,
      "ually": 1558,
      "occup": 1559,
      "human": 1560,
      "Of": 1561,
      "bread": 1562,
      "danger": 1563,
      "glan": 1564,
      "firm": 1565,
      "carried": 1566,
      "fresh": 1567,
      "mine": 1568,
      "poin": 1569,
      "post": 1570,
      "sometimes": 1571,
      "vice": 1572,
      "appear": 1573,
      "dressed": 1574,
      "natural": 1575,
      "Her": 1576,
      "Mar": 1577,
      "ame": 1578,
      "oured": 1579,
      "aged": 1580,
      "flo": 1581,
      "habit": 1582,
      "towards": 1583,
      "Alexand": 1584,
      "front": 1585,
      "gun": 1586,
      "mus": 1587,
      "adv": 1588,
      "wenty": 1589,
      "XX": 1590,
      "cru": 1591,
      "mou": 1592,
      "opp": 1593,
      "changed": 1594,
      "explain": 1595,
      "affair": 1596,
      "ptain": 1597,
      "visi": 1598,
      "cross": 1599,
      "fan": 1600,
      "itude": 1601,
      "former": 1602,
      "deli": 1603,
      "exam": 1604,
      "thousand": 1605,
      "knowled": 1606,
      "emb": 1607,
      "lit": 1608,
      "ord": 1609,
      "vel": 1610,
      "dep": 1611,
      "during": 1612,
      "sever": 1613,
      "whose": 1614,
      "please": 1615,
      "struck": 1616,
      "However": 1617,
      "With": 1618,
      "plan": 1619,
      "letter": 1620,
      "piece": 1621,
      "resolved": 1622,
      "wise": 1623,
      "ities": 1624,
      "quar": 1625,
      "eved": 1626,
      "wrong": 1627,
      "regard": 1628,
      "stairs": 1629,
      "opinion": 1630,
      "ired": 1631,
      "twenty": 1632,
      "enter": 1633,
      "shout": 1634,
      "offic": 1635,
      "speaking": 1636,
      "hardly": 1637,
      "beginning": 1638,
      "sweet": 1639,
      "Ch": 1640,
      "hsky": 1641,
      "mbered": 1642,
      "vour": 1643,
      "dead": 1644,
      "amp": 1645,
      "standing": 1646,
      "remembered": 1647,
      "quickly": 1648,
      "cast": 1649,
      "ghed": 1650,
      "ying": 1651,
      "seems": 1652,
      "desire": 1653,
      "gram": 1654,
      "spirit": 1655,
      "soft": 1656,
      "gri": 1657,
      "uc": 1658,
      "ens": 1659,
      "idly": 1660,
      "forgot": 1661,
      "exist": 1662,
      "captain": 1663,
      "sive": 1664,
      "pray": 1665,
      "occas": 1666,
      "Ade": 1667,
      "Svi": 1668,
      "filled": 1669,
      "por": 1670,
      "pull": 1671,
      "yaz": 1672,
      "received": 1673,
      "top": 1674,
      "stren": 1675,
      "agree": 1676,
      "pping": 1677,
      "perfect": 1678,
      "ING": 1679,
      "Sviyaz": 1680,
      "Sviyazhsky": 1681,
      "bly": 1682,
      "ring": 1683,
      "llect": 1684,
      "akes": 1685,
      "laid": 1686,
      "important": 1687,
      "Con": 1688,
      "Fair": 1689,
      "Ser": 1690,
      "imed": 1691,
      "forget": 1692,
      "fax": 1693,
      "cial": 1694,
      "earth": 1695,
      "reply": 1696,
      "obli": 1697,
      "horses": 1698,
      "Having": 1699,
      "Fairfax": 1700,
      "Bess": 1701,
      "hum": 1702,
      "war": 1703,
      "reached": 1704,
      "sav": 1705,
      "ained": 1706,
      "feelings": 1707,
      "ladies": 1708,
      "Don": 1709,
      "lu": 1710,
      "nu": 1711,
      "effort": 1712,
      "Adele": 1713,
      "Bessie": 1714,
      "Let": 1715,
      "cr": 1716,
      "fing": 1717,
      "pan": 1718,
      "board": 1719,
      "laimed": 1720,
      "silent": 1721,
      "steps": 1722,
      "charac": 1723,
      "trouble": 1724,
      "labour": 1725,
      "spl": 1726,
      "third": 1727,
      "ased": 1728,
      "ordin": 1729,
      "stri": 1730,
      "hill": 1731,
      "ceive": 1732,
      "affect": 1733,
      "everybody": 1734,
      "aching": 1735,
      "carry": 1736,
      "general": 1737,
      "straight": 1738,
      "streng": 1739,
      "ago": 1740,
      "eight": 1741,
      "hes": 1742,
      "iting": 1743,
      "stud": 1744,
      "suppose": 1745,
      "trees": 1746,
      "Reed": 1747,
      "repeated": 1748,
      "conscious": 1749,
      "terrible": 1750,
      "ather": 1751,
      "cand": 1752,
      "fer": 1753,
      "send": 1754,
      "scar": 1755,
      "itted": 1756,
      "content": 1757,
      "trem": 1758,
      "silence": 1759,
      "hours": 1760,
      "hung": 1761,
      "tempt": 1762,
      ",--": 1763,
      "killed": 1764,
      "tled": 1765,
      "ingly": 1766,
      "idence": 1767,
      "certainly": 1768,
      "surprised": 1769,
      "town": 1770,
      "King": 1771,
      "Where": 1772,
      "burn": 1773,
      "yed": 1774,
      "adm": 1775,
      "delight": 1776,
      "ical": 1777,
      "beautiful": 1778,
      "nurse": 1779,
      "Come": 1780,
      "bri": 1781,
      "pon": 1782,
      "rance": 1783,
      "offe": 1784,
      "mention": 1785,
      "happiness": 1786,
      "fortune": 1787,
      "further": 1788,
      "Here": 1789,
      "faith": 1790,
      "burg": 1791,
      "peasants": 1792,
      "circ": 1793,
      "several": 1794,
      "Ah": 1795,
      "mur": 1796,
      "educ": 1797,
      "super": 1798,
      "reflect": 1799,
      "Who": 1800,
      "avo": 1801,
      "dut": 1802,
      "anim": 1803,
      "entire": 1804,
      "dem": 1805,
      "rap": 1806,
      "race": 1807,
      "worth": 1808,
      "cip": 1809,
      "grew": 1810,
      "proper": 1811,
      "impress": 1812,
      "presence": 1813,
      "decided": 1814,
      "Peters": 1815,
      "Bet": 1816,
      "EN": 1817,
      "wre": 1818,
      "inst": 1819,
      "tom": 1820,
      "orn": 1821,
      "leg": 1822,
      "drink": 1823,
      "Petersburg": 1824,
      "ze": 1825,
      "arily": 1826,
      "sequ": 1827,
      "ution": 1828,
      "ality": 1829,
      "host": 1830,
      "ties": 1831,
      "seem": 1832,
      "comple": 1833,
      "tained": 1834,
      "observed": 1835,
      "concer": 1836,
      "que": 1837,
      "worse": 1838,
      "distance": 1839,
      "Ves": 1840,
      "accomp": 1841,
      "cted": 1842,
      "closed": 1843,
      "lovsky": 1844,
      "Veslovsky": 1845,
      "crow": 1846,
      "pity": 1847,
      "tory": 1848,
      "pet": 1849,
      "knowing": 1850,
      "comes": 1851,
      "watch": 1852,
      "Some": 1853,
      "Society": 1854,
      "started": 1855,
      "satisfied": 1856,
      "character": 1857,
      "bow": 1858,
      "tree": 1859,
      "memor": 1860,
      "accor": 1861,
      "--\"": 1862,
      "bling": 1863,
      "fig": 1864,
      "clock": 1865,
      "Alexis": 1866,
      "atter": 1867,
      "tee": 1868,
      "common": 1869,
      "effect": 1870,
      "settled": 1871,
      "attention": 1872,
      "ES": 1873,
      "ball": 1874,
      "gar": 1875,
      "glo": 1876,
      "sess": 1877,
      "rez": 1878,
      "cover": 1879,
      "caught": 1880,
      "relations": 1881,
      "besides": 1882,
      "middle": 1883,
      "contrary": 1884,
      ".”": 1885,
      "IS": 1886,
      "je": 1887,
      "pes": 1888,
      "tch": 1889,
      "sick": 1890,
      "possess": 1891,
      "spent": 1892,
      "serious": 1893,
      "arming": 1894,
      "rank": 1895,
      "Serez": 1896,
      "occasion": 1897,
      "circum": 1898,
      "Serezha": 1899,
      "Ly": 1900,
      "gard": 1901,
      "line": 1902,
      "ury": 1903,
      "usion": 1904,
      "box": 1905,
      "placed": 1906,
      "fixed": 1907,
      "prof": 1908,
      "broken": 1909,
      "corn": 1910,
      "exclaimed": 1911,
      "beside": 1912,
      "strength": 1913,
      "Every": 1914,
      "free": 1915,
      "formed": 1916,
      "wel": 1917,
      "rich": 1918,
      "ney": 1919,
      "neck": 1920,
      "dog": 1921,
      "die": 1922,
      "recogn": 1923,
      "blood": 1924,
      "AR": 1925,
      "tched": 1926,
      "secre": 1927,
      "tern": 1928,
      "tired": 1929,
      "concl": 1930,
      "reading": 1931,
      "ishing": 1932,
      "giving": 1933,
      "rising": 1934,
      "ovna": 1935,
      "pieces": 1936,
      "remained": 1937,
      "ED": 1938,
      "Mik": 1939,
      "Po": 1940,
      "ging": 1941,
      "kne": 1942,
      "incl": 1943,
      "anx": 1944,
      "asha": 1945,
      "ors": 1946,
      "lying": 1947,
      "arer": 1948,
      "morrow": 1949,
      "listened": 1950,
      "difficulty": 1951,
      "Mikhay": 1952,
      "OR": 1953,
      "Vas": 1954,
      "gy": 1955,
      "enjoy": 1956,
      "peace": 1957,
      "horn": 1958,
      "interrup": 1959,
      "knowledge": 1960,
      ",”": 1961,
      "Nich": 1962,
      "sold": 1963,
      "lif": 1964,
      "stop": 1965,
      "olas": 1966,
      "nearly": 1967,
      "showed": 1968,
      "daughter": 1969,
      "figure": 1970,
      "Nicholas": 1971,
      "cry": 1972,
      "ining": 1973,
      "thes": 1974,
      "rer": 1975,
      "enced": 1976,
      "seat": 1977,
      "notice": 1978,
      "across": 1979,
      "ific": 1980,
      "desp": 1981,
      "paper": 1982,
      "holding": 1983,
      "remarked": 1984,
      "Constant": 1985,
      "entirely": 1986,
      "Mikhaylov": 1987,
      "Whi": 1988,
      "ild": 1989,
      "none": 1990,
      "sw": 1991,
      "weak": 1992,
      "hot": 1993,
      "aded": 1994,
      "dressing": 1995,
      "beyond": 1996,
      "truth": 1997,
      "Constantine": 1998,
      "meant": 1999,
      "lead": 2000,
      "aby": 2001,
      "abroad": 2002,
      "discus": 2003,
      "prov": 2004,
      "glance": 2005,
      "early": 2006,
      "tender": 2007,
      "prepared": 2008,
      "circumst": 2009,
      "pun": 2010,
      "health": 2011,
      "ident": 2012,
      "wet": 2013,
      "rious": 2014,
      "col": 2015,
      "coach": 2016,
      "purpose": 2017,
      "pretty": 2018,
      "success": 2019,
      "acquaint": 2020,
      "Betsy": 2021,
      "Sh": 2022,
      "bility": 2023,
      "jump": 2024,
      "mut": 2025,
      "sal": 2026,
      "va": 2027,
      "ines": 2028,
      "cell": 2029,
      "note": 2030,
      "favour": 2031,
      "passion": 2032,
      "leaving": 2033,
      "meaning": 2034,
      "peasant": 2035,
      "picture": 2036,
      "frightened": 2037,
      "mouth": 2038,
      "complete": 2039,
      "From": 2040,
      "igh": 2041,
      "mad": 2042,
      "phy": 2043,
      "wed": 2044,
      "ama": 2045,
      "party": 2046,
      "grass": 2047,
      "hurried": 2048,
      "sorry": 2049,
      "ordinary": 2050,
      "dry": 2051,
      "asleep": 2052,
      "ordered": 2053,
      "lle": 2054,
      "rent": 2055,
      "pale": 2056,
      "honest": 2057,
      "scarce": 2058,
      "bon": 2059,
      "walked": 2060,
      "yre": 2061,
      "esca": 2062,
      "lean": 2063,
      "liber": 2064,
      "cheer": 2065,
      "chest": 2066,
      "garden": 2067,
      "fond": 2068,
      "gall": 2069,
      "grown": 2070,
      "thick": 2071,
      "erable": 2072,
      "forward": 2073,
      "hood": 2074,
      "exact": 2075,
      "raised": 2076,
      "trust": 2077,
      "horror": 2078,
      "dreadful": 2079,
      "particularly": 2080,
      "learn": 2081,
      "Bes": 2082,
      "Just": 2083,
      "Mad": 2084,
      "Thorn": 2085,
      "bat": 2086,
      "bird": 2087,
      "cure": 2088,
      "fit": 2089,
      "sion": 2090,
      "var": 2091,
      "ye": 2092,
      "instant": 2093,
      "lock": 2094,
      "unpleasant": 2095,
      "clothes": 2096,
      "object": 2097,
      "surprise": 2098,
      "simple": 2099,
      "creature": 2100,
      "Thornfield": 2101,
      "Eyre": 2102,
      "gain": 2103,
      "kill": 2104,
      "len": 2105,
      "leng": 2106,
      "pay": 2107,
      "rate": 2108,
      "oned": 2109,
      "ative": 2110,
      "stir": 2111,
      "irrit": 2112,
      "died": 2113,
      "shook": 2114,
      "interested": 2115,
      "suffic": 2116,
      "difficult": 2117,
      "divor": 2118,
      "study": 2119,
      ".]": 2120,
      "eks": 2121,
      "jour": 2122,
      "pas": 2123,
      "sle": 2124,
      "ination": 2125,
      "invol": 2126,
      "thor": 2127,
      "station": 2128,
      "sake": 2129,
      "pecu": 2130,
      "dev": 2131,
      "prob": 2132,
      "spite": 2133,
      "fles": 2134,
      "Have": 2135,
      "peculiar": 2136,
      "big": 2137,
      "thre": 2138,
      "force": 2139,
      "sole": 2140,
      "lie": 2141,
      "lies": 2142,
      "conne": 2143,
      "anyone": 2144,
      "shame": 2145,
      "stern": 2146,
      "Russian": 2147,
      "Prov": 2148,
      "ah": 2149,
      "ger": 2150,
      "belong": 2151,
      "irty": 2152,
      "ries": 2153,
      "train": 2154,
      "handsome": 2155,
      "putting": 2156,
      "shot": 2157,
      "action": 2158,
      "months": 2159,
      "finite": 2160,
      "maid": 2161,
      "suffer": 2162,
      "Only": 2163,
      "drive": 2164,
      "honour": 2165,
      "remark": 2166,
      "affairs": 2167,
      "OF": 2168,
      "bound": 2169,
      "wis": 2170,
      "rehen": 2171,
      "chur": 2172,
      "pered": 2173,
      "knows": 2174,
      "produ": 2175,
      "vich": 2176,
      "thank": 2177,
      "rows": 2178,
      "dia": 2179,
      "impro": 2180,
      "ize": 2181,
      "ushing": 2182,
      "running": 2183,
      "obliged": 2184,
      "Lydia": 2185,
      "length": 2186,
      "Que": 2187,
      "Ste": 2188,
      "iliar": 2189,
      "loud": 2190,
      "os": 2191,
      "sli": 2192,
      "slow": 2193,
      "separ": 2194,
      "als": 2195,
      "outside": 2196,
      "motion": 2197,
      "ices": 2198,
      "shut": 2199,
      "waited": 2200,
      "England": 2201,
      "ier": 2202,
      "ph": 2203,
      "slight": 2204,
      "itions": 2205,
      "noon": 2206,
      "These": 2207,
      "aming": 2208,
      "viol": 2209,
      "spect": 2210,
      "Ingram": 2211,
      "courage": 2212,
      "matters": 2213,
      "gentleman": 2214,
      "Besides": 2215,
      "ST": 2216,
      "Tur": 2217,
      "pit": 2218,
      "rust": 2219,
      "talked": 2220,
      "thin": 2221,
      "orm": 2222,
      "meas": 2223,
      "safe": 2224,
      "iron": 2225,
      "uni": 2226,
      "def": 2227,
      "gold": 2228,
      "amed": 2229,
      "despair": 2230,
      "servant": 2231,
      "education": 2232,
      "secret": 2233,
      "church": 2234,
      "Ex": 2235,
      "baby": 2236,
      "fun": 2237,
      "ising": 2238,
      "ening": 2239,
      "alous": 2240,
      "nearer": 2241,
      "teen": 2242,
      "marry": 2243,
      "questions": 2244,
      "recollect": 2245,
      "clearly": 2246,
      "ceeded": 2247,
      "spring": 2248,
      "fancy": 2249,
      "shouted": 2250,
      "forgotten": 2251,
      "demand": 2252,
      "impression": 2253,
      "Com": 2254,
      "LE": 2255,
      "OU": 2256,
      "dull": 2257,
      "lan": 2258,
      "twi": 2259,
      "heav": 2260,
      "instead": 2261,
      "asov": 2262,
      "legs": 2263,
      "sail": 2264,
      "consequ": 2265,
      "pot": 2266,
      "whatever": 2267,
      "possi": 2268,
      "anging": 2269,
      "corner": 2270,
      "easily": 2271,
      "meeting": 2272,
      "miles": 2273,
      "laughing": 2274,
      "Ivanovna": 2275,
      "avoid": 2276,
      "Queen": 2277,
      "Will": 2278,
      "bb": 2279,
      "nest": 2280,
      "influ": 2281,
      "ilt": 2282,
      "assist": 2283,
      "angry": 2284,
      "supper": 2285,
      "approached": 2286,
      "grace": 2287,
      "frequ": 2288,
      "glanced": 2289,
      "splend": 2290,
      "duty": 2291,
      "according": 2292,
      "divorce": 2293,
      "involunt": 2294,
      "bas": 2295,
      "bour": 2296,
      "cul": 2297,
      "equ": 2298,
      "pill": 2299,
      "pound": 2300,
      "forgive": 2301,
      "hers": 2302,
      "allow": 2303,
      "lot": 2304,
      "deta": 2305,
      "poc": 2306,
      "ifferen": 2307,
      "pressed": 2308,
      "carefully": 2309,
      "excited": 2310,
      "spirits": 2311,
      "quietly": 2312,
      "deliver": 2313,
      "candle": 2314,
      ".—": 2315,
      "aid": 2316,
      "ban": 2317,
      "blow": 2318,
      "fu": 2319,
      "fas": 2320,
      "fal": 2321,
      "fif": 2322,
      "nine": 2323,
      "oth": 2324,
      "snow": 2325,
      "wro": 2326,
      "bell": 2327,
      "ents": 2328,
      "week": 2329,
      "moon": 2330,
      "food": 2331,
      "plant": 2332,
      "attle": 2333,
      "occur": 2334,
      "girls": 2335,
      "minute": 2336,
      "arrived": 2337,
      "summer": 2338,
      "visitor": 2339,
      "ashamed": 2340,
      "wrote": 2341,
      "Ar": 2342,
      "cou": 2343,
      "fut": 2344,
      "gust": 2345,
      "iant": 2346,
      "ton": 2347,
      "wit": 2348,
      "incre": 2349,
      "sty": 2350,
      "vere": 2351,
      "terday": 2352,
      "indifferen": 2353,
      "stor": 2354,
      "angu": 2355,
      "clean": 2356,
      "symp": 2357,
      "arrange": 2358,
      "listening": 2359,
      "heavy": 2360,
      "bag": 2361,
      "fat": 2362,
      "ges": 2363,
      "vill": 2364,
      "anti": 2365,
      "ham": 2366,
      "rily": 2367,
      "net": 2368,
      "acted": 2369,
      "tran": 2370,
      "ortun": 2371,
      "cloud": 2372,
      "hurt": 2373,
      "interrupted": 2374,
      "While": 2375,
      "AT": 2376,
      "Kat": 2377,
      "Le": 2378,
      "utter": 2379,
      "ung": 2380,
      "unti": 2381,
      "sult": 2382,
      "path": 2383,
      "guard": 2384,
      "asking": 2385,
      "familiar": 2386,
      "later": 2387,
      "governess": 2388,
      "affection": 2389,
      "Your": 2390,
      "ots": 2391,
      "song": 2392,
      "warm": 2393,
      "inqu": 2394,
      "intell": 2395,
      "tha": 2396,
      "ory": 2397,
      "hig": 2398,
      "unable": 2399,
      "dom": 2400,
      "voy": 2401,
      "marriage": 2402,
      "izing": 2403,
      "expressed": 2404,
      "avasov": 2405,
      "iana": 2406,
      "experienced": 2407,
      "cherbat": 2408,
      "circumstances": 2409,
      "Shcherbat": 2410,
      "future": 2411,
      "Katavasov": 2412,
      "AL": 2413,
      "Al": 2414,
      "Ger": 2415,
      "em": 2416,
      "fle": 2417,
      "nice": 2418,
      "sus": 2419,
      "inv": 2420,
      "repro": 2421,
      "itary": 2422,
      "weather": 2423,
      "feat": 2424,
      "sugg": 2425,
      "green": 2426,
      "descri": 2427,
      "rushed": 2428,
      "fallen": 2429,
      "beauty": 2430,
      "occupied": 2431,
      "jealous": 2432,
      "Did": 2433,
      "Diana": 2434,
      "bank": 2435,
      "kno": 2436,
      "phi": 2437,
      "uation": 2438,
      "wound": 2439,
      "heaven": 2440,
      "throw": 2441,
      "ison": 2442,
      "lling": 2443,
      "stup": 2444,
      "acked": 2445,
      "caused": 2446,
      "fice": 2447,
      "wishing": 2448,
      "servants": 2449,
      "gentlemen": 2450,
      "creatures": 2451,
      "advant": 2452,
      "cruel": 2453,
      "flesh": 2454,
      "aly": 2455,
      "dim": 2456,
      "ior": 2457,
      "ield": 2458,
      "sin": 2459,
      "scre": 2460,
      "tall": 2461,
      "ency": 2462,
      "stone": 2463,
      "ady": 2464,
      "tily": 2465,
      "grey": 2466,
      "broke": 2467,
      "uded": 2468,
      "ease": 2469,
      "generally": 2470,
      "III": 2471,
      "number": 2472,
      "fingers": 2473,
      "memory": 2474,
      "physi": 2475,
      "Aga": 2476,
      "bent": 2477,
      "mn": 2478,
      "mas": 2479,
      "moun": 2480,
      "yield": 2481,
      "intim": 2482,
      "attr": 2483,
      "ented": 2484,
      "neg": 2485,
      "termin": 2486,
      "degre": 2487,
      "broad": 2488,
      "happen": 2489,
      "company": 2490,
      "distur": 2491,
      "powder": 2492,
      "simply": 2493,
      "pointing": 2494,
      "pointed": 2495,
      "scarcely": 2496,
      "By": 2497,
      "Span": 2498,
      "ben": 2499,
      "cli": 2500,
      "cise": 2501,
      "ele": 2502,
      "oy": 2503,
      "pic": 2504,
      "winter": 2505,
      "arch": 2506,
      "rodu": 2507,
      "ric": 2508,
      "shoulder": 2509,
      "apart": 2510,
      "guess": 2511,
      "following": 2512,
      "commun": 2513,
      "yesterday": 2514,
      "merely": 2515,
      "mission": 2516,
      "escape": 2517,
      "suggest": 2518,
      "Yet": 2519,
      "mal": 2520,
      "uct": 2521,
      "reach": 2522,
      "secure": 2523,
      "aya": 2524,
      "goat": 2525,
      "using": 2526,
      "evna": 2527,
      "fold": 2528,
      "iling": 2529,
      "spread": 2530,
      "torment": 2531,
      "joined": 2532,
      "support": 2533,
      "interesting": 2534,
      "build": 2535,
      "walking": 2536,
      "opportun": 2537,
      "depend": 2538,
      "Chris": 2539,
      "lifted": 2540,
      "slowly": 2541,
      "until": 2542,
      "AS": 2543,
      "Yash": 2544,
      "wand": 2545,
      "zz": 2546,
      "inc": 2547,
      "thered": 2548,
      "asp": 2549,
      "sage": 2550,
      "acing": 2551,
      "fault": 2552,
      "didn": 2553,
      "rooms": 2554,
      "passing": 2555,
      "write": 2556,
      "suffering": 2557,
      "pursu": 2558,
      "imagine": 2559,
      "movement": 2560,
      "coachman": 2561,
      "Christi": 2562,
      "Yashvin": 2563,
      "elect": 2564,
      "fro": 2565,
      "ili": 2566,
      "mag": 2567,
      "rise": 2568,
      "instru": 2569,
      "assu": 2570,
      "aled": 2571,
      "fetch": 2572,
      "hate": 2573,
      "looks": 2574,
      "begun": 2575,
      "offer": 2576,
      "oppos": 2577,
      "introdu": 2578,
      "hurry": 2579,
      "drawn": 2580,
      "promised": 2581,
      "comfortable": 2582,
      "AND": 2583,
      "offered": 2584,
      "mentioned": 2585,
      "Shcherbatsky": 2586,
      "German": 2587,
      "stupid": 2588,
      "Du": 2589,
      "ba": 2590,
      "blic": 2591,
      "dare": 2592,
      "vic": 2593,
      "enka": 2594,
      "noise": 2595,
      "beat": 2596,
      "although": 2597,
      "acti": 2598,
      "accept": 2599,
      "moving": 2600,
      "fool": 2601,
      "blue": 2602,
      "discovered": 2603,
      "stranger": 2604,
      "desc": 2605,
      "presently": 2606,
      "ively": 2607,
      "painful": 2608,
      "emplo": 2609,
      "burst": 2610,
      "shadow": 2611,
      "breakfast": 2612,
      "involuntarily": 2613,
      "fish": 2614,
      "sem": 2615,
      "feared": 2616,
      "agit": 2617,
      "ears": 2618,
      "surround": 2619,
      "spot": 2620,
      "spoken": 2621,
      "writing": 2622,
      "breath": 2623,
      "orders": 2624,
      "custo": 2625,
      "bottom": 2626,
      "kissed": 2627,
      "destro": 2628,
      "crowd": 2629,
      "Mikhaylovna": 2630,
      "journey": 2631,
      "false": 2632,
      "Agatha": 2633,
      "IT": 2634,
      "Low": 2635,
      "ood": 2636,
      "inj": 2637,
      "inquired": 2638,
      "thed": 2639,
      "around": 2640,
      "arrow": 2641,
      "nose": 2642,
      "season": 2643,
      "rope": 2644,
      "velo": 2645,
      "saved": 2646,
      "ability": 2647,
      "exer": 2648,
      "ague": 2649,
      "roubles": 2650,
      "aked": 2651,
      "cks": 2652,
      "service": 2653,
      "tains": 2654,
      "treat": 2655,
      "believed": 2656,
      "farther": 2657,
      "keeping": 2658,
      "situation": 2659,
      "direction": 2660,
      "importance": 2661,
      "existence": 2662,
      "anxious": 2663,
      "exactly": 2664,
      "Madame": 2665,
      "probably": 2666,
      "influence": 2667,
      "Ab": 2668,
      "Bar": 2669,
      "IV": 2670,
      "Me": 2671,
      "tur": 2672,
      "save": 2673,
      "result": 2674,
      "ples": 2675,
      "willing": 2676,
      "chen": 2677,
      "arent": 2678,
      "class": 2679,
      "prevent": 2680,
      "quire": 2681,
      "rowned": 2682,
      "grave": 2683,
      "laughed": 2684,
      "sisters": 2685,
      "perfectly": 2686,
      "savages": 2687,
      "soldi": 2688,
      "acquaintance": 2689,
      "wishes": 2690,
      "opposite": 2691,
      "Temp": 2692,
      "cro": 2693,
      "eper": 2694,
      "tu": 2695,
      "tent": 2696,
      "inf": 2697,
      "meth": 2698,
      "forced": 2699,
      "unch": 2700,
      "convin": 2701,
      "agre": 2702,
      "roud": 2703,
      "mental": 2704,
      "lav": 2705,
      "strain": 2706,
      "footman": 2707,
      "stream": 2708,
      "utely": 2709,
      "glancing": 2710,
      "floor": 2711,
      "splendid": 2712,
      "voyage": 2713,
      "De": 2714,
      "swi": 2715,
      "thirty": 2716,
      "severe": 2717,
      "lives": 2718,
      "allowed": 2719,
      "evil": 2720,
      "teac": 2721,
      "ager": 2722,
      "estate": 2723,
      "news": 2724,
      "isted": 2725,
      "special": 2726,
      "watched": 2727,
      "hearing": 2728,
      "priv": 2729,
      "books": 2730,
      "whispered": 2731,
      "official": 2732,
      "porter": 2733,
      "Gol": 2734,
      "Never": 2735,
      "Per": 2736,
      "faces": 2737,
      "langu": 2738,
      "sought": 2739,
      "regre": 2740,
      "aste": 2741,
      "youth": 2742,
      "alive": 2743,
      "absol": 2744,
      "ables": 2745,
      "cave": 2746,
      "persu": 2747,
      "bless": 2748,
      "blame": 2749,
      "afternoon": 2750,
      "shape": 2751,
      "guil": 2752,
      "excite": 2753,
      "aware": 2754,
      "Good": 2755,
      "appearance": 2756,
      "Christian": 2757,
      "Temple": 2758,
      "Pet": 2759,
      "Very": 2760,
      "kes": 2761,
      "lished": 2762,
      "proud": 2763,
      "receive": 2764,
      "noble": 2765,
      "seven": 2766,
      "ourselves": 2767,
      "extra": 2768,
      "explan": 2769,
      "worked": 2770,
      "blu": 2771,
      "cking": 2772,
      "ishche": 2773,
      "ounced": 2774,
      "cles": 2775,
      "merry": 2776,
      "month": 2777,
      "visit": 2778,
      "confused": 2779,
      "princip": 2780,
      "touched": 2781,
      "Vasenka": 2782,
      "threw": 2783,
      "fashi": 2784,
      "storm": 2785,
      "Hall": 2786,
      "Or": 2787,
      "Te": 2788,
      "born": 2789,
      "cart": 2790,
      "dy": 2791,
      "fight": 2792,
      "hast": 2793,
      "ience": 2794,
      "makes": 2795,
      "inct": 2796,
      "ley": 2797,
      "roof": 2798,
      "rovich": 2799,
      "weeks": 2800,
      "active": 2801,
      "tel": 2802,
      "ified": 2803,
      "raz": 2804,
      "seek": 2805,
      "--'": 2806,
      "otherwise": 2807,
      "forehead": 2808,
      "shoulders": 2809,
      "Nothing": 2810,
      "compan": 2811,
      "moments": 2812,
      "steward": 2813,
      "confess": 2814,
      "touch": 2815,
      "jumped": 2816,
      "sufficient": 2817,
      "ishchev": 2818,
      "Are": 2819,
      "Can": 2820,
      "bowed": 2821,
      "mach": 2822,
      "wra": 2823,
      "ourer": 2824,
      "enishchev": 2825,
      "itable": 2826,
      "tering": 2827,
      "extre": 2828,
      "ardon": 2829,
      "Helen": 2830,
      "itten": 2831,
      "tingu": 2832,
      "desired": 2833,
      "telling": 2834,
      "sincere": 2835,
      "driven": 2836,
      "labourer": 2837,
      "judge": 2838,
      "pulled": 2839,
      "savage": 2840,
      "pocket": 2841,
      "advantage": 2842,
      "opportunity": 2843,
      "soldiers": 2844,
      "Golenishchev": 2845,
      "!--": 2846,
      "Li": 2847,
      "Mason": 2848,
      "TO": 2849,
      "ggl": 2850,
      "oting": 2851,
      "ron": 2852,
      "tin": 2853,
      "reat": 2854,
      "armed": 2855,
      "wash": 2856,
      "cost": 2857,
      "acc": 2858,
      "contempt": 2859,
      "els": 2860,
      "lace": 2861,
      "viv": 2862,
      "calling": 2863,
      "paused": 2864,
      "lower": 2865,
      "grat": 2866,
      "chamber": 2867,
      "distress": 2868,
      "approaching": 2869,
      "miserable": 2870,
      "arranged": 2871,
      "signific": 2872,
      "mistress": 2873,
      "gazing": 2874,
      "pounds": 2875,
      "details": 2876,
      "occurred": 2877,
      "method": 2878,
      "convinced": 2879,
      "guilty": 2880,
      "Mama": 2881,
      "bs": 2882,
      "gle": 2883,
      "mir": 2884,
      "mile": 2885,
      "narrow": 2886,
      "pend": 2887,
      "rad": 2888,
      "wing": 2889,
      "aris": 2890,
      "arti": 2891,
      "hide": 2892,
      "entrance": 2893,
      "key": 2894,
      "manage": 2895,
      "wore": 2896,
      "tray": 2897,
      "story": 2898,
      "working": 2899,
      "stretched": 2900,
      "mistake": 2901,
      "author": 2902,
      "whisper": 2903,
      "Because": 2904,
      "visible": 2905,
      "quarter": 2906,
      "regarded": 2907,
      "agreeable": 2908,
      "welve": 2909,
      "leaning": 2910,
      "!...": 2911,
      "Chur": 2912,
      "Ri": 2913,
      "ker": 2914,
      "races": 2915,
      "squ": 2916,
      "tal": 2917,
      "twelve": 2918,
      "wide": 2919,
      "ann": 2920,
      "ese": 2921,
      "mead": 2922,
      "ading": 2923,
      "cool": 2924,
      "neigh": 2925,
      "excell": 2926,
      "skin": 2927,
      "whence": 2928,
      "sery": 2929,
      "grand": 2930,
      "shir": 2931,
      "bitter": 2932,
      "written": 2933,
      "priest": 2934,
      "trave": 2935,
      "imagined": 2936,
      "nursery": 2937,
      "latter": 2938,
      "gazed": 2939,
      "growing": 2940,
      "Steve": 2941,
      "sympath": 2942,
      "village": 2943,
      "Lo": 2944,
      "bal": 2945,
      "dying": 2946,
      "eager": 2947,
      "fac": 2948,
      "fra": 2949,
      "fate": 2950,
      "gen": 2951,
      "gion": 2952,
      "ia": 2953,
      "iety": 2954,
      "pup": 2955,
      "edom": 2956,
      "nobody": 2957,
      "loss": 2958,
      "cook": 2959,
      "une": 2960,
      "kets": 2961,
      "upstairs": 2962,
      "tied": 2963,
      "goes": 2964,
      "suf": 2965,
      "shar": 2966,
      "cano": 2967,
      "likely": 2968,
      "design": 2969,
      "brea": 2970,
      "single": 2971,
      "regular": 2972,
      "directly": 2973,
      "Ivanich": 2974,
      "liberty": 2975,
      "cheerful": 2976,
      "Turtle": 2977,
      "inquir": 2978,
      "private": 2979,
      "excitement": 2980,
      "blushed": 2981,
      "Church": 2982,
      "neighbour": 2983,
      "Brock": 2984,
      "CH": 2985,
      "ME": 2986,
      "ler": 2987,
      "non": 2988,
      "sla": 2989,
      "taste": 2990,
      "vous": 2991,
      "lease": 2992,
      "stro": 2993,
      "stac": 2994,
      "stick": 2995,
      "charming": 2996,
      "ado": 2997,
      "fever": 2998,
      "unexpected": 2999,
      "owing": 3000,
      "devo": 3001,
      "depart": 3002,
      "upset": 3003,
      "conqu": 3004,
      "bye": 3005,
      "antly": 3006,
      "vig": 3007,
      "angers": 3008,
      "earnest": 3009,
      "ruin": 3010,
      "brid": 3011,
      "bride": 3012,
      "previ": 3013,
      "apparent": 3014,
      "hurst": 3015,
      "eneath": 3016,
      "circle": 3017,
      "flowers": 3018,
      "explained": 3019,
      "rapidly": 3020,
      "twice": 3021,
      "degree": 3022,
      "agreed": 3023,
      "regret": 3024,
      "meadow": 3025,
      "Brockle": 3026,
      "Cat": 3027,
      "Eu": 3028,
      "Hatter": 3029,
      "Lord": 3030,
      "Mill": 3031,
      "furn": 3032,
      "kni": 3033,
      "sl": 3034,
      "ences": 3035,
      "argu": 3036,
      "below": 3037,
      "alities": 3038,
      "addressing": 3039,
      "shel": 3040,
      "unhappy": 3041,
      "terror": 3042,
      "acy": 3043,
      "determin": 3044,
      "ulous": 3045,
      "bold": 3046,
      "forest": 3047,
      "chess": 3048,
      "cler": 3049,
      "tenance": 3050,
      "pause": 3051,
      "conditions": 3052,
      "dining": 3053,
      "views": 3054,
      "public": 3055,
      "religion": 3056,
      "firmly": 3057,
      "Alexander": 3058,
      "Alexandrovich": 3059,
      "brill": 3060,
      "features": 3061,
      "Rivers": 3062,
      "Brocklehurst": 3063,
      "GE": 3064,
      "Ind": 3065,
      "bid": 3066,
      "bare": 3067,
      "beneath": 3068,
      "dance": 3069,
      "dared": 3070,
      "ping": 3071,
      "task": 3072,
      "vain": 3073,
      "yard": 3074,
      "theless": 3075,
      "remind": 3076,
      "aside": 3077,
      "ashed": 3078,
      "add": 3079,
      "shone": 3080,
      "yours": 3081,
      "ishment": 3082,
      "pride": 3083,
      "viz": 3084,
      "greater": 3085,
      "attent": 3086,
      "expecting": 3087,
      "ridic": 3088,
      "Mock": 3089,
      "temper": 3090,
      "faction": 3091,
      "satisfaction": 3092,
      "freedom": 3093,
      "Russia": 3094,
      "faithful": 3095,
      "slept": 3096,
      "solemn": 3097,
      "Lowood": 3098,
      "language": 3099,
      "Tell": 3100,
      "extreme": 3101,
      "LY": 3102,
      "Two": 3103,
      "aim": 3104,
      "bac": 3105,
      "pure": 3106,
      "rul": 3107,
      "rist": 3108,
      "tide": 3109,
      "zen": 3110,
      "inn": 3111,
      "required": 3112,
      "asing": 3113,
      "eness": 3114,
      "seized": 3115,
      "uttered": 3116,
      "verse": 3117,
      "decl": 3118,
      "conce": 3119,
      "owner": 3120,
      "voices": 3121,
      "repent": 3122,
      "game": 3123,
      "gathered": 3124,
      "wants": 3125,
      "marsh": 3126,
      "contro": 3127,
      "supp": 3128,
      "friendly": 3129,
      "distant": 3130,
      "vision": 3131,
      "cured": 3132,
      "portra": 3133,
      "bottle": 3134,
      "smooth": 3135,
      "trembling": 3136,
      "offee": 3137,
      "uniform": 3138,
      "tranqu": 3139,
      "Gry": 3140,
      "omy": 3141,
      "tro": 3142,
      "erial": 3143,
      "ital": 3144,
      "weary": 3145,
      "wealth": 3146,
      "hopes": 3147,
      "resist": 3148,
      "sighed": 3149,
      "raft": 3150,
      "disput": 3151,
      "aff": 3152,
      "apa": 3153,
      "countenance": 3154,
      "pressing": 3155,
      "sooner": 3156,
      "scene": 3157,
      "showing": 3158,
      "continually": 3159,
      "naturally": 3160,
      "promise": 3161,
      "catch": 3162,
      "drove": 3163,
      "princi": 3164,
      "shade": 3165,
      "dangerous": 3166,
      "music": 3167,
      "brilliant": 3168,
      "?”": 3169,
      "Even": 3170,
      "WH": 3171,
      "bir": 3172,
      "coffee": 3173,
      "gest": 3174,
      "mate": 3175,
      "nation": 3176,
      "nment": 3177,
      "pal": 3178,
      "phon": 3179,
      "vest": 3180,
      "yer": 3181,
      "inside": 3182,
      "returning": 3183,
      "ision": 3184,
      "chance": 3185,
      "ceased": 3186,
      "entering": 3187,
      "myster": 3188,
      "coast": 3189,
      "abs": 3190,
      "abbit": 3191,
      "acity": 3192,
      "definite": 3193,
      "usually": 3194,
      "raise": 3195,
      "somewhat": 3196,
      "posing": 3197,
      "stock": 3198,
      "gius": 3199,
      "rum": 3200,
      "intended": 3201,
      "aska": 3202,
      "relation": 3203,
      "venture": 3204,
      "walls": 3205,
      "fields": 3206,
      "Though": 3207,
      "experience": 3208,
      "difficulties": 3209,
      "Sergius": 3210,
      "possibility": 3211,
      "sharp": 3212,
      "Europe": 3213,
      "Again": 3214,
      "XV": 3215,
      "grou": 3216,
      "gment": 3217,
      "harm": 3218,
      "iently": 3219,
      "mes": 3220,
      "tw": 3221,
      "eror": 3222,
      "star": 3223,
      "chant": 3224,
      "forty": 3225,
      "advice": 3226,
      "ribut": 3227,
      "skaya": 3228,
      "rowning": 3229,
      "compl": 3230,
      "intention": 3231,
      "correct": 3232,
      "current": 3233,
      "finding": 3234,
      "helped": 3235,
      "presented": 3236,
      "reasons": 3237,
      "busy": 3238,
      "remembering": 3239,
      "arrival": 3240,
      "carrying": 3241,
      "consciousness": 3242,
      "birds": 3243,
      "produced": 3244,
      "excellent": 3245,
      "Gryphon": 3246,
      "Please": 3247,
      "Qu": 3248,
      "iv": 3249,
      "ming": 3250,
      "obey": 3251,
      "ug": 3252,
      "za": 3253,
      "thro": 3254,
      "ony": 3255,
      "ature": 3256,
      "ism": 3257,
      "wicked": 3258,
      "ford": 3259,
      "addressed": 3260,
      "irst": 3261,
      "lose": 3262,
      "shes": 3263,
      "accusto": 3264,
      "onel": 3265,
      "develo": 3266,
      "ctions": 3267,
      "ends": 3268,
      "prison": 3269,
      "offended": 3270,
      "mercy": 3271,
      "bran": 3272,
      "Therefore": 3273,
      "interval": 3274,
      "curious": 3275,
      "evident": 3276,
      "command": 3277,
      "street": 3278,
      "woods": 3279,
      "portion": 3280,
      "learned": 3281,
      "Marsha": 3282,
      "finger": 3283,
      "contented": 3284,
      "burnt": 3285,
      "deliverance": 3286,
      "visitors": 3287,
      "Ark": 3288,
      "Spani": 3289,
      "communic": 3290,
      "Duchess": 3291,
      "explanation": 3292,
      "Col": 3293,
      "Ma": 3294,
      "Mont": 3295,
      "farming": 3296,
      "gro": 3297,
      "hl": 3298,
      "kit": 3299,
      "lk": 3300,
      "mi": 3301,
      "ncy": 3302,
      "height": 3303,
      "ina": 3304,
      "reve": 3305,
      "thrown": 3306,
      "attempt": 3307,
      "society": 3308,
      "advan": 3309,
      "loving": 3310,
      "exp": 3311,
      "rail": 3312,
      "worn": 3313,
      "places": 3314,
      "woke": 3315,
      "perceived": 3316,
      "disgust": 3317,
      "morency": 3318,
      "useful": 3319,
      "pron": 3320,
      "prove": 3321,
      "sport": 3322,
      "justice": 3323,
      "mbs": 3324,
      "deser": 3325,
      "lovely": 3326,
      "clever": 3327,
      "preser": 3328,
      "flat": 3329,
      "kindly": 3330,
      "conduct": 3331,
      "strugg": 3332,
      "struggl": 3333,
      "considering": 3334,
      "ception": 3335,
      "directed": 3336,
      "noticing": 3337,
      "succeeded": 3338,
      "teeth": 3339,
      "Everything": 3340,
      "colour": 3341,
      "kerchief": 3342,
      "accustomed": 3343,
      "Montmorency": 3344,
      "kitchen": 3345,
      "struggle": 3346,
      "?...": 3347,
      "Sta": 3348,
      "ait": 3349,
      "dan": 3350,
      "ible": 3351,
      "lest": 3352,
      "oo": 3353,
      "pardon": 3354,
      "uch": 3355,
      "win": 3356,
      "yards": 3357,
      "hea": 3358,
      "ana": 3359,
      "recon": 3360,
      "ises": 3361,
      "liver": 3362,
      "delive": 3363,
      "delic": 3364,
      "ify": 3365,
      "exe": 3366,
      "shri": 3367,
      "nah": 3368,
      "ressed": 3369,
      "laughter": 3370,
      "gious": 3371,
      "mbers": 3372,
      "desper": 3373,
      "impat": 3374,
      "stepped": 3375,
      "necessity": 3376,
      "double": 3377,
      "falling": 3378,
      "powerful": 3379,
      "ONS": 3380,
      "drag": 3381,
      "observe": 3382,
      "princes": 3383,
      "osity": 3384,
      "frequently": 3385,
      "higher": 3386,
      "benef": 3387,
      "extraordinary": 3388,
      "frame": 3389,
      "absence": 3390,
      "Arkady": 3391,
      "Stahl": 3392,
      "Braz": 3393,
      "bill": 3394,
      "cla": 3395,
      "ere": 3396,
      "frowning": 3397,
      "ggs": 3398,
      "hit": 3399,
      "mill": 3400,
      "oper": 3401,
      "sme": 3402,
      "tes": 3403,
      "tast": 3404,
      "vity": 3405,
      "wine": 3406,
      "isa": 3407,
      "orig": 3408,
      "weight": 3409,
      "hollow": 3410,
      "iring": 3411,
      "fered": 3412,
      "collect": 3413,
      "unless": 3414,
      "keeper": 3415,
      "deed": 3416,
      "hated": 3417,
      "ament": 3418,
      "quant": 3419,
      "event": 3420,
      "worst": 3421,
      "discover": 3422,
      "cheek": 3423,
      "Italy": 3424,
      "ists": 3425,
      "arya": 3426,
      "hastily": 3427,
      "shooting": 3428,
      "paid": 3429,
      "actions": 3430,
      "tort": 3431,
      "apprehen": 3432,
      "natured": 3433,
      "wondered": 3434,
      "sorrow": 3435,
      "movements": 3436,
      "relief": 3437,
      "ritsky": 3438,
      "pictures": 3439,
      "played": 3440,
      "Christ": 3441,
      "efforts": 3442,
      "slightly": 3443,
      "disturbed": 3444,
      "Perhaps": 3445,
      "fashion": 3446,
      "shirt": 3447,
      "Marshal": 3448,
      "origin": 3449,
      "00": 3450,
      ":--": 3451,
      "Had": 3452,
      "Him": 3453,
      "Lon": 3454,
      "Mat": 3455,
      "May": 3456,
      "PR": 3457,
      "Rabbit": 3458,
      "cous": 3459,
      "dust": 3460,
      "farm": 3461,
      "lord": 3462,
      "lamp": 3463,
      "beast": 3464,
      "vert": 3465,
      "sov": 3466,
      "hoped": 3467,
      "deb": 3468,
      "dogs": 3469,
      "aging": 3470,
      "ults": 3471,
      "aston": 3472,
      "blind": 3473,
      "strained": 3474,
      "served": 3475,
      "rule": 3476,
      "comprehen": 3477,
      "merc": 3478,
      "waist": 3479,
      "bedroom": 3480,
      "cases": 3481,
      "iously": 3482,
      "understanding": 3483,
      "independ": 3484,
      "elder": 3485,
      "custom": 3486,
      "arrass": 3487,
      "stayed": 3488,
      "subjects": 3489,
      "dropped": 3490,
      "embarrass": 3491,
      "humili": 3492,
      "concerned": 3493,
      "concluded": 3494,
      "tenderness": 3495,
      "devil": 3496,
      "belonged": 3497,
      "thankful": 3498,
      "fulf": 3499,
      "fifty": 3500,
      "intellig": 3501,
      "absolutely": 3502,
      "portrait": 3503,
      "delivered": 3504,
      "London": 3505,
      ".,": 3506,
      "Frou": 3507,
      "Would": 3508,
      "brow": 3509,
      "fla": 3510,
      "fru": 3511,
      "vir": 3512,
      "insult": 3513,
      "ator": 3514,
      "ende": 3515,
      "utions": 3516,
      "notion": 3517,
      "union": 3518,
      "abin": 3519,
      "aband": 3520,
      "mood": 3521,
      "amb": 3522,
      "ames": 3523,
      "simil": 3524,
      "indic": 3525,
      "indign": 3526,
      "somewhere": 3527,
      "skoy": 3528,
      "plans": 3529,
      "anywhere": 3530,
      "greet": 3531,
      "fired": 3532,
      "store": 3533,
      "shoot": 3534,
      "watching": 3535,
      "doors": 3536,
      "Roman": 3537,
      "finish": 3538,
      "value": 3539,
      "opening": 3540,
      "amongst": 3541,
      "engaged": 3542,
      "signs": 3543,
      "milk": 3544,
      "rocks": 3545,
      "patient": 3546,
      "capable": 3547,
      "formerly": 3548,
      "wreck": 3549,
      "hurriedly": 3550,
      "learnt": 3551,
      "passage": 3552,
      "execut": 3553,
      "Car": 3554,
      "Laska": 3555,
      "Upon": 3556,
      "een": 3557,
      "sca": 3558,
      "inform": 3559,
      "aries": 3560,
      "roll": 3561,
      "uses": 3562,
      "amid": 3563,
      "respon": 3564,
      "polit": 3565,
      "teach": 3566,
      "managed": 3567,
      "estab": 3568,
      "distingu": 3569,
      "ideas": 3570,
      "foreign": 3571,
      "handkerchief": 3572,
      "proved": 3573,
      "giana": 3574,
      "spare": 3575,
      "moral": 3576,
      "landowner": 3577,
      "guide": 3578,
      "distinct": 3579,
      "calcul": 3580,
      "silver": 3581,
      "sens": 3582,
      "Georgiana": 3583,
      "tail": 3584,
      "plainly": 3585,
      "confidence": 3586,
      "empty": 3587,
      "realized": 3588,
      "bringing": 3589,
      "daily": 3590,
      "wonderful": 3591,
      "gaze": 3592,
      "grief": 3593,
      "knee": 3594,
      "completely": 3595,
      "connected": 3596,
      "Providence": 3597,
      "indifferent": 3598,
      "flew": 3599,
      "reproach": 3600,
      "knocked": 3601,
      "companion": 3602,
      "knife": 3603,
      "Gates": 3604,
      "Han": 3605,
      "OW": 3606,
      "Pi": 3607,
      "drun": 3608,
      "kov": 3609,
      "lines": 3610,
      "vation": 3611,
      "removed": 3612,
      "seed": 3613,
      "chan": 3614,
      "forgiven": 3615,
      "hov": 3616,
      "lod": 3617,
      "ainted": 3618,
      "sigh": 3619,
      "boots": 3620,
      "fail": 3621,
      "illness": 3622,
      "useless": 3623,
      "prote": 3624,
      "stoop": 3625,
      "mud": 3626,
      "specially": 3627,
      "partly": 3628,
      "join": 3629,
      "supposed": 3630,
      "attack": 3631,
      "leaves": 3632,
      "vanished": 3633,
      "ignor": 3634,
      "conscience": 3635,
      "March": 3636,
      "softly": 3637,
      "rapid": 3638,
      "ternal": 3639,
      "bonnet": 3640,
      "surrounded": 3641,
      "determined": 3642,
      "endeav": 3643,
      "Gateshead": 3644,
      "?--": 3645,
      "BE": 3646,
      "Dmit": 3647,
      "France": 3648,
      "Nik": 3649,
      "Papa": 3650,
      "SE": 3651,
      "Wait": 3652,
      "brows": 3653,
      "gently": 3654,
      "lone": 3655,
      "sn": 3656,
      "sions": 3657,
      "sni": 3658,
      "ues": 3659,
      "uce": 3660,
      "zed": 3661,
      "hesit": 3662,
      "inev": 3663,
      "reci": 3664,
      "llen": 3665,
      "stit": 3666,
      "stif": 3667,
      "becoming": 3668,
      "charm": 3669,
      "vering": 3670,
      "altogether": 3671,
      "admit": 3672,
      "fee": 3673,
      "tight": 3674,
      "quet": 3675,
      "tele": 3676,
      "Heaven": 3677,
      "blushing": 3678,
      "blew": 3679,
      "cient": 3680,
      "dign": 3681,
      "report": 3682,
      "grate": 3683,
      "brain": 3684,
      "nervous": 3685,
      "scr": 3686,
      "refused": 3687,
      "awful": 3688,
      "approach": 3689,
      "laws": 3690,
      "difference": 3691,
      "repeat": 3692,
      "badly": 3693,
      "puk": 3694,
      "deeply": 3695,
      "acquainted": 3696,
      "stuff": 3697,
      "spiritual": 3698,
      "hungry": 3699,
      "instance": 3700,
      "ormouse": 3701,
      "couple": 3702,
      "adopt": 3703,
      "apparently": 3704,
      "Hannah": 3705,
      "snipe": 3706,
      "During": 3707,
      "Dormouse": 3708,
      "Our": 3709,
      "TI": 3710,
      "Un": 3711,
      "bits": 3712,
      "dar": 3713,
      "gay": 3714,
      "jac": 3715,
      "mies": 3716,
      "pis": 3717,
      "rare": 3718,
      "rang": 3719,
      "tong": 3720,
      "vague": 3721,
      "heat": 3722,
      "inno": 3723,
      "invent": 3724,
      "inhabit": 3725,
      "anno": 3726,
      "recalled": 3727,
      "tool": 3728,
      "arse": 3729,
      "history": 3730,
      "ali": 3731,
      "wear": 3732,
      "sacri": 3733,
      "hotel": 3734,
      "conven": 3735,
      "oked": 3736,
      "ext": 3737,
      "plent": 3738,
      "prospect": 3739,
      "glit": 3740,
      "spend": 3741,
      "share": 3742,
      "goodness": 3743,
      "reput": 3744,
      "grad": 3745,
      "scy": 3746,
      "energy": 3747,
      "decide": 3748,
      "needed": 3749,
      "personal": 3750,
      "puzz": 3751,
      "Peter": 3752,
      "coats": 3753,
      "harvest": 3754,
      "Serpuk": 3755,
      "luck": 3756,
      "profess": 3757,
      "inclined": 3758,
      "irritated": 3759,
      "jealousy": 3760,
      "accident": 3761,
      "authority": 3762,
      "sympathy": 3763,
      "hovskoy": 3764,
      "Serpukhovskoy": 3765,
      "Am": 3766,
      "due": 3767,
      "fow": 3768,
      "faint": 3769,
      "glow": 3770,
      "lin": 3771,
      "mare": 3772,
      "ners": 3773,
      "pick": 3774,
      "ration": 3775,
      "sides": 3776,
      "swall": 3777,
      "wake": 3778,
      "enorm": 3779,
      "nobles": 3780,
      "ldom": 3781,
      "vexed": 3782,
      "aloud": 3783,
      "loose": 3784,
      "geon": 3785,
      "suit": 3786,
      "raising": 3787,
      "handed": 3788,
      "cies": 3789,
      "proceed": 3790,
      "proceeded": 3791,
      "angrily": 3792,
      "repul": 3793,
      "appoint": 3794,
      "serve": 3795,
      "letters": 3796,
      "marked": 3797,
      "cloak": 3798,
      "observ": 3799,
      "material": 3800,
      "fined": 3801,
      "breast": 3802,
      "choice": 3803,
      "ceiving": 3804,
      "charge": 3805,
      "enemies": 3806,
      "windows": 3807,
      "drop": 3808,
      "sofa": 3809,
      "playing": 3810,
      "judgment": 3811,
      "smoke": 3812,
      "missed": 3813,
      "example": 3814,
      "pulling": 3815,
      "delightful": 3816,
      "gloom": 3817,
      "possessed": 3818,
      "consequence": 3819,
      "indifference": 3820,
      "significant": 3821,
      "nonsense": 3822,
      "Colonel": 3823,
      "Arkadyevna": 3824,
      "similar": 3825,
      "enormous": 3826,
      "Gover": 3827,
      "Nor": 3828,
      "Take": 3829,
      "bbed": 3830,
      "cattle": 3831,
      "fill": 3832,
      "hang": 3833,
      "iment": 3834,
      "ives": 3835,
      "las": 3836,
      "lish": 3837,
      "lack": 3838,
      "uous": 3839,
      "angl": 3840,
      "request": 3841,
      "thither": 3842,
      "thrust": 3843,
      "atic": 3844,
      "edge": 3845,
      "istic": 3846,
      "seated": 3847,
      "seldom": 3848,
      "hither": 3849,
      "iding": 3850,
      "rode": 3851,
      "vex": 3852,
      "chor": 3853,
      "cep": 3854,
      "lip": 3855,
      "rict": 3856,
      "coll": 3857,
      "uncle": 3858,
      "butter": 3859,
      "acle": 3860,
      "acknowled": 3861,
      "agric": 3862,
      "trans": 3863,
      "dissatisfied": 3864,
      "cious": 3865,
      "hedge": 3866,
      "thanks": 3867,
      "gets": 3868,
      "spark": 3869,
      "heads": 3870,
      "ruined": 3871,
      "court": 3872,
      "setting": 3873,
      "visions": 3874,
      "interests": 3875,
      "powers": 3876,
      "tale": 3877,
      "maj": 3878,
      "buy": 3879,
      "kingdom": 3880,
      "rovna": 3881,
      "imagination": 3882,
      "mistaken": 3883,
      "boys": 3884,
      "preparing": 3885,
      "religious": 3886,
      "kissing": 3887,
      "possession": 3888,
      "sufferings": 3889,
      "remarkable": 3890,
      "demanded": 3891,
      "graceful": 3892,
      "suspic": 3893,
      "employ": 3894,
      "suffered": 3895,
      "Dmitrich": 3896,
      "agricult": 3897,
      ").": 3898,
      "Au": 3899,
      "CE": 3900,
      "Ca": 3901,
      "Jan": 3902,
      "OM": 3903,
      "WE": 3904,
      "bust": 3905,
      "battle": 3906,
      "frank": 3907,
      "gates": 3908,
      "kn": 3909,
      "nut": 3910,
      "ost": 3911,
      "inval": 3912,
      "attemp": 3913,
      "meal": 3914,
      "ston": 3915,
      "hired": 3916,
      "veil": 3917,
      "soci": 3918,
      "unusual": 3919,
      "unfortun": 3920,
      "acting": 3921,
      "tire": 3922,
      "hatred": 3923,
      "amaz": 3924,
      "bliss": 3925,
      "anybody": 3926,
      "commen": 3927,
      "lted": 3928,
      "greatest": 3929,
      "rug": 3930,
      "lightly": 3931,
      "contri": 3932,
      "merrily": 3933,
      "settle": 3934,
      "timid": 3935,
      "mony": 3936,
      "guest": 3937,
      "solitary": 3938,
      "curtain": 3939,
      "north": 3940,
      "scull": 3941,
      "refer": 3942,
      "sentence": 3943,
      "recovered": 3944,
      "decision": 3945,
      "confusion": 3946,
      "triump": 3947,
      "driving": 3948,
      "lawyer": 3949,
      "audi": 3950,
      "divided": 3951,
      "summon": 3952,
      "Alexandrovna": 3953,
      "castle": 3954,
      "reflected": 3955,
      "property": 3956,
      "seriously": 3957,
      "recognized": 3958,
      "conclusion": 3959,
      "gallery": 3960,
      "anticip": 3961,
      "intimate": 3962,
      "suggested": 3963,
      "folded": 3964,
      "introduced": 3965,
      "square": 3966,
      "lonely": 3967,
      "AY": 3968,
      "ARE": 3969,
      "Bo": 3970,
      "Grace": 3971,
      "Tho": 3972,
      "ax": 3973,
      "chim": 3974,
      "cil": 3975,
      "eleg": 3976,
      "hous": 3977,
      "kid": 3978,
      "kward": 3979,
      "ub": 3980,
      "vas": 3981,
      "revi": 3982,
      "recall": 3983,
      "office": 3984,
      "member": 3985,
      "sear": 3986,
      "rolled": 3987,
      "changing": 3988,
      "tible": 3989,
      "convi": 3990,
      "constant": 3991,
      "oking": 3992,
      "exceed": 3993,
      "somebody": 3994,
      "shining": 3995,
      "proposed": 3996,
      "downstairs": 3997,
      "longed": 3998,
      "shaking": 3999,
      "mbre": 4000,
      "greatly": 4001,
      "gather": 4002,
      "rud": 4003,
      "shoes": 4004,
      "household": 4005,
      "risen": 4006,
      "ships": 4007,
      "hearted": 4008,
      "excuse": 4009,
      "consideration": 4010,
      "sounds": 4011,
      "persons": 4012,
      "prompt": 4013,
      "opinions": 4014,
      "quarrel": 4015,
      "equally": 4016,
      "witness": 4017,
      "physical": 4018,
      "building": 4019,
      "Shcherbatskys": 4020,
      "exercise": 4021,
      "Petritsky": 4022,
      "group": 4023,
      "advanced": 4024,
      "telegram": 4025,
      "pisto": 4026,
      ".)": 4027,
      "Ed": 4028,
      "FOR": 4029,
      "First": 4030,
      "GH": 4031,
      "Gris": 4032,
      "HE": 4033,
      "Pest": 4034,
      "bree": 4035,
      "bath": 4036,
      "bought": 4037,
      "ctive": 4038,
      "ec": 4039,
      "ech": 4040,
      "east": 4041,
      "faced": 4042,
      "gli": 4043,
      "gate": 4044,
      "hanging": 4045,
      "mast": 4046,
      "phe": 4047,
      "sank": 4048,
      "wid": 4049,
      "west": 4050,
      "hend": 4051,
      "iny": 4052,
      "ancy": 4053,
      "rehend": 4054,
      "attered": 4055,
      "haz": 4056,
      "forth": 4057,
      "loso": 4058,
      "moder": 4059,
      "delay": 4060,
      "depri": 4061,
      "consult": 4062,
      "wheels": 4063,
      "ulated": 4064,
      "shud": 4065,
      "aker": 4066,
      "gives": 4067,
      "nevertheless": 4068,
      "happens": 4069,
      "parts": 4070,
      "waters": 4071,
      "consist": 4072,
      "appreci": 4073,
      "treated": 4074,
      "attend": 4075,
      "solitude": 4076,
      "kindness": 4077,
      "hearth": 4078,
      "silently": 4079,
      "curi": 4080,
      "taught": 4081,
      "awkward": 4082,
      "built": 4083,
      "darkness": 4084,
      "fellows": 4085,
      "centre": 4086,
      "calmly": 4087,
      "habitation": 4088,
      "examined": 4089,
      "hills": 4090,
      "ferred": 4091,
      "burning": 4092,
      "superior": 4093,
      "animated": 4094,
      "accompan": 4095,
      "wedding": 4096,
      "various": 4097,
      "improve": 4098,
      "violent": 4099,
      "philoso": 4100,
      "eleven": 4101,
      "destroyed": 4102,
      "swim": 4103,
      "labourers": 4104,
      "bridge": 4105,
      "attentively": 4106,
      "rules": 4107,
      "supply": 4108,
      "quantity": 4109,
      "fruit": 4110,
      "drunk": 4111,
      "tools": 4112,
      "invalid": 4113,
      "Grisha": 4114,
      "Pestsov": 4115,
      ";\"": 4116,
      "CON": 4117,
      "Eli": 4118,
      "IR": 4119,
      "IX": 4120,
      "KY": 4121,
      "Shall": 4122,
      "Tit": 4123,
      "aunt": 4124,
      "drank": 4125,
      "drowned": 4126,
      "fly": 4127,
      "jury": 4128,
      "mush": 4129,
      "ole": 4130,
      "pack": 4131,
      "èche": 4132,
      "hest": 4133,
      "astic": 4134,
      "istr": 4135,
      "army": 4136,
      "beard": 4137,
      "sheet": 4138,
      "feed": 4139,
      "nder": 4140,
      "shine": 4141,
      "boards": 4142,
      "reader": 4143,
      "eping": 4144,
      "reek": 4145,
      "ladder": 4146,
      "careful": 4147,
      "careless": 4148,
      "calèche": 4149,
      "continue": 4150,
      "male": 4151,
      "buried": 4152,
      "points": 4153,
      "doubted": 4154,
      "sounded": 4155,
      "pushed": 4156,
      "schoolroom": 4157,
      "staircase": 4158,
      "porch": 4159,
      "admir": 4160,
      "reflection": 4161,
      "duties": 4162,
      "anxiety": 4163,
      "Vasily": 4164,
      "healthy": 4165,
      "acquaintances": 4166,
      "gallop": 4167,
      "instantly": 4168,
      "measures": 4169,
      "bbing": 4170,
      "accordingly": 4171,
      "pillar": 4172,
      "attractive": 4173,
      "agitation": 4174,
      "hastened": 4175,
      "departure": 4176,
      "ridiculous": 4177,
      "desperate": 4178,
      "independent": 4179,
      "tongue": 4180,
      "scythe": 4181,
      "houses": 4182,
      "!”": 4183,
      "NING": 4184,
      "Stre": 4185,
      "Such": 4186,
      "UR": 4187,
      "Whe": 4188,
      "WAS": 4189,
      "cit": 4190,
      "hint": 4191,
      "lof": 4192,
      "mort": 4193,
      "paren": 4194,
      "tum": 4195,
      "tles": 4196,
      "uz": 4197,
      "heap": 4198,
      "inner": 4199,
      "thr": 4200,
      "asped": 4201,
      "sees": 4202,
      "entreat": 4203,
      "altered": 4204,
      "som": 4205,
      "ays": 4206,
      "acquired": 4207,
      "whenever": 4208,
      "somehow": 4209,
      "rous": 4210,
      "roused": 4211,
      "discourse": 4212,
      "disposed": 4213,
      "cheese": 4214,
      "inking": 4215,
      "proof": 4216,
      "string": 4217,
      "strangers": 4218,
      "feels": 4219,
      "compass": 4220,
      "parted": 4221,
      "consent": 4222,
      "ERE": 4223,
      "HAD": 4224,
      "versity": 4225,
      "district": 4226,
      "silk": 4227,
      "easier": 4228,
      "choose": 4229,
      "misfortune": 4230,
      "fastened": 4231,
      "enemy": 4232,
      "rupt": 4233,
      "steadily": 4234,
      "officer": 4235,
      "grim": 4236,
      "candles": 4237,
      "muttered": 4238,
      "measure": 4239,
      "funny": 4240,
      "possibly": 4241,
      "frequent": 4242,
      "pillow": 4243,
      "plantation": 4244,
      "wounded": 4245,
      "assured": 4246,
      "control": 4247,
      "delicate": 4248,
      "Brazils": 4249,
      "darling": 4250,
      "Eliza": 4251,
      "parents": 4252,
      "AD": 4253,
      "Ano": 4254,
      "Cour": 4255,
      "Coun": 4256,
      "Ju": 4257,
      "June": 4258,
      "Kor": 4259,
      "Oliver": 4260,
      "Tver": 4261,
      "Was": 4262,
      "Xury": 4263,
      "brown": 4264,
      "dwell": 4265,
      "gan": 4266,
      "gue": 4267,
      "lately": 4268,
      "mama": 4269,
      "sar": 4270,
      "vac": 4271,
      "remo": 4272,
      "reck": 4273,
      "remed": 4274,
      "onder": 4275,
      "ats": 4276,
      "tobac": 4277,
      "orous": 4278,
      "level": 4279,
      "secured": 4280,
      "straw": 4281,
      "loaded": 4282,
      "acious": 4283,
      "odka": 4284,
      "tear": 4285,
      "ulate": 4286,
      "rapt": 4287,
      "couldn": 4288,
      "plat": 4289,
      "plough": 4290,
      "trun": 4291,
      "compe": 4292,
      "ounce": 4293,
      "space": 4294,
      "Ann": 4295,
      "taining": 4296,
      "precise": 4297,
      "landed": 4298,
      "uding": 4299,
      "fortnight": 4300,
      "Rome": 4301,
      "curity": 4302,
      "surve": 4303,
      "friendship": 4304,
      "brothers": 4305,
      "pains": 4306,
      "painted": 4307,
      "refuse": 4308,
      "singing": 4309,
      "reasonable": 4310,
      "resolution": 4311,
      "troubles": 4312,
      "whisk": 4313,
      "Before": 4314,
      "Thank": 4315,
      "occupation": 4316,
      "officers": 4317,
      "prayer": 4318,
      "avoided": 4319,
      "hostile": 4320,
      "despite": 4321,
      "weakness": 4322,
      "thorough": 4323,
      "separate": 4324,
      "defend": 4325,
      "increased": 4326,
      "style": 4327,
      "clouds": 4328,
      "highest": 4329,
      "invited": 4330,
      "neglect": 4331,
      "Barbar": 4332,
      "shelter": 4333,
      "conceal": 4334,
      "railway": 4335,
      "cousin": 4336,
      "plenty": 4337,
      "commenced": 4338,
      "citiz": 4339,
      "Another": 4340,
      "Darya": 4341,
      "Gr": 4342,
      "Hare": 4343,
      "NO": 4344,
      "OL": 4345,
      "Sir": 4346,
      "Still": 4347,
      "bull": 4348,
      "cred": 4349,
      "emotion": 4350,
      "eggs": 4351,
      "mess": 4352,
      "nal": 4353,
      "olav": 4354,
      "tar": 4355,
      "takes": 4356,
      "ume": 4357,
      "yr": 4358,
      "atives": 4359,
      "encour": 4360,
      "orious": 4361,
      "habits": 4362,
      "nois": 4363,
      "sell": 4364,
      "states": 4365,
      "hid": 4366,
      "vet": 4367,
      "utmost": 4368,
      "sow": 4369,
      "actic": 4370,
      "deceived": 4371,
      "wholly": 4372,
      "size": 4373,
      "endure": 4374,
      "elbow": 4375,
      "fix": 4376,
      "prog": 4377,
      "process": 4378,
      "firmed": 4379,
      "Any": 4380,
      "repres": 4381,
      "speech": 4382,
      "intent": 4383,
      "horrid": 4384,
      "childhood": 4385,
      "works": 4386,
      "beds": 4387,
      "stepping": 4388,
      "sensible": 4389,
      "doesn": 4390,
      "price": 4391,
      "shown": 4392,
      "valu": 4393,
      "singular": 4394,
      "coldly": 4395,
      "wondering": 4396,
      "glasses": 4397,
      "crossed": 4398,
      "prayers": 4399,
      "trembled": 4400,
      "worthy": 4401,
      "wretched": 4402,
      "hostess": 4403,
      "Sometimes": 4404,
      "gloomy": 4405,
      "knees": 4406,
      "provided": 4407,
      "favourite": 4408,
      "passionate": 4409,
      "devoured": 4410,
      "connection": 4411,
      "violence": 4412,
      "fifteen": 4413,
      "goats": 4414,
      "infant": 4415,
      "machine": 4416,
      "announced": 4417,
      "ONSKY": 4418,
      "claim": 4419,
      "Nikolav": 4420,
      "appointment": 4421,
      "triumph": 4422,
      "Those": 4423,
      "tobacco": 4424,
      "Barbara": 4425,
      "Nikolavna": 4426,
      "Burn": 4427,
      "Esh": 4428,
      "Glad": 4429,
      "Mon": 4430,
      "OV": 4431,
      "crown": 4432,
      "erect": 4433,
      "fed": 4434,
      "lst": 4435,
      "lid": 4436,
      "nay": 4437,
      "pin": 4438,
      "pour": 4439,
      "rade": 4440,
      "swell": 4441,
      "tit": 4442,
      "uced": 4443,
      "uously": 4444,
      "vy": 4445,
      "vul": 4446,
      "inex": 4447,
      "renew": 4448,
      "aspect": 4449,
      "iture": 4450,
      "lls": 4451,
      "washed": 4452,
      "chin": 4453,
      "forces": 4454,
      "soo": 4455,
      "wearing": 4456,
      "hosp": 4457,
      "locked": 4458,
      "unknown": 4459,
      "absur": 4460,
      "conve": 4461,
      "ami": 4462,
      "amuse": 4463,
      "pol": 4464,
      "dozen": 4465,
      "ource": 4466,
      "expen": 4467,
      "perple": 4468,
      "artist": 4469,
      "urely": 4470,
      "comb": 4471,
      "composed": 4472,
      "provisions": 4473,
      "voc": 4474,
      "shaw": 4475,
      "desol": 4476,
      "mark": 4477,
      "lessons": 4478,
      "vessel": 4479,
      "founded": 4480,
      "obstac": 4481,
      "Indeed": 4482,
      "tors": 4483,
      "boats": 4484,
      "ughters": 4485,
      "refresh": 4486,
      "recover": 4487,
      "sunshine": 4488,
      "needs": 4489,
      "sorts": 4490,
      "repeating": 4491,
      "daughters": 4492,
      "period": 4493,
      "ashing": 4494,
      "cats": 4495,
      "flushed": 4496,
      "government": 4497,
      "XXV": 4498,
      "deliber": 4499,
      "brief": 4500,
      "Poole": 4501,
      "papers": 4502,
      "stirred": 4503,
      "Province": 4504,
      "slip": 4505,
      "slipped": 4506,
      "golden": 4507,
      "increasing": 4508,
      "throwing": 4509,
      "apartment": 4510,
      "tormented": 4511,
      "Mean": 4512,
      "sincerely": 4513,
      "methods": 4514,
      "comprehensible": 4515,
      "grateful": 4516,
      "Burns": 4517,
      "absurd": 4518,
      "Dear": 4519,
      "Emp": 4520,
      "Give": 4521,
      "House": 4522,
      "ID": 4523,
      "Mouse": 4524,
      "NE": 4525,
      "Rob": 4526,
      "RIS": 4527,
      "Thus": 4528,
      "bade": 4529,
      "bending": 4530,
      "damp": 4531,
      "fy": 4532,
      "lves": 4533,
      "pul": 4534,
      "swa": 4535,
      "vodka": 4536,
      "ancient": 4537,
      "reward": 4538,
      "resem": 4539,
      "thunder": 4540,
      "inging": 4541,
      "beha": 4542,
      "alian": 4543,
      "social": 4544,
      "lict": 4545,
      "address": 4546,
      "log": 4547,
      "rice": 4548,
      "cote": 4549,
      "unnatural": 4550,
      "absor": 4551,
      "keen": 4552,
      "defect": 4553,
      "deceive": 4554,
      "tie": 4555,
      "whilst": 4556,
      "reser": 4557,
      "silly": 4558,
      "seeking": 4559,
      "dismal": 4560,
      "Italian": 4561,
      "overcoat": 4562,
      "comfor": 4563,
      "propos": 4564,
      "rence": 4565,
      "turns": 4566,
      "ption": 4567,
      "clam": 4568,
      "carpet": 4569,
      "complex": 4570,
      "comprehend": 4571,
      "obtained": 4572,
      "rested": 4573,
      "pian": 4574,
      "timidly": 4575,
      "doorway": 4576,
      "Karenina": 4577,
      "match": 4578,
      "attitude": 4579,
      "cares": 4580,
      "follows": 4581,
      "chosen": 4582,
      "ference": 4583,
      "painting": 4584,
      "trous": 4585,
      "military": 4586,
      "chairs": 4587,
      "terribly": 4588,
      "patron": 4589,
      "Three": 4590,
      "harness": 4591,
      "truly": 4592,
      "stuck": 4593,
      "advance": 4594,
      "oppressed": 4595,
      "reflections": 4596,
      "accompany": 4597,
      "crowded": 4598,
      "lifting": 4599,
      "discussed": 4600,
      "coloured": 4601,
      "yellow": 4602,
      "loudly": 4603,
      "phr": 4604,
      "Commit": 4605,
      "describe": 4606,
      "mountains": 4607,
      "wandered": 4608,
      "pursued": 4609,
      "elections": 4610,
      "swift": 4611,
      "article": 4612,
      "pupil": 4613,
      "canoe": 4614,
      "previous": 4615,
      "Millcote": 4616,
      "clergy": 4617,
      "intelligent": 4618,
      "distinctly": 4619,
      "unfortunate": 4620,
      "Court": 4621,
      "Eshton": 4622,
      "Dent": 4623,
      "Gu": 4624,
      "Lou": 4625,
      "ORE": 4626,
      "elf": 4627,
      "jer": 4628,
      "lour": 4629,
      "lust": 4630,
      "lerable": 4631,
      "lunch": 4632,
      "mitted": 4633,
      "odo": 4634,
      "pse": 4635,
      "sang": 4636,
      "inward": 4637,
      "infinite": 4638,
      "error": 4639,
      "erpillar": 4640,
      "lebr": 4641,
      "sevent": 4642,
      "sters": 4643,
      "stones": 4644,
      "beck": 4645,
      "beef": 4646,
      "rosy": 4647,
      "celebr": 4648,
      "verand": 4649,
      "sobs": 4650,
      "limbs": 4651,
      "lover": 4652,
      "loves": 4653,
      "united": 4654,
      "uncomfortable": 4655,
      "condem": 4656,
      "folk": 4657,
      "shan": 4658,
      "bore": 4659,
      "plate": 4660,
      "perceive": 4661,
      "blush": 4662,
      "disagreeable": 4663,
      "stopping": 4664,
      "mured": 4665,
      "sphere": 4666,
      "shake": 4667,
      "offend": 4668,
      "thinks": 4669,
      "appointed": 4670,
      "venge": 4671,
      "cargo": 4672,
      "complic": 4673,
      "shop": 4674,
      "angel": 4675,
      "psy": 4676,
      "minded": 4677,
      "shire": 4678,
      "attach": 4679,
      "parlour": 4680,
      "HAR": 4681,
      "younger": 4682,
      "caress": 4683,
      "submit": 4684,
      "lively": 4685,
      "painfully": 4686,
      "larger": 4687,
      "awake": 4688,
      "trip": 4689,
      "directions": 4690,
      "misery": 4691,
      "barbar": 4692,
      "prepar": 4693,
      "contrast": 4694,
      "touching": 4695,
      "Without": 4696,
      "strict": 4697,
      "murmured": 4698,
      "concern": 4699,
      "concerning": 4700,
      "accomplished": 4701,
      "memories": 4702,
      "Pope": 4703,
      "despised": 4704,
      "leading": 4705,
      "Comm": 4706,
      "LEV": 4707,
      "basket": 4708,
      "cruelty": 4709,
      "descended": 4710,
      "agitated": 4711,
      "destroy": 4712,
      "prevented": 4713,
      "wrapped": 4714,
      "arguments": 4715,
      "tranquill": 4716,
      "principle": 4717,
      "prisoners": 4718,
      "revealed": 4719,
      "torture": 4720,
      "curiosity": 4721,
      "remedy": 4722,
      "platform": 4723,
      "citizens": 4724,
      "-'": 4725,
      "Chi": 4726,
      "Lvo": 4727,
      "Met": 4728,
      "Mort": 4729,
      "Pro": 4730,
      "Sop": 4731,
      "THA": 4732,
      "Vene": 4733,
      "Vlas": 4734,
      "ave": 4735,
      "dra": 4736,
      "daw": 4737,
      "dirty": 4738,
      "frowned": 4739,
      "gid": 4740,
      "ires": 4741,
      "mow": 4742,
      "mour": 4743,
      "narr": 4744,
      "oak": 4745,
      "rush": 4746,
      "sne": 4747,
      "test": 4748,
      "vil": 4749,
      "thew": 4750,
      "regi": 4751,
      "rejo": 4752,
      "atre": 4753,
      "ater": 4754,
      "toss": 4755,
      "enclo": 4756,
      "haven": 4757,
      "meat": 4758,
      "melan": 4759,
      "leis": 4760,
      "beating": 4761,
      "hie": 4762,
      "cere": 4763,
      "forti": 4764,
      "alley": 4765,
      "load": 4766,
      "cot": 4767,
      "covery": 4768,
      "terms": 4769,
      "arest": 4770,
      "wheat": 4771,
      "events": 4772,
      "ours": 4773,
      "external": 4774,
      "caut": 4775,
      "anted": 4776,
      "akened": 4777,
      "discovery": 4778,
      "theirs": 4779,
      "cheeks": 4780,
      "lared": 4781,
      "overcome": 4782,
      "anges": 4783,
      "angle": 4784,
      "haste": 4785,
      "ully": 4786,
      "letting": 4787,
      "lesson": 4788,
      "cloth": 4789,
      "imper": 4790,
      "count": 4791,
      "horri": 4792,
      "cord": 4793,
      "umn": 4794,
      "stem": 4795,
      "ridge": 4796,
      "breaking": 4797,
      "choly": 4798,
      "famous": 4799,
      "joyful": 4800,
      "More": 4801,
      "tame": 4802,
      "fairy": 4803,
      "strangely": 4804,
      "realize": 4805,
      "highly": 4806,
      "hopeless": 4807,
      "capacity": 4808,
      "dreadfully": 4809,
      "Englishman": 4810,
      "flower": 4811,
      "flood": 4812,
      "XXX": 4813,
      "embr": 4814,
      "embro": 4815,
      "attering": 4816,
      "ESS": 4817,
      "recognize": 4818,
      "swam": 4819,
      "mutual": 4820,
      "phan": 4821,
      "intellect": 4822,
      "disturb": 4823,
      "climb": 4824,
      "guessed": 4825,
      "assumed": 4826,
      "beaten": 4827,
      "activity": 4828,
      "washing": 4829,
      "inquiry": 4830,
      "previously": 4831,
      "Caterpillar": 4832,
      "extremely": 4833,
      "birth": 4834,
      "ributed": 4835,
      "reconci": 4836,
      "Matthew": 4837,
      "reputation": 4838,
      "agriculture": 4839,
      "conviction": 4840,
      "Edward": 4841,
      "Committee": 4842,
      "verandah": 4843,
      "HARRIS": 4844,
      "LEVIN": 4845,
      "Sophie": 4846,
      "melancholy": 4847,
      "Both": 4848,
      "Land": 4849,
      "Sou": 4850,
      "Tany": 4851,
      "UL": 4852,
      "aper": 4853,
      "camp": 4854,
      "creek": 4855,
      "fence": 4856,
      "mild": 4857,
      "oes": 4858,
      "pite": 4859,
      "pink": 4860,
      "snat": 4861,
      "tling": 4862,
      "uck": 4863,
      "umed": 4864,
      "wings": 4865,
      "ino": 4866,
      "infer": 4867,
      "incomprehensible": 4868,
      "thetic": 4869,
      "encourage": 4870,
      "itation": 4871,
      "hamp": 4872,
      "nod": 4873,
      "seizing": 4874,
      "becomes": 4875,
      "betray": 4876,
      "chat": 4877,
      "libr": 4878,
      "unjust": 4879,
      "pear": 4880,
      "del": 4881,
      "dete": 4882,
      "upper": 4883,
      "getic": 4884,
      "tians": 4885,
      "ains": 4886,
      "aret": 4887,
      "qualities": 4888,
      "teaching": 4889,
      "shy": 4890,
      "pless": 4891,
      "wolves": 4892,
      "perform": 4893,
      "permission": 4894,
      "failed": 4895,
      "artment": 4896,
      "idel": 4897,
      "cig": 4898,
      "cied": 4899,
      "newly": 4900,
      "propri": 4901,
      "glorious": 4902,
      "rowing": 4903,
      "begged": 4904,
      "rightly": 4905,
      "Nobility": 4906,
      "speed": 4907,
      "grasp": 4908,
      "attached": 4909,
      "kinds": 4910,
      "curls": 4911,
      "Soon": 4912,
      "belief": 4913,
      "relatives": 4914,
      "tempor": 4915,
      "south": 4916,
      "ava": 4917,
      "Kosty": 4918,
      "burden": 4919,
      "troubled": 4920,
      "imagin": 4921,
      "closely": 4922,
      "sleeping": 4923,
      "fury": 4924,
      "relieved": 4925,
      "chiefly": 4926,
      "dreams": 4927,
      "fancied": 4928,
      "superflu": 4929,
      "animal": 4930,
      "instit": 4931,
      "gloves": 4932,
      "crying": 4933,
      "discuss": 4934,
      "trusted": 4935,
      "Exc": 4936,
      "Excell": 4937,
      "Leah": 4938,
      "magn": 4939,
      "teacher": 4940,
      "Look": 4941,
      "canoes": 4942,
      "devoted": 4943,
      "earnestly": 4944,
      "dispute": 4945,
      "branches": 4946,
      "Spaniard": 4947,
      "pronounced": 4948,
      "heavi": 4949,
      "apprehensions": 4950,
      "PRIN": 4951,
      "ambition": 4952,
      "information": 4953,
      "sensation": 4954,
      "stiff": 4955,
      "feeble": 4956,
      "innocent": 4957,
      "puzzled": 4958,
      "guests": 4959,
      "ecst": 4960,
      "accompanied": 4961,
      "Whether": 4962,
      "desolate": 4963,
      "Metrov": 4964,
      "library": 4965,
      "Kostya": 4966,
      "Char": 4967,
      "Fer": 4968,
      "IGH": 4969,
      "Mil": 4970,
      "Master": 4971,
      "Sud": 4972,
      "Wh": 4973,
      "bor": 4974,
      "dam": 4975,
      "flying": 4976,
      "gown": 4977,
      "iance": 4978,
      "jam": 4979,
      "jaw": 4980,
      "mowing": 4981,
      "praise": 4982,
      "sword": 4983,
      "tones": 4984,
      "vast": 4985,
      "anchor": 4986,
      "revo": 4987,
      "retired": 4988,
      "require": 4989,
      "restrain": 4990,
      "isn": 4991,
      "encoun": 4992,
      "security": 4993,
      "stout": 4994,
      "stars": 4995,
      "rot": 4996,
      "ghost": 4997,
      "forgetting": 4998,
      "lion": 4999,
      "ades": 5000,
      "riages": 5001,
      "unted": 5002,
      "abun": 5003,
      "absent": 5004,
      "sibly": 5005,
      "wouldn": 5006,
      "ically": 5007,
      "pper": 5008,
      "plump": 5009,
      "placing": 5010,
      "tract": 5011,
      "arts": 5012,
      "chet": 5013,
      "resses": 5014,
      "practi": 5015,
      "launch": 5016,
      "proble": 5017,
      "immen": 5018,
      "vious": 5019,
      "spired": 5020,
      "whereas": 5021,
      "goods": 5022,
      "marble": 5023,
      "club": 5024,
      "mighty": 5025,
      "closer": 5026,
      "compar": 5027,
      "calls": 5028,
      "obed": 5029,
      "actually": 5030,
      "restless": 5031,
      "joke": 5032,
      "attacked": 5033,
      "denly": 5034,
      "career": 5035,
      "energetic": 5036,
      "meantime": 5037,
      "ushka": 5038,
      "igned": 5039,
      "licity": 5040,
      "charged": 5041,
      "considerable": 5042,
      "reality": 5043,
      "grounds": 5044,
      "staying": 5045,
      "towed": 5046,
      "stronger": 5047,
      "eyebrows": 5048,
      "pretended": 5049,
      "capital": 5050,
      "eaten": 5051,
      "respectable": 5052,
      "harsh": 5053,
      "smilingly": 5054,
      "moustac": 5055,
      "enterpr": 5056,
      "humble": 5057,
      "hunger": 5058,
      "admired": 5059,
      "admitted": 5060,
      "educated": 5061,
      "freely": 5062,
      "welcome": 5063,
      "enjoyed": 5064,
      "punishment": 5065,
      "valet": 5066,
      "cheerfully": 5067,
      "chests": 5068,
      "threat": 5069,
      "separated": 5070,
      "recollection": 5071,
      "consequently": 5072,
      "potat": 5073,
      "assistance": 5074,
      "arrangement": 5075,
      "yielded": 5076,
      "Spanish": 5077,
      "wandering": 5078,
      "employed": 5079,
      "Abbot": 5080,
      "persuade": 5081,
      "vigorous": 5082,
      "tranquil": 5083,
      "ugly": 5084,
      "intervals": 5085,
      "original": 5086,
      "beasts": 5087,
      "humiliation": 5088,
      "sacrifice": 5089,
      "observation": 5090,
      "vexation": 5091,
      "lofty": 5092,
      "Annushka": 5093,
      "progress": 5094,
      "shawl": 5095,
      "Emperor": 5096,
      "absorbed": 5097,
      "Morton": 5098,
      "Venetians": 5099,
      "Tanya": 5100,
      "heavily": 5101,
      "Suddenly": 5102,
      "practice": 5103,
      "immense": 5104,
      "Gi": 5105,
      "HIS": 5106,
      "Sever": 5107,
      "Scat": 5108,
      "Tush": 5109,
      "Vol": 5110,
      "city": 5111,
      "dus": 5112,
      "econ": 5113,
      "gif": 5114,
      "gained": 5115,
      "jest": 5116,
      "lun": 5117,
      "naked": 5118,
      "pond": 5119,
      "ride": 5120,
      "sch": 5121,
      "sher": 5122,
      "tches": 5123,
      "tables": 5124,
      "valley": 5125,
      "hero": 5126,
      "informed": 5127,
      "asc": 5128,
      "enchant": 5129,
      "ork": 5130,
      "novel": 5131,
      "seam": 5132,
      "search": 5133,
      "vehi": 5134,
      "changes": 5135,
      "withdrew": 5136,
      "alter": 5137,
      "hoping": 5138,
      "coarse": 5139,
      "unte": 5140,
      "abrupt": 5141,
      "neat": 5142,
      "ural": 5143,
      "kevich": 5144,
      "mov": 5145,
      "tip": 5146,
      "resto": 5147,
      "resumed": 5148,
      "pool": 5149,
      "excess": 5150,
      "agger": 5151,
      "ulars": 5152,
      "ics": 5153,
      "perspir": 5154,
      "displeased": 5155,
      "canvas": 5156,
      "fier": 5157,
      "figu": 5158,
      "practic": 5159,
      "comrade": 5160,
      "propose": 5161,
      "muff": 5162,
      "smart": 5163,
      "repu": 5164,
      "desires": 5165,
      "beings": 5166,
      "shock": 5167,
      "jolly": 5168,
      "waving": 5169,
      "treas": 5170,
      "finally": 5171,
      "expectation": 5172,
      "spoil": 5173,
      "believ": 5174,
      "drawers": 5175,
      "senses": 5176,
      "scent": 5177,
      "laying": 5178,
      "related": 5179,
      "ovsky": 5180,
      "Moor": 5181,
      "answers": 5182,
      "declared": 5183,
      "trial": 5184,
      "trivi": 5185,
      "grapes": 5186,
      "crime": 5187,
      "trap": 5188,
      "remains": 5189,
      "particulars": 5190,
      "midst": 5191,
      "brightened": 5192,
      "tively": 5193,
      "crossing": 5194,
      "occasions": 5195,
      "lux": 5196,
      "striking": 5197,
      "ENT": 5198,
      "accord": 5199,
      "inclination": 5200,
      "despise": 5201,
      "successful": 5202,
      "escaped": 5203,
      "sufficiently": 5204,
      "defence": 5205,
      "banks": 5206,
      "suspect": 5207,
      "mounted": 5208,
      "negro": 5209,
      "daresay": 5210,
      "accepted": 5211,
      "About": 5212,
      "teachers": 5213,
      "tiny": 5214,
      "mirror": 5215,
      "neighbourhood": 5216,
      "furniture": 5217,
      "mystery": 5218,
      "complain": 5219,
      "obeyed": 5220,
      "develop": 5221,
      "abandoned": 5222,
      "execution": 5223,
      "established": 5224,
      "Pilot": 5225,
      "scrut": 5226,
      "jacket": 5227,
      "angled": 5228,
      "hitherto": 5229,
      "ceptible": 5230,
      "major": 5231,
      "employment": 5232,
      "whiskers": 5233,
      "thoroughly": 5234,
      "Landau": 5235,
      "idelity": 5236,
      "superfluous": 5237,
      "moustache": 5238,
      "Tushkevich": 5239,
      ");": 5240,
      "FE": 5241,
      "Hen": 5242,
      "Kuz": 5243,
      "Lisa": 5244,
      "Mak": 5245,
      "Spain": 5246,
      "UN": 5247,
      "bond": 5248,
      "cabin": 5249,
      "dried": 5250,
      "iator": 5251,
      "san": 5252,
      "tue": 5253,
      "uno": 5254,
      "urov": 5255,
      "uries": 5256,
      "inquire": 5257,
      "insignificant": 5258,
      "rele": 5259,
      "reins": 5260,
      "thri": 5261,
      "associ": 5262,
      "ister": 5263,
      "issu": 5264,
      "estee": 5265,
      "select": 5266,
      "stakes": 5267,
      "beaming": 5268,
      "waste": 5269,
      "chase": 5270,
      "lift": 5271,
      "hole": 5272,
      "sheep": 5273,
      "colle": 5274,
      "accent": 5275,
      "acknowledge": 5276,
      "moist": 5277,
      "modest": 5278,
      "usal": 5279,
      "Theodo": 5280,
      "suited": 5281,
      "mance": 5282,
      "sip": 5283,
      "indul": 5284,
      "ets": 5285,
      "---": 5286,
      "bored": 5287,
      "bosom": 5288,
      "tram": 5289,
      "blan": 5290,
      "civil": 5291,
      "shaped": 5292,
      "chill": 5293,
      "cleared": 5294,
      "torn": 5295,
      "landing": 5296,
      "wax": 5297,
      "appears": 5298,
      "appearing": 5299,
      "steam": 5300,
      "parti": 5301,
      "dresses": 5302,
      "curtains": 5303,
      "champ": 5304,
      "waiter": 5305,
      "reluct": 5306,
      "paint": 5307,
      "soup": 5308,
      "answering": 5309,
      "duke": 5310,
      "Myag": 5311,
      "barley": 5312,
      "commit": 5313,
      "trace": 5314,
      "fortunes": 5315,
      "penet": 5316,
      "gging": 5317,
      "schools": 5318,
      "bottles": 5319,
      "succeed": 5320,
      "cherd": 5321,
      "guns": 5322,
      "crushed": 5323,
      "contents": 5324,
      "murder": 5325,
      "animation": 5326,
      "balls": 5327,
      "occasionally": 5328,
      "discussion": 5329,
      "circumstance": 5330,
      "equal": 5331,
      "fatig": 5332,
      "described": 5333,
      "incident": 5334,
      "bathing": 5335,
      "victory": 5336,
      "foolish": 5337,
      "principality": 5338,
      "contemptuously": 5339,
      "breathing": 5340,
      "stroke": 5341,
      "clerk": 5342,
      "reminded": 5343,
      "WHEN": 5344,
      "Spaniards": 5345,
      "dancing": 5346,
      "astonished": 5347,
      "mercen": 5348,
      "embarrassed": 5349,
      "ignorant": 5350,
      "rarely": 5351,
      "linen": 5352,
      "searching": 5353,
      "breeze": 5354,
      "widow": 5355,
      "modern": 5356,
      "Titus": 5357,
      "Tverskaya": 5358,
      "remote": 5359,
      "clergyman": 5360,
      "Vlasevna": 5361,
      "regiment": 5362,
      "cott": 5363,
      "Excuse": 5364,
      "White": 5365,
      "Scatcherd": 5366,
      "Theodore": 5367,
      "AF": 5368,
      "Bill": 5369,
      "Has": 5370,
      "Lis": 5371,
      "Min": 5372,
      "Nature": 5373,
      "PE": 5374,
      "Slav": 5375,
      "Tom": 5376,
      "Usher": 5377,
      "Zem": 5378,
      "bou": 5379,
      "cough": 5380,
      "dur": 5381,
      "frock": 5382,
      "fishing": 5383,
      "gation": 5384,
      "honey": 5385,
      "ians": 5386,
      "kaya": 5387,
      "lac": 5388,
      "mun": 5389,
      "mown": 5390,
      "mass": 5391,
      "pho": 5392,
      "rings": 5393,
      "sway": 5394,
      "sled": 5395,
      "umbre": 5396,
      "waking": 5397,
      "remor": 5398,
      "receiving": 5399,
      "oul": 5400,
      "ert": 5401,
      "assem": 5402,
      "arose": 5403,
      "haul": 5404,
      "haust": 5405,
      "leaf": 5406,
      "stin": 5407,
      "bee": 5408,
      "beloved": 5409,
      "hidden": 5410,
      "idi": 5411,
      "ghast": 5412,
      "lim": 5413,
      "advert": 5414,
      "rier": 5415,
      "unnecessary": 5416,
      "nel": 5417,
      "mot": 5418,
      "confirmed": 5419,
      "whither": 5420,
      "Their": 5421,
      "aments": 5422,
      "amusing": 5423,
      "sust": 5424,
      "cake": 5425,
      "agues": 5426,
      "raven": 5427,
      "skill": 5428,
      "mentally": 5429,
      "dislike": 5430,
      "disposition": 5431,
      "disappro": 5432,
      "disappeared": 5433,
      "naive": 5434,
      "eling": 5435,
      "eless": 5436,
      "thence": 5437,
      "posit": 5438,
      "cigar": 5439,
      "rendered": 5440,
      "fulness": 5441,
      "everywhere": 5442,
      "wanting": 5443,
      "older": 5444,
      "carp": 5445,
      "partner": 5446,
      "impul": 5447,
      "pipe": 5448,
      "consented": 5449,
      "merchant": 5450,
      "brand": 5451,
      "created": 5452,
      "lands": 5453,
      "hearts": 5454,
      "heartily": 5455,
      "scattered": 5456,
      "jected": 5457,
      "ficial": 5458,
      "autumn": 5459,
      "miser": 5460,
      "remaining": 5461,
      "Really": 5462,
      "signed": 5463,
      "namely": 5464,
      "insisted": 5465,
      "frag": 5466,
      "satisfac": 5467,
      "respected": 5468,
      "studi": 5469,
      "studied": 5470,
      "occupations": 5471,
      "advised": 5472,
      "examine": 5473,
      "examining": 5474,
      "depth": 5475,
      "eighteen": 5476,
      "drinking": 5477,
      "queer": 5478,
      "enjoyment": 5479,
      "jumping": 5480,
      "salary": 5481,
      "vault": 5482,
      "Step": 5483,
      "planted": 5484,
      "picked": 5485,
      "supported": 5486,
      "shadows": 5487,
      "severely": 5488,
      "Like": 5489,
      "gleam": 5490,
      "radiant": 5491,
      "travell": 5492,
      "unexpectedly": 5493,
      "developed": 5494,
      "mixed": 5495,
      "struggling": 5496,
      "impatient": 5497,
      "opera": 5498,
      "smell": 5499,
      "tastes": 5500,
      "waistcoat": 5501,
      "virtue": 5502,
      "forgiveness": 5503,
      "dignity": 5504,
      "convenient": 5505,
      "amazed": 5506,
      "summoned": 5507,
      "exceedingly": 5508,
      "shuddered": 5509,
      "Stremov": 5510,
      "sarcas": 5511,
      "renewed": 5512,
      "polite": 5513,
      "piano": 5514,
      "trousers": 5515,
      "ceremony": 5516,
      "cigaret": 5517,
      "Excellency": 5518,
      "PRINC": 5519,
      "negroes": 5520,
      "Myagkaya": 5521,
      "umbrell": 5522,
      "remorse": 5523,
      "'--": 5524,
      "):": 5525,
      "CT": 5526,
      "CER": 5527,
      "IL": 5528,
      "Mlle": 5529,
      "Pres": 5530,
      "Port": 5531,
      "Paris": 5532,
      "Ry": 5533,
      "Turov": 5534,
      "UP": 5535,
      "VI": 5536,
      "ale": 5537,
      "aves": 5538,
      "bred": 5539,
      "card": 5540,
      "cally": 5541,
      "cards": 5542,
      "ds": 5543,
      "dine": 5544,
      "dangers": 5545,
      "eating": 5546,
      "kins": 5547,
      "liness": 5548,
      "names": 5549,
      "oil": 5550,
      "poured": 5551,
      "rated": 5552,
      "sque": 5553,
      "tend": 5554,
      "zing": 5555,
      "insol": 5556,
      "recomm": 5557,
      "remove": 5558,
      "reaching": 5559,
      "recalling": 5560,
      "ases": 5561,
      "ites": 5562,
      "members": 5563,
      "stvo": 5564,
      "wasn": 5565,
      "roots": 5566,
      "cease": 5567,
      "entre": 5568,
      "welf": 5569,
      "lime": 5570,
      "likes": 5571,
      "hook": 5572,
      "losing": 5573,
      "achi": 5574,
      "demon": 5575,
      "contained": 5576,
      "ambit": 5577,
      "ressive": 5578,
      "results": 5579,
      "pover": 5580,
      "domin": 5581,
      "sugar": 5582,
      "mankind": 5583,
      "ifully": 5584,
      "exchanged": 5585,
      "caution": 5586,
      "cakes": 5587,
      "iced": 5588,
      "pled": 5589,
      "performed": 5590,
      "tracted": 5591,
      "prud": 5592,
      "gible": 5593,
      "glory": 5594,
      "smen": 5595,
      "headed": 5596,
      "rude": 5597,
      "parting": 5598,
      "minds": 5599,
      "apply": 5600,
      "momentary": 5601,
      "deny": 5602,
      "parce": 5603,
      "condu": 5604,
      "leather": 5605,
      "expressing": 5606,
      "questioned": 5607,
      "joyfully": 5608,
      "forms": 5609,
      "ventured": 5610,
      "Once": 5611,
      "sunk": 5612,
      "travel": 5613,
      "azz": 5614,
      "swept": 5615,
      "strongly": 5616,
      "wildly": 5617,
      "prepare": 5618,
      "See": 5619,
      "doubtless": 5620,
      "wonderfully": 5621,
      "patience": 5622,
      "differently": 5623,
      "destru": 5624,
      "posture": 5625,
      "depths": 5626,
      "quarre": 5627,
      "quarters": 5628,
      "grieved": 5629,
      "affected": 5630,
      "ification": 5631,
      "Which": 5632,
      "providence": 5633,
      "punish": 5634,
      "shameful": 5635,
      "produce": 5636,
      "improper": 5637,
      "improved": 5638,
      "depends": 5639,
      "falsehood": 5640,
      "vividly": 5641,
      "gratitude": 5642,
      "facul": 5643,
      "genial": 5644,
      "slave": 5645,
      "Miller": 5646,
      "India": 5647,
      "mysterious": 5648,
      "Quite": 5649,
      "collected": 5650,
      "fulfil": 5651,
      "flame": 5652,
      "abinin": 5653,
      "greeted": 5654,
      "endeavour": 5655,
      "inhabited": 5656,
      "glittering": 5657,
      "rational": 5658,
      "swallowed": 5659,
      "August": 5660,
      "audible": 5661,
      "chimney": 5662,
      "elegant": 5663,
      "vacant": 5664,
      "Gladiator": 5665,
      "Milan": 5666,
      "Volunte": 5667,
      "seamen": 5668,
      "fierce": 5669,
      "Kuzma": 5670,
      "Zemstvo": 5671,
      "Ryabinin": 5672,
      "Turovts": 5673,
      "Afri": 5674,
      "Blan": 5675,
      "Che": 5676,
      "Fo": 5677,
      "OO": 5678,
      "RONSKY": 5679,
      "Si": 5680,
      "Sup": 5681,
      "US": 5682,
      "VRONSKY": 5683,
      "aver": 5684,
      "bis": 5685,
      "bend": 5686,
      "bark": 5687,
      "ee": 5688,
      "fled": 5689,
      "fitted": 5690,
      "groom": 5691,
      "lain": 5692,
      "nn": 5693,
      "named": 5694,
      "pace": 5695,
      "pud": 5696,
      "pushing": 5697,
      "slo": 5698,
      "sci": 5699,
      "ys": 5700,
      "yonder": 5701,
      "inten": 5702,
      "aned": 5703,
      "anni": 5704,
      "rejoined": 5705,
      "oning": 5706,
      "atmo": 5707,
      "attain": 5708,
      "err": 5709,
      "asm": 5710,
      "assure": 5711,
      "enthus": 5712,
      "envy": 5713,
      "arous": 5714,
      "stage": 5715,
      "belt": 5716,
      "bearing": 5717,
      "ido": 5718,
      "ceiling": 5719,
      "yous": 5720,
      "hadn": 5721,
      "sable": 5722,
      "sails": 5723,
      "ioned": 5724,
      "advent": 5725,
      "fears": 5726,
      "unning": 5727,
      "urged": 5728,
      "ache": 5729,
      "aches": 5730,
      "ows": 5731,
      "mock": 5732,
      "moise": 5733,
      "dew": 5734,
      "degr": 5735,
      "upright": 5736,
      "consol": 5737,
      "quality": 5738,
      "agne": 5739,
      "skir": 5740,
      "willingly": 5741,
      "intolerable": 5742,
      "omin": 5743,
      "rents": 5744,
      "vile": 5745,
      "viour": 5746,
      "stray": 5747,
      "shared": 5748,
      "pleasures": 5749,
      "lets": 5750,
      "stands": 5751,
      "compared": 5752,
      "obstin": 5753,
      "lightning": 5754,
      "grant": 5755,
      "intend": 5756,
      "passeng": 5757,
      "nerves": 5758,
      "joyous": 5759,
      "landlord": 5760,
      "wave": 5761,
      "applic": 5762,
      "corrid": 5763,
      "attended": 5764,
      "appet": 5765,
      "spoiled": 5766,
      "ughty": 5767,
      "maintain": 5768,
      "continuing": 5769,
      "smiles": 5770,
      "questioning": 5771,
      "certainty": 5772,
      "valour": 5773,
      "coldness": 5774,
      "trim": 5775,
      "evidence": 5776,
      "cutting": 5777,
      "resolute": 5778,
      "cript": 5779,
      "crimin": 5780,
      "commence": 5781,
      "fearful": 5782,
      "fourth": 5783,
      "pretence": 5784,
      "catching": 5785,
      "comfortably": 5786,
      "frightful": 5787,
      "oneself": 5788,
      "learning": 5789,
      "sprang": 5790,
      "smoo": 5791,
      "habitual": 5792,
      "velvet": 5793,
      "shouting": 5794,
      "crack": 5795,
      "admire": 5796,
      "instinc": 5797,
      "characteristic": 5798,
      "effects": 5799,
      "Lynn": 5800,
      "ART": 5801,
      "Poor": 5802,
      "hotin": 5803,
      "locks": 5804,
      "pitched": 5805,
      "blowing": 5806,
      "fasc": 5807,
      "arrangements": 5808,
      "instrument": 5809,
      "introduce": 5810,
      "bald": 5811,
      "persuaded": 5812,
      "principal": 5813,
      "Liber": 5814,
      "eagerly": 5815,
      "feverish": 5816,
      "conquered": 5817,
      "repentance": 5818,
      "principles": 5819,
      "branch": 5820,
      "benefit": 5821,
      "amidst": 5822,
      "distinguish": 5823,
      "inevit": 5824,
      "Government": 5825,
      "acknowledged": 5826,
      "Janet": 5827,
      "frankly": 5828,
      "contrived": 5829,
      "admiration": 5830,
      "precisely": 5831,
      "inexpres": 5832,
      "defects": 5833,
      "proposal": 5834,
      "Lvov": 5835,
      "THAT": 5836,
      "mourn": 5837,
      "potatoes": 5838,
      "schol": 5839,
      "figures": 5840,
      "Makhotin": 5841,
      "destruction": 5842,
      "Volunteers": 5843,
      "Blanche": 5844,
      "enthusi": 5845,
      "moiselle": 5846,
      ";--": 5847,
      "Ber": 5848,
      "Co": 5849,
      "Cor": 5850,
      "Flo": 5851,
      "Great": 5852,
      "Hay": 5853,
      "Im": 5854,
      "Mer": 5855,
      "Made": 5856,
      "Masha": 5857,
      "Neither": 5858,
      "RA": 5859,
      "Sor": 5860,
      "Sun": 5861,
      "Sam": 5862,
      "Try": 5863,
      "VIII": 5864,
      "YOU": 5865,
      "apt": 5866,
      "coff": 5867,
      "fli": 5868,
      "fain": 5869,
      "fare": 5870,
      "ica": 5871,
      "iments": 5872,
      "pir": 5873,
      "pred": 5874,
      "packed": 5875,
      "pacing": 5876,
      "ram": 5877,
      "tching": 5878,
      "yaw": 5879,
      "heated": 5880,
      "inent": 5881,
      "invisible": 5882,
      "theatre": 5883,
      "rely": 5884,
      "review": 5885,
      "render": 5886,
      "toi": 5887,
      "iter": 5888,
      "organ": 5889,
      "orphan": 5890,
      "hael": 5891,
      "stic": 5892,
      "wasted": 5893,
      "robe": 5894,
      "notes": 5895,
      "weap": 5896,
      "advis": 5897,
      "adding": 5898,
      "loy": 5899,
      "feast": 5900,
      "fetched": 5901,
      "unlike": 5902,
      "unimportant": 5903,
      "abstr": 5904,
      "acles": 5905,
      "thern": 5906,
      "mod": 5907,
      "moor": 5908,
      "devour": 5909,
      "deception": 5910,
      "conject": 5911,
      "constit": 5912,
      "pole": 5913,
      "quis": 5914,
      "manif": 5915,
      "exposed": 5916,
      "extent": 5917,
      "exhaust": 5918,
      "causes": 5919,
      "rage": 5920,
      "plun": 5921,
      "perfor": 5922,
      "perish": 5923,
      "permit": 5924,
      "permitted": 5925,
      "perceptible": 5926,
      "endured": 5927,
      "eline": 5928,
      "likewise": 5929,
      "laz": 5930,
      "laun": 5931,
      "overflow": 5932,
      "comrad": 5933,
      "stool": 5934,
      "undertaking": 5935,
      "thanked": 5936,
      "beforehand": 5937,
      "rights": 5938,
      "opposed": 5939,
      "gaily": 5940,
      "lessly": 5941,
      "rub": 5942,
      "brook": 5943,
      "obtain": 5944,
      "resting": 5945,
      "satin": 5946,
      "pipes": 5947,
      "brush": 5948,
      "passions": 5949,
      "nights": 5950,
      "lasted": 5951,
      "flour": 5952,
      "mond": 5953,
      "solution": 5954,
      "finishing": 5955,
      "spoilt": 5956,
      "believer": 5957,
      "dined": 5958,
      "winds": 5959,
      "subtle": 5960,
      "harder": 5961,
      "breed": 5962,
      "drawer": 5963,
      "scri": 5964,
      "helping": 5965,
      "dreary": 5966,
      "fication": 5967,
      "hunting": 5968,
      "generous": 5969,
      "pleasantly": 5970,
      "barrel": 5971,
      "doubts": 5972,
      "lawn": 5973,
      "purple": 5974,
      "committed": 5975,
      "wooden": 5976,
      "remarks": 5977,
      "cows": 5978,
      "simplicity": 5979,
      "satisfy": 5980,
      "pretend": 5981,
      "respectful": 5982,
      "contrad": 5983,
      "exception": 5984,
      "saddle": 5985,
      "governor": 5986,
      "humanity": 5987,
      "flock": 5988,
      "advise": 5989,
      "prayed": 5990,
      "ringing": 5991,
      "warning": 5992,
      "murmur": 5993,
      "properly": 5994,
      "wretches": 5995,
      "covering": 5996,
      "ORGE": 5997,
      "discussing": 5998,
      "paying": 5999,
      "recollections": 6000,
      "detail": 6001,
      "songs": 6002,
      "description": 6003,
      "knock": 6004,
      "degrees": 6005,
      "injure": 6006,
      "anxiously": 6007,
      "croquet": 6008,
      "Nevertheless": 6009,
      "hideous": 6010,
      "GEORGE": 6011,
      "addition": 6012,
      "affli": 6013,
      "European": 6014,
      "throat": 6015,
      "struggled": 6016,
      "shrill": 6017,
      "dragged": 6018,
      "tasted": 6019,
      "abandon": 6020,
      "responded": 6021,
      "calculated": 6022,
      "stooped": 6023,
      "hesitation": 6024,
      "annoy": 6025,
      "gradually": 6026,
      "collar": 6027,
      "knitting": 6028,
      "pistol": 6029,
      "glimp": 6030,
      "CONCER": 6031,
      "trunk": 6032,
      "surveyed": 6033,
      "neglected": 6034,
      "NOT": 6035,
      "encouraged": 6036,
      "hospital": 6037,
      "perplex": 6038,
      "dawn": 6039,
      "leisure": 6040,
      "hamper": 6041,
      "abundance": 6042,
      "dusk": 6043,
      "development": 6044,
      "champagne": 6045,
      "cottage": 6046,
      "Lisbon": 6047,
      "assembled": 6048,
      "corridor": 6049,
      "appetite": 6050,
      "manifest": 6051,
      "comrades": 6052,
      "Ac": 6053,
      "Ad": 6054,
      "Bor": 6055,
      "CK": 6056,
      "Gener": 6057,
      "ION": 6058,
      "LA": 6059,
      "Little": 6060,
      "NA": 6061,
      "Nord": 6062,
      "Old": 6063,
      "OME": 6064,
      "Phi": 6065,
      "Since": 6066,
      "bra": 6067,
      "cill": 6068,
      "dain": 6069,
      "fran": 6070,
      "gor": 6071,
      "job": 6072,
      "mount": 6073,
      "oe": 6074,
      "rag": 6075,
      "sche": 6076,
      "sket": 6077,
      "snu": 6078,
      "tid": 6079,
      "vag": 6080,
      "ws": 6081,
      "yev": 6082,
      "hem": 6083,
      "inches": 6084,
      "incapable": 6085,
      "thee": 6086,
      "theory": 6087,
      "revel": 6088,
      "thread": 6089,
      "onies": 6090,
      "anded": 6091,
      "isters": 6092,
      "envelo": 6093,
      "lli": 6094,
      "mechan": 6095,
      "leant": 6096,
      "strous": 6097,
      "bel": 6098,
      "bees": 6099,
      "bewild": 6100,
      "role": 6101,
      "herd": 6102,
      "weigh": 6103,
      "lier": 6104,
      "holid": 6105,
      "ads": 6106,
      "alling": 6107,
      "lob": 6108,
      "ribb": 6109,
      "costu": 6110,
      "butt": 6111,
      "acon": 6112,
      "cony": 6113,
      "congrat": 6114,
      "whir": 6115,
      "respond": 6116,
      "pots": 6117,
      "odd": 6118,
      "mans": 6119,
      "extingu": 6120,
      "exagger": 6121,
      "foli": 6122,
      "indiv": 6123,
      "bolt": 6124,
      "discer": 6125,
      "disliked": 6126,
      "arted": 6127,
      "inkled": 6128,
      "provin": 6129,
      "stomach": 6130,
      "imit": 6131,
      "inea": 6132,
      "beggar": 6133,
      "tooth": 6134,
      "clung": 6135,
      "rubbed": 6136,
      "rubbing": 6137,
      "carriages": 6138,
      "closing": 6139,
      "partition": 6140,
      "Does": 6141,
      "preva": 6142,
      "torted": 6143,
      "joining": 6144,
      "housekeeper": 6145,
      "cordi": 6146,
      "monstrous": 6147,
      "parties": 6148,
      "version": 6149,
      "curled": 6150,
      "chap": 6151,
      "riding": 6152,
      "subst": 6153,
      "interview": 6154,
      "maintained": 6155,
      "Missis": 6156,
      "refusal": 6157,
      "surely": 6158,
      "ova": 6159,
      "system": 6160,
      "begins": 6161,
      "commiss": 6162,
      "Reading": 6163,
      "souls": 6164,
      "smaller": 6165,
      "huge": 6166,
      "kettle": 6167,
      "senseless": 6168,
      "pencil": 6169,
      "terrified": 6170,
      "sixteen": 6171,
      "hundreds": 6172,
      "examples": 6173,
      "entertained": 6174,
      "lugg": 6175,
      "strengthen": 6176,
      "delighted": 6177,
      "Everybody": 6178,
      "salt": 6179,
      "belonging": 6180,
      "honourable": 6181,
      "assistant": 6182,
      "moonlight": 6183,
      "increase": 6184,
      "screaming": 6185,
      "masters": 6186,
      "frost": 6187,
      "frozen": 6188,
      "descending": 6189,
      "injured": 6190,
      "treatment": 6191,
      "principalities": 6192,
      "wrapping": 6193,
      "travelled": 6194,
      "furnished": 6195,
      "declare": 6196,
      "trot": 6197,
      "stockings": 6198,
      "communicated": 6199,
      "disgusting": 6200,
      "preserved": 6201,
      "reconc": 6202,
      "millions": 6203,
      "Romans": 6204,
      "distinguished": 6205,
      "protection": 6206,
      "adopted": 6207,
      "lucky": 6208,
      "professor": 6209,
      "AREN": 6210,
      "hazard": 6211,
      "deprived": 6212,
      "mushroom": 6213,
      "mortal": 6214,
      "Korsun": 6215,
      "phrase": 6216,
      "complicated": 6217,
      "preparations": 6218,
      "tranquillity": 6219,
      "embraced": 6220,
      "inferior": 6221,
      "practical": 6222,
      "believing": 6223,
      "trivial": 6224,
      "fatigue": 6225,
      "photo": 6226,
      "sledge": 6227,
      "ghastly": 6228,
      "carpenter": 6229,
      "satisfactory": 6230,
      "Stephen": 6231,
      "cigarette": 6232,
      "umbrella": 6233,
      "Liberal": 6234,
      "toilet": 6235,
      "Nordston": 6236,
      "ribbons": 6237,
      "individ": 6238,
      ";'": 6239,
      "Cer": 6240,
      "DAY": 6241,
      "Five": 6242,
      "IES": 6243,
      "Lady": 6244,
      "MON": 6245,
      "Neved": 6246,
      "OB": 6247,
      "Off": 6248,
      "Pav": 6249,
      "Rom": 6250,
      "Sa": 6251,
      "TA": 6252,
      "TS": 6253,
      "bough": 6254,
      "brushed": 6255,
      "cities": 6256,
      "cunning": 6257,
      "ement": 6258,
      "fant": 6259,
      "glove": 6260,
      "ju": 6261,
      "jar": 6262,
      "kin": 6263,
      "knot": 6264,
      "mould": 6265,
      "pies": 6266,
      "sity": 6267,
      "source": 6268,
      "uary": 6269,
      "wal": 6270,
      "inus": 6271,
      "rec": 6272,
      "repose": 6273,
      "retained": 6274,
      "enable": 6275,
      "stim": 6276,
      "stately": 6277,
      "hip": 6278,
      "ceas": 6279,
      "noted": 6280,
      "notions": 6281,
      "alarm": 6282,
      "sale": 6283,
      "sauce": 6284,
      "liation": 6285,
      "cock": 6286,
      "uneasy": 6287,
      "urance": 6288,
      "degrad": 6289,
      "deacon": 6290,
      "contemp": 6291,
      "aman": 6292,
      "ambas": 6293,
      "quaint": 6294,
      "suitable": 6295,
      "exhi": 6296,
      "exped": 6297,
      "caval": 6298,
      "folly": 6299,
      "shr": 6300,
      "shun": 6301,
      "shchi": 6302,
      "worry": 6303,
      "pers": 6304,
      "perman": 6305,
      "disappointment": 6306,
      "afford": 6307,
      "nail": 6308,
      "chees": 6309,
      "thoughtful": 6310,
      "pract": 6311,
      "print": 6312,
      "proportion": 6313,
      "rowed": 6314,
      "dig": 6315,
      "diver": 6316,
      "dict": 6317,
      "voshchi": 6318,
      "lting": 6319,
      "offering": 6320,
      "earthen": 6321,
      "apsed": 6322,
      "Whatever": 6323,
      "march": 6324,
      "pathetic": 6325,
      "lighted": 6326,
      "counsel": 6327,
      "pig": 6328,
      "grasped": 6329,
      "brass": 6330,
      "prete": 6331,
      "flag": 6332,
      "cerity": 6333,
      "curly": 6334,
      "izvoshchi": 6335,
      "helpless": 6336,
      "exciting": 6337,
      "shows": 6338,
      "sunny": 6339,
      "lovna": 6340,
      "stretch": 6341,
      "swear": 6342,
      "ONE": 6343,
      "observing": 6344,
      "doubtful": 6345,
      "midnight": 6346,
      "rainy": 6347,
      "rained": 6348,
      "respectfully": 6349,
      "RES": 6350,
      "Through": 6351,
      "sador": 6352,
      "sadness": 6353,
      "avenue": 6354,
      "posts": 6355,
      "liter": 6356,
      "depended": 6357,
      "entertain": 6358,
      "earthly": 6359,
      "strike": 6360,
      "towns": 6361,
      "Kingston": 6362,
      "hostility": 6363,
      "accomplish": 6364,
      "petition": 6365,
      "Something": 6366,
      "boxes": 6367,
      "profit": 6368,
      "including": 6369,
      "soldier": 6370,
      "purposely": 6371,
      "salvation": 6372,
      "chestnut": 6373,
      "objects": 6374,
      "stirring": 6375,
      "Provin": 6376,
      "separation": 6377,
      "violently": 6378,
      "pitied": 6379,
      "recollected": 6380,
      "twilight": 6381,
      "potent": 6382,
      "dimly": 6383,
      "mastered": 6384,
      "missionary": 6385,
      "tormenting": 6386,
      "victim": 6387,
      "descend": 6388,
      "talent": 6389,
      "designs": 6390,
      "breathed": 6391,
      "bridegroom": 6392,
      "boldly": 6393,
      "concealed": 6394,
      "definitely": 6395,
      "billi": 6396,
      "embarrassment": 6397,
      "storey": 6398,
      "stooping": 6399,
      "tightly": 6400,
      "Governor": 6401,
      "suspicions": 6402,
      "anticipated": 6403,
      "pistols": 6404,
      "Juli": 6405,
      "compelled": 6406,
      "credit": 6407,
      "amiable": 6408,
      "Meantime": 6409,
      "Robin": 6410,
      "comforted": 6411,
      "seventeen": 6412,
      "beckoned": 6413,
      "celebrated": 6414,
      "reconciliation": 6415,
      "problem": 6416,
      "scrutin": 6417,
      "majority": 6418,
      "sarcastic": 6419,
      "welfare": 6420,
      "poverty": 6421,
      "conducted": 6422,
      "science": 6423,
      "atmosphere": 6424,
      "fascin": 6425,
      "CONCERNING": 6426,
      "frantic": 6427,
      "Certain": 6428,
      "Nevedovsky": 6429,
      "Pavlovna": 6430,
      "ambassador": 6431,
      "16": 6432,
      "Apri": 6433,
      "BY": 6434,
      "Bri": 6435,
      "Bible": 6436,
      "Cather": 6437,
      "Fe": 6438,
      "Hull": 6439,
      "HER": 6440,
      "High": 6441,
      "ICH": 6442,
      "Lu": 6443,
      "Mic": 6444,
      "Many": 6445,
      "Na": 6446,
      "Next": 6447,
      "Par": 6448,
      "Sm": 6449,
      "Str": 6450,
      "Snet": 6451,
      "Thur": 6452,
      "_No": 6453,
      "awoke": 6454,
      "bi": 6455,
      "bun": 6456,
      "bones": 6457,
      "craw": 6458,
      "eur": 6459,
      "fted": 6460,
      "flight": 6461,
      "fought": 6462,
      "iest": 6463,
      "lou": 6464,
      "mouse": 6465,
      "oted": 6466,
      "pac": 6467,
      "pil": 6468,
      "ray": 6469,
      "rushing": 6470,
      "sink": 6471,
      "sins": 6472,
      "scorn": 6473,
      "vit": 6474,
      "heath": 6475,
      "inspired": 6476,
      "ansky": 6477,
      "rena": 6478,
      "replaced": 6479,
      "revenge": 6480,
      "thresh": 6481,
      "ander": 6482,
      "tori": 6483,
      "tomb": 6484,
      "tocr": 6485,
      "assi": 6486,
      "itim": 6487,
      "nowhere": 6488,
      "leagues": 6489,
      "stables": 6490,
      "hire": 6491,
      "wick": 6492,
      "wiped": 6493,
      "withstanding": 6494,
      "soil": 6495,
      "adays": 6496,
      "rival": 6497,
      "femin": 6498,
      "outlook": 6499,
      "abhor": 6500,
      "accom": 6501,
      "moss": 6502,
      "mocking": 6503,
      "moido": 6504,
      "decor": 6505,
      "derer": 6506,
      "timber": 6507,
      "convent": 6508,
      "wheel": 6509,
      "mansion": 6510,
      "excl": 6511,
      "agna": 6512,
      "anting": 6513,
      "thereby": 6514,
      "owners": 6515,
      "faults": 6516,
      "illust": 6517,
      "blaz": 6518,
      "abouts": 6519,
      "discre": 6520,
      "ideal": 6521,
      "medic": 6522,
      "itect": 6523,
      "readily": 6524,
      "fires": 6525,
      "comic": 6526,
      "pros": 6527,
      "project": 6528,
      "impet": 6529,
      "undertake": 6530,
      "dip": 6531,
      "spreading": 6532,
      "wherein": 6533,
      "type": 6534,
      "greatness": 6535,
      "clover": 6536,
      "foundations": 6537,
      "compartment": 6538,
      "pave": 6539,
      "counted": 6540,
      "intently": 6541,
      "prefer": 6542,
      "preferred": 6543,
      "childish": 6544,
      "flashed": 6545,
      "quivering": 6546,
      "talks": 6547,
      "understands": 6548,
      "finit": 6549,
      "chain": 6550,
      "challen": 6551,
      "continual": 6552,
      "eldest": 6553,
      "keeps": 6554,
      "sentiments": 6555,
      "temples": 6556,
      "THER": 6557,
      "hinder": 6558,
      "confine": 6559,
      "regions": 6560,
      "appropri": 6561,
      "cushi": 6562,
      "mischief": 6563,
      "barn": 6564,
      "bury": 6565,
      "resolutely": 6566,
      "islands": 6567,
      "droop": 6568,
      "drops": 6569,
      "patri": 6570,
      "arrive": 6571,
      "experiment": 6572,
      "Russians": 6573,
      "sadly": 6574,
      "judged": 6575,
      "musical": 6576,
      "muskets": 6577,
      "existed": 6578,
      "Service": 6579,
      "scarlet": 6580,
      "superintend": 6581,
      "impressions": 6582,
      "instinct": 6583,
      "seeming": 6584,
      "effectually": 6585,
      "recognizing": 6586,
      "truthful": 6587,
      "punished": 6588,
      "unpleasantness": 6589,
      "peculiarly": 6590,
      "motionless": 6591,
      "Turk": 6592,
      "measured": 6593,
      "consequences": 6594,
      "assisted": 6595,
      "splendidly": 6596,
      "pockets": 6597,
      "furious": 6598,
      "hammer": 6599,
      "Leave": 6600,
      "advantages": 6601,
      "sincerity": 6602,
      "attracted": 6603,
      "architect": 6604,
      "magistr": 6605,
      "Baron": 6606,
      "blessed": 6607,
      "blessing": 6608,
      "Petrov": 6609,
      "noblemen": 6610,
      "companions": 6611,
      "vivid": 6612,
      "tales": 6613,
      "Lock": 6614,
      "vainly": 6615,
      "wealthy": 6616,
      "gesture": 6617,
      "sportsmen": 6618,
      "fashionable": 6619,
      "Matrena": 6620,
      "debts": 6621,
      "indignant": 6622,
      "indignation": 6623,
      "chanced": 6624,
      "ignorance": 6625,
      "endeavoured": 6626,
      "dignified": 6627,
      "alien": 6628,
      "repulsive": 6629,
      "repulsion": 6630,
      "gloomily": 6631,
      "filling": 6632,
      "sparkling": 6633,
      "suspicion": 6634,
      "gathering": 6635,
      "mushrooms": 6636,
      "dwelling": 6637,
      "intentions": 6638,
      "pouring": 6639,
      "swelled": 6640,
      "soothing": 6641,
      "obstacle": 6642,
      "deliberately": 6643,
      "swath": 6644,
      "complexion": 6645,
      "enclosure": 6646,
      "betrayed": 6647,
      "pearl": 6648,
      "treasure": 6649,
      "suspected": 6650,
      "mercenaries": 6651,
      "advertise": 6652,
      "motions": 6653,
      "intense": 6654,
      "aroused": 6655,
      "inevitably": 6656,
      "performance": 6657,
      "contradi": 6658,
      "General": 6659,
      "costume": 6660,
      "reconciled": 6661,
      "Korsunsky": 6662,
      "cheeses": 6663,
      "Certainly": 6664,
      "April": 6665,
      "Catherine": 6666,
      "Snetkov": 6667,
      "Thurs": 6668,
      "accommod": 6669,
      "moidores": 6670,
      "Ev": 6671,
      "FR": 6672,
      "Fili": 6673,
      "FUL": 6674,
      "IP": 6675,
      "KAREN": 6676,
      "Nat": 6677,
      "None": 6678,
      "PART": 6679,
      "QU": 6680,
      "RIV": 6681,
      "Tham": 6682,
      "Under": 6683,
      "VE": 6684,
      "Varya": 6685,
      "WI": 6686,
      "Won": 6687,
      "amy": 6688,
      "bru": 6689,
      "cra": 6690,
      "cket": 6691,
      "crit": 6692,
      "craft": 6693,
      "fis": 6694,
      "frown": 6695,
      "gin": 6696,
      "hin": 6697,
      "hut": 6698,
      "ius": 6699,
      "lation": 6700,
      "map": 6701,
      "mson": 6702,
      "maker": 6703,
      "nic": 6704,
      "og": 6705,
      "ode": 6706,
      "py": 6707,
      "pages": 6708,
      "soften": 6709,
      "tap": 6710,
      "vap": 6711,
      "wn": 6712,
      "ware": 6713,
      "zes": 6714,
      "hell": 6715,
      "heels": 6716,
      "theme": 6717,
      "restrained": 6718,
      "thy": 6719,
      "toes": 6720,
      "token": 6721,
      "asy": 6722,
      "ashes": 6723,
      "orch": 6724,
      "llings": 6725,
      "esar": 6726,
      "estic": 6727,
      "stag": 6728,
      "stum": 6729,
      "beer": 6730,
      "beam": 6731,
      "hiding": 6732,
      "idle": 6733,
      "roses": 6734,
      "veins": 6735,
      "verst": 6736,
      "ential": 6737,
      "forbid": 6738,
      "solace": 6739,
      "weig": 6740,
      "wels": 6741,
      "samond": 6742,
      "lilac": 6743,
      "hoarse": 6744,
      "loqu": 6745,
      "rigid": 6746,
      "unite": 6747,
      "unfaithful": 6748,
      "abate": 6749,
      "defic": 6750,
      "deeper": 6751,
      "consp": 6752,
      "conform": 6753,
      "concent": 6754,
      "hatchet": 6755,
      "whel": 6756,
      "amused": 6757,
      "ammun": 6758,
      "poet": 6759,
      "police": 6760,
      "doir": 6761,
      "quitted": 6762,
      "eves": 6763,
      "mantel": 6764,
      "manners": 6765,
      "extrem": 6766,
      "whoever": 6767,
      "selfish": 6768,
      "someone": 6769,
      "trout": 6770,
      "disci": 6771,
      "disgrace": 6772,
      "medit": 6773,
      "medical": 6774,
      "nails": 6775,
      "elapsed": 6776,
      "positions": 6777,
      "daylight": 6778,
      "shouldn": 6779,
      "lap": 6780,
      "inkle": 6781,
      "straint": 6782,
      "Were": 6783,
      "acks": 6784,
      "void": 6785,
      "offen": 6786,
      "repress": 6787,
      "justify": 6788,
      "chick": 6789,
      "desk": 6790,
      "serf": 6791,
      "venom": 6792,
      "armies": 6793,
      "carved": 6794,
      "stillness": 6795,
      "happily": 6796,
      "foundation": 6797,
      "lights": 6798,
      "counter": 6799,
      "grin": 6800,
      "grain": 6801,
      "grind": 6802,
      "merch": 6803,
      "merged": 6804,
      "brut": 6805,
      "udin": 6806,
      "supposing": 6807,
      "corpse": 6808,
      "mates": 6809,
      "flash": 6810,
      "guided": 6811,
      "guilt": 6812,
      "bedside": 6813,
      "sons": 6814,
      "ministr": 6815,
      "Rosamond": 6816,
      "asks": 6817,
      "subdu": 6818,
      "breach": 6819,
      "watering": 6820,
      "joys": 6821,
      "formal": 6822,
      "doubled": 6823,
      "sentiment": 6824,
      "lingered": 6825,
      "awakened": 6826,
      "conversations": 6827,
      "runs": 6828,
      "dug": 6829,
      "decent": 6830,
      "decay": 6831,
      "fairly": 6832,
      "approve": 6833,
      "approved": 6834,
      "tries": 6835,
      "trick": 6836,
      "falls": 6837,
      "honoured": 6838,
      "emphas": 6839,
      "berries": 6840,
      "barrier": 6841,
      "crimson": 6842,
      "surprising": 6843,
      "services": 6844,
      "medium": 6845,
      "insist": 6846,
      "nie": 6847,
      "conscient": 6848,
      "halloo": 6849,
      "accounts": 6850,
      "sleepy": 6851,
      "pictured": 6852,
      "divine": 6853,
      "steady": 6854,
      "volume": 6855,
      "dreaming": 6856,
      "shades": 6857,
      "smoking": 6858,
      "oppon": 6859,
      "softened": 6860,
      "perfection": 6861,
      "humour": 6862,
      "cracked": 6863,
      "eighty": 6864,
      "burned": 6865,
      "murderer": 6866,
      "decidedly": 6867,
      "bowing": 6868,
      "commonplace": 6869,
      "punct": 6870,
      "leaned": 6871,
      "liberality": 6872,
      "killing": 6873,
      "atively": 6874,
      "irritable": 6875,
      "wisdom": 6876,
      "spectacle": 6877,
      "ironical": 6878,
      "involuntary": 6879,
      "couch": 6880,
      "anguish": 6881,
      "sympa": 6882,
      "sini": 6883,
      "physically": 6884,
      "climate": 6885,
      "pursue": 6886,
      "exerc": 6887,
      "classes": 6888,
      "crop": 6889,
      "Dece": 6890,
      "absolute": 6891,
      "fashioned": 6892,
      "Orsini": 6893,
      "fighting": 6894,
      "aristocr": 6895,
      "announce": 6896,
      "balcony": 6897,
      "pupils": 6898,
      "meadows": 6899,
      "Indian": 6900,
      "disputes": 6901,
      "grove": 6902,
      "deserved": 6903,
      "debt": 6904,
      "astonishment": 6905,
      "thankfulness": 6906,
      "fulfilled": 6907,
      "indicating": 6908,
      "political": 6909,
      "sensations": 6910,
      "lodge": 6911,
      "invented": 6912,
      "annoyed": 6913,
      "alike": 6914,
      "sacrific": 6915,
      "fowling": 6916,
      "fowls": 6917,
      "attempted": 6918,
      "referring": 6919,
      "consistent": 6920,
      "appreciated": 6921,
      "improvement": 6922,
      "feeding": 6923,
      "compassion": 6924,
      "Council": 6925,
      "valuable": 6926,
      "infantry": 6927,
      "convey": 6928,
      "expense": 6929,
      "behaved": 6930,
      "Louisa": 6931,
      "barbarous": 6932,
      "narrative": 6933,
      "cautious": 6934,
      "horrified": 6935,
      "climbed": 6936,
      "institution": 6937,
      "economy": 6938,
      "luxury": 6939,
      "esteemed": 6940,
      "boudoir": 6941,
      "traveller": 6942,
      "parcel": 6943,
      "Africa": 6944,
      "biscu": 6945,
      "passengers": 6946,
      "inexpressible": 6947,
      "coffin": 6948,
      "exhausted": 6949,
      "glimpse": 6950,
      "Philip": 6951,
      "cillor": 6952,
      "individual": 6953,
      "degradation": 6954,
      "Briggs": 6955,
      "louder": 6956,
      "prosper": 6957,
      "pavement": 6958,
      "Baroness": 6959,
      "KARENIN": 6960,
      "Thames": 6961,
      "weighed": 6962,
      "ammunition": 6963,
      "!...'": 6964,
      "'-": 6965,
      ".--": 6966,
      ";”": 6967,
      "Abo": 6968,
      "Amer": 6969,
      "Celine": 6970,
      "Din": 6971,
      "Des": 6972,
      "Dep": 6973,
      "Dire": 6974,
      "FA": 6975,
      "Father": 6976,
      "Gent": 6977,
      "Hard": 6978,
      "LL": 6979,
      "Mind": 6980,
      "Much": 6981,
      "New": 6982,
      "Oc": 6983,
      "PER": 6984,
      "Sco": 6985,
      "School": 6986,
      "Surely": 6987,
      "Script": 6988,
      "Turn": 6989,
      "Vo": 6990,
      "Wood": 6991,
      "WERE": 6992,
      "_May": 6993,
      "bind": 6994,
      "bation": 6995,
      "bably": 6996,
      "cti": 6997,
      "dazz": 6998,
      "eh": 6999,
      "equi": 7000,
      "eternal": 7001,
      "faster": 7002,
      "flies": 7003,
      "ime": 7004,
      "itors": 7005,
      "ky": 7006,
      "kich": 7007,
      "lump": 7008,
      "oce": 7009,
      "push": 7010,
      "rant": 7011,
      "tint": 7012,
      "ule": 7013,
      "uine": 7014,
      "ugu": 7015,
      "wag": 7016,
      "wrought": 7017,
      "ani": 7018,
      "rene": 7019,
      "retain": 7020,
      "reshed": 7021,
      "retreat": 7022,
      "thir": 7023,
      "thres": 7024,
      "toil": 7025,
      "tories": 7026,
      "eral": 7027,
      "erness": 7028,
      "arise": 7029,
      "haw": 7030,
      "haired": 7031,
      "haunted": 7032,
      "meek": 7033,
      "nostri": 7034,
      "lemon": 7035,
      "league": 7036,
      "wives": 7037,
      "rob": 7038,
      "vember": 7039,
      "chose": 7040,
      "uten": 7041,
      "forwards": 7042,
      "sowed": 7043,
      "saving": 7044,
      "sages": 7045,
      "liking": 7046,
      "holy": 7047,
      "adri": 7048,
      "logy": 7049,
      "shell": 7050,
      "rim": 7051,
      "unconscious": 7052,
      "term": 7053,
      "aci": 7054,
      "accur": 7055,
      "reduced": 7056,
      "defined": 7057,
      "convul": 7058,
      "usions": 7059,
      "resul": 7060,
      "poe": 7061,
      "pop": 7062,
      "posure": 7063,
      "poison": 7064,
      "sullen": 7065,
      "exchange": 7066,
      "agony": 7067,
      "rak": 7068,
      "icious": 7069,
      "boiled": 7070,
      "worried": 7071,
      "plants": 7072,
      "plates": 7073,
      "blamed": 7074,
      "dish": 7075,
      "discour": 7076,
      "dispen": 7077,
      "dishonest": 7078,
      "dismissed": 7079,
      "moreover": 7080,
      "checked": 7081,
      "vings": 7082,
      "howling": 7083,
      "handful": 7084,
      "overwhel": 7085,
      "inkling": 7086,
      "rye": 7087,
      "viously": 7088,
      "glist": 7089,
      "spending": 7090,
      "repair": 7091,
      "justified": 7092,
      "pleasing": 7093,
      "ops": 7094,
      "clay": 7095,
      "classi": 7096,
      "backs": 7097,
      "shocked": 7098,
      "tells": 7099,
      "consisted": 7100,
      "bron": 7101,
      "horiz": 7102,
      "prey": 7103,
      "precious": 7104,
      "cream": 7105,
      "waved": 7106,
      "waves": 7107,
      "suppressed": 7108,
      "cording": 7109,
      "correspond": 7110,
      "Karenins": 7111,
      "flung": 7112,
      "treating": 7113,
      "shillings": 7114,
      "attributed": 7115,
      "umin": 7116,
      "umbered": 7117,
      "boating": 7118,
      "steep": 7119,
      "dense": 7120,
      "ffs": 7121,
      "finds": 7122,
      "bodies": 7123,
      "calmer": 7124,
      "scrup": 7125,
      "refreshed": 7126,
      "cutor": 7127,
      "necessarily": 7128,
      "Most": 7129,
      "conversing": 7130,
      "reasoning": 7131,
      "syll": 7132,
      "driver": 7133,
      "generosity": 7134,
      "empire": 7135,
      "misfortunes": 7136,
      "resolve": 7137,
      "resolutions": 7138,
      "cries": 7139,
      "stretching": 7140,
      "Remember": 7141,
      "cups": 7142,
      "engage": 7143,
      "starting": 7144,
      "fourteen": 7145,
      "immediate": 7146,
      "penny": 7147,
      "pretending": 7148,
      "prominent": 7149,
      "whistling": 7150,
      "dreaded": 7151,
      "ANNA": 7152,
      "frighted": 7153,
      "sixty": 7154,
      "springs": 7155,
      "grows": 7156,
      "Marlow": 7157,
      "mouths": 7158,
      "oppress": 7159,
      "grieve": 7160,
      "praying": 7161,
      "earthqu": 7162,
      "warn": 7163,
      "warned": 7164,
      "lumber": 7165,
      "numer": 7166,
      "panes": 7167,
      "characters": 7168,
      "labours": 7169,
      "ponder": 7170,
      "impressed": 7171,
      "completed": 7172,
      "bower": 7173,
      "profound": 7174,
      "bloody": 7175,
      "knelt": 7176,
      "enjoying": 7177,
      "peaceful": 7178,
      "varied": 7179,
      "objection": 7180,
      "irritation": 7181,
      "sleeve": 7182,
      "connections": 7183,
      "sternly": 7184,
      "safety": 7185,
      "university": 7186,
      "secretary": 7187,
      "demands": 7188,
      "OUR": 7189,
      "lanthro": 7190,
      "avoiding": 7191,
      "nineteen": 7192,
      "vereign": 7193,
      "uttering": 7194,
      "guarded": 7195,
      "warmth": 7196,
      "invitation": 7197,
      "reproached": 7198,
      "philanthro": 7199,
      "wounds": 7200,
      "dependent": 7201,
      "election": 7202,
      "Duke": 7203,
      "carts": 7204,
      "confession": 7205,
      "vivacity": 7206,
      "radiance": 7207,
      "artificial": 7208,
      "genuine": 7209,
      "breathe": 7210,
      "conquer": 7211,
      "bachel": 7212,
      "birch": 7213,
      "sharply": 7214,
      "complained": 7215,
      "mingled": 7216,
      "sports": 7217,
      "preserve": 7218,
      "danced": 7219,
      "000": 7220,
      "elderly": 7221,
      "intelligence": 7222,
      "indicated": 7223,
      "Uncle": 7224,
      "glowing": 7225,
      "Caesar": 7226,
      "blissful": 7227,
      "sculls": 7228,
      "elegance": 7229,
      "revived": 7230,
      "exceeding": 7231,
      "July": 7232,
      "rapture": 7233,
      "represent": 7234,
      "vocation": 7235,
      "obstacles": 7236,
      "logical": 7237,
      "snee": 7238,
      "tossed": 7239,
      "fortification": 7240,
      "snatched": 7241,
      "nodded": 7242,
      "detected": 7243,
      "temporary": 7244,
      "obedience": 7245,
      "enterprise": 7246,
      "gift": 7247,
      "vehicle": 7248,
      "restored": 7249,
      "Henry": 7250,
      "limits": 7251,
      "impulse": 7252,
      "Portugu": 7253,
      "entreated": 7254,
      "quarrelled": 7255,
      "faculties": 7256,
      "instinctively": 7257,
      "Sunday": 7258,
      "quisite": 7259,
      "affliction": 7260,
      "According": 7261,
      "luggage": 7262,
      "Provincial": 7263,
      "billiard": 7264,
      "Lukich": 7265,
      "Michael": 7266,
      "Naples": 7267,
      "Smith": 7268,
      "piles": 7269,
      "medicine": 7270,
      "Thursday": 7271,
      "hinted": 7272,
      "orchard": 7273,
      "offensive": 7274,
      "Dinah": 7275,
      "Gentle": 7276,
      "_May_": 7277,
      "adrille": 7278,
      "Portuguese": 7279,
      "30": 7280,
      "AB": 7281,
      "Cru": 7282,
      "Dis": 7283,
      "ET": 7284,
      "Easter": 7285,
      "Jes": 7286,
      "LI": 7287,
      "Long": 7288,
      "Love": 7289,
      "Med": 7290,
      "Mity": 7291,
      "MORE": 7292,
      "Rep": 7293,
      "Sat": 7294,
      "Sit": 7295,
      "Sha": 7296,
      "Spe": 7297,
      "Sapp": 7298,
      "Swit": 7299,
      "VII": 7300,
      "Vork": 7301,
      "Walling": 7302,
      "_June": 7303,
      "ald": 7304,
      "apo": 7305,
      "ail": 7306,
      "aud": 7307,
      "awaiting": 7308,
      "bone": 7309,
      "bush": 7310,
      "based": 7311,
      "brace": 7312,
      "claimed": 7313,
      "dles": 7314,
      "etor": 7315,
      "echo": 7316,
      "fits": 7317,
      "fitting": 7318,
      "fidelity": 7319,
      "iam": 7320,
      "ko": 7321,
      "kal": 7322,
      "lake": 7323,
      "lane": 7324,
      "nour": 7325,
      "oats": 7326,
      "pence": 7327,
      "page": 7328,
      "praised": 7329,
      "ratt": 7330,
      "sna": 7331,
      "scor": 7332,
      "sending": 7333,
      "tary": 7334,
      "urious": 7335,
      "uyev": 7336,
      "vated": 7337,
      "wits": 7338,
      "yn": 7339,
      "—“": 7340,
      "hered": 7341,
      "inch": 7342,
      "indo": 7343,
      "income": 7344,
      "recess": 7345,
      "revol": 7346,
      "rebell": 7347,
      "removing": 7348,
      "refined": 7349,
      "retire": 7350,
      "rejected": 7351,
      "tot": 7352,
      "tober": 7353,
      "toys": 7354,
      "eded": 7355,
      "isins": 7356,
      "enes": 7357,
      "encies": 7358,
      "lley": 7359,
      "argue": 7360,
      "arrested": 7361,
      "haughty": 7362,
      "melted": 7363,
      "stain": 7364,
      "stalk": 7365,
      "stile": 7366,
      "behave": 7367,
      "lding": 7368,
      "roman": 7369,
      "notwithstanding": 7370,
      "alight": 7371,
      "altern": 7372,
      "fork": 7373,
      "sowing": 7374,
      "sovereign": 7375,
      "weep": 7376,
      "hog": 7377,
      "mystic": 7378,
      "fet": 7379,
      "female": 7380,
      "undoubted": 7381,
      "nearest": 7382,
      "button": 7383,
      "acquire": 7384,
      "consu": 7385,
      "confirm": 7386,
      "hats": 7387,
      "amount": 7388,
      "amped": 7389,
      "quit": 7390,
      "fox": 7391,
      "indis": 7392,
      "rake": 7393,
      "raisins": 7394,
      "iless": 7395,
      "boast": 7396,
      "thereabouts": 7397,
      "fav": 7398,
      "trade": 7399,
      "track": 7400,
      "blank": 7401,
      "ousness": 7402,
      "dissol": 7403,
      "dismay": 7404,
      "disorder": 7405,
      "readiness": 7406,
      "stories": 7407,
      "gipsy": 7408,
      "offence": 7409,
      "mademoiselle": 7410,
      "mustard": 7411,
      "November": 7412,
      "mbrance": 7413,
      "series": 7414,
      "gale": 7415,
      "spell": 7416,
      "spective": 7417,
      "backwards": 7418,
      "obsc": 7419,
      "obvious": 7420,
      "Dodo": 7421,
      "merit": 7422,
      "brings": 7423,
      "pregn": 7424,
      "preced": 7425,
      "hence": 7426,
      "pression": 7427,
      "monovna": 7428,
      "steal": 7429,
      "kindled": 7430,
      "surface": 7431,
      "hush": 7432,
      "final": 7433,
      "chains": 7434,
      "chalk": 7435,
      "riders": 7436,
      "subordin": 7437,
      "husbands": 7438,
      "sciss": 7439,
      "indefinite": 7440,
      "visited": 7441,
      "visiting": 7442,
      "ovanni": 7443,
      "speaker": 7444,
      "awed": 7445,
      "maz": 7446,
      "recovery": 7447,
      "presents": 7448,
      "bestowed": 7449,
      "confron": 7450,
      "drift": 7451,
      "considerations": 7452,
      "arranging": 7453,
      "Read": 7454,
      "personally": 7455,
      "Forgive": 7456,
      "enger": 7457,
      "humb": 7458,
      "State": 7459,
      "circles": 7460,
      "wilderness": 7461,
      "pensive": 7462,
      "latest": 7463,
      "Second": 7464,
      "dropping": 7465,
      "rains": 7466,
      "fret": 7467,
      "kisses": 7468,
      "dreamed": 7469,
      "destit": 7470,
      "freshness": 7471,
      "musing": 7472,
      "explaining": 7473,
      "thousands": 7474,
      "embers": 7475,
      "embrace": 7476,
      "sweetest": 7477,
      "tremble": 7478,
      "pondered": 7479,
      "murdered": 7480,
      "Whom": 7481,
      "animity": 7482,
      "ornament": 7483,
      "legitim": 7484,
      "sequently": 7485,
      "concert": 7486,
      "sickly": 7487,
      "fixedly": 7488,
      "profitable": 7489,
      "recognised": 7490,
      "provide": 7491,
      "liberal": 7492,
      "probable": 7493,
      "belongs": 7494,
      "basin": 7495,
      "bags": 7496,
      "ALL": 7497,
      "Although": 7498,
      "scream": 7499,
      "mountain": 7500,
      "negative": 7501,
      "element": 7502,
      "oysters": 7503,
      "hurrying": 7504,
      "Dec": 7505,
      "persuas": 7506,
      "nobleman": 7507,
      "miracle": 7508,
      "travelling": 7509,
      "devotion": 7510,
      "vigour": 7511,
      "bridle": 7512,
      "regretted": 7513,
      "declined": 7514,
      "gestures": 7515,
      "XVIII": 7516,
      "message": 7517,
      "ribute": 7518,
      "wickedness": 7519,
      "impatiently": 7520,
      "picturesque": 7521,
      "cousins": 7522,
      "merciful": 7523,
      "insulted": 7524,
      "Carter": 7525,
      "politeness": 7526,
      "lodging": 7527,
      "inevitable": 7528,
      "Among": 7529,
      "materials": 7530,
      "January": 7531,
      "knit": 7532,
      "attempts": 7533,
      "amazement": 7534,
      "referred": 7535,
      "constantly": 7536,
      "shudder": 7537,
      "appreciate": 7538,
      "improvements": 7539,
      "philosophy": 7540,
      "swimming": 7541,
      "packing": 7542,
      "galloping": 7543,
      "throne": 7544,
      "Councillor": 7545,
      "Korney": 7546,
      "Grand": 7547,
      "bullets": 7548,
      "messenger": 7549,
      "valued": 7550,
      "Monday": 7551,
      "title": 7552,
      "Meanwhile": 7553,
      "reserve": 7554,
      "Commander": 7555,
      "Moreover": 7556,
      "embroid": 7557,
      "Soup": 7558,
      "propriety": 7559,
      "ecstatic": 7560,
      "Charles": 7561,
      "Giovanni": 7562,
      "excessive": 7563,
      "perspiring": 7564,
      "issue": 7565,
      "AFTER": 7566,
      "coughing": 7567,
      "brandy": 7568,
      "politely": 7569,
      "tendency": 7570,
      "ambitious": 7571,
      "Turovtsyn": 7572,
      "adventures": 7573,
      "application": 7574,
      "Florent": 7575,
      "Merkal": 7576,
      "annoyance": 7577,
      "perplexity": 7578,
      "bewildered": 7579,
      "holiday": 7580,
      "extinguished": 7581,
      "Romagna": 7582,
      "cavalry": 7583,
      "threshing": 7584,
      "Filimonovna": 7585,
      "mantelpiece": 7586,
      "discipl": 7587,
      "venomous": 7588,
      "merchants": 7589,
      "subdued": 7590,
      "October": 7591,
      "Scotch": 7592,
      "ocean": 7593,
      "threshold": 7594,
      "poetic": 7595,
      "earthquake": 7596,
      "Jesus": 7597,
      "Sappho": 7598,
      "Switz": 7599,
      "Vorkuyev": 7600,
      "Wallingford": 7601,
      "_June_": 7602,
      "Merkalova": 7603,
      "\"'": 7604,
      "';": 7605,
      "Ask": 7606,
      "Aunt": 7607,
      "BO": 7608,
      "Bol": 7609,
      "CY": 7610,
      "Could": 7611,
      "Cons": 7612,
      "COM": 7613,
      "Ere": 7614,
      "Gree": 7615,
      "Hal": 7616,
      "Happ": 7617,
      "Krak": 7618,
      "LO": 7619,
      "Lin": 7620,
      "Lloy": 7621,
      "Mess": 7622,
      "MAR": 7623,
      "Ox": 7624,
      "Pow": 7625,
      "Pil": 7626,
      "Part": 7627,
      "RO": 7628,
      "SH": 7629,
      "Sly": 7630,
      "Sep": 7631,
      "Streat": 7632,
      "Spir": 7633,
      "Tow": 7634,
      "Tart": 7635,
      "Time": 7636,
      "XI": 7637,
      "XII": 7638,
      "Youn": 7639,
      "bard": 7640,
      "bite": 7641,
      "cab": 7642,
      "cence": 7643,
      "dit": 7644,
      "dly": 7645,
      "ejac": 7646,
      "fting": 7647,
      "gas": 7648,
      "gla": 7649,
      "gru": 7650,
      "iable": 7651,
      "jok": 7652,
      "lined": 7653,
      "mpered": 7654,
      "ns": 7655,
      "otic": 7656,
      "oath": 7657,
      "pent": 7658,
      "pang": 7659,
      "punt": 7660,
      "piled": 7661,
      "swo": 7662,
      "scient": 7663,
      "sinking": 7664,
      "usage": 7665,
      "vine": 7666,
      "wakened": 7667,
      "xim": 7668,
      "yat": 7669,
      "heel": 7670,
      "infect": 7671,
      "injustice": 7672,
      "ret": 7673,
      "rend": 7674,
      "recur": 7675,
      "ouch": 7676,
      "oughed": 7677,
      "thirst": 7678,
      "onic": 7679,
      "ators": 7680,
      "tore": 7681,
      "eddy": 7682,
      "ascertain": 7683,
      "aspen": 7684,
      "isk": 7685,
      "lev": 7686,
      "serene": 7687,
      "stat": 7688,
      "stress": 7689,
      "roared": 7690,
      "veget": 7691,
      "velled": 7692,
      "china": 7693,
      "choked": 7694,
      "chuck": 7695,
      "alarmed": 7696,
      "forgave": 7697,
      "sombre": 7698,
      "sobbing": 7699,
      "wept": 7700,
      "samo": 7701,
      "sailed": 7702,
      "liqu": 7703,
      "liken": 7704,
      "administr": 7705,
      "alled": 7706,
      "local": 7707,
      "loos": 7708,
      "core": 7709,
      "unseen": 7710,
      "unusually": 7711,
      "outer": 7712,
      "abor": 7713,
      "urka": 7714,
      "acute": 7715,
      "kered": 7716,
      "depression": 7717,
      "tibly": 7718,
      "constru": 7719,
      "converse": 7720,
      "confined": 7721,
      "containing": 7722,
      "goose": 7723,
      "residence": 7724,
      "qual": 7725,
      "exal": 7726,
      "agin": 7727,
      "ulation": 7728,
      "ulating": 7729,
      "rails": 7730,
      "rouble": 7731,
      "bog": 7732,
      "bother": 7733,
      "ploughed": 7734,
      "estr": 7735,
      "esty": 7736,
      "illusion": 7737,
      "diddle": 7738,
      "traced": 7739,
      "traces": 7740,
      "dissatisfaction": 7741,
      "discontented": 7742,
      "dissip": 7743,
      "idered": 7744,
      "check": 7745,
      "cheap": 7746,
      "chemist": 7747,
      "newsp": 7748,
      "proves": 7749,
      "stole": 7750,
      "renched": 7751,
      "image": 7752,
      "vied": 7753,
      "strings": 7754,
      "longing": 7755,
      "spared": 7756,
      "wherever": 7757,
      "pleases": 7758,
      "opposition": 7759,
      "desir": 7760,
      "vened": 7761,
      "veness": 7762,
      "clinging": 7763,
      "hereafter": 7764,
      "vesti": 7765,
      "compare": 7766,
      "pavi": 7767,
      "pausing": 7768,
      "actress": 7769,
      "counting": 7770,
      "pier": 7771,
      "Instead": 7772,
      "passes": 7773,
      "Oblonskys": 7774,
      "crept": 7775,
      "cretary": 7776,
      "housemaid": 7777,
      "pressure": 7778,
      "risk": 7779,
      "momentarily": 7780,
      "matic": 7781,
      "fling": 7782,
      "Pray": 7783,
      "umes": 7784,
      "solid": 7785,
      "steer": 7786,
      "parson": 7787,
      "hearty": 7788,
      "native": 7789,
      "currents": 7790,
      "surgeon": 7791,
      "spoon": 7792,
      "chaise": 7793,
      "wont": 7794,
      "subs": 7795,
      "expressions": 7796,
      "sensit": 7797,
      "scented": 7798,
      "scenes": 7799,
      "interlo": 7800,
      "remembrance": 7801,
      "dreamy": 7802,
      "relish": 7803,
      "prize": 7804,
      "privile": 7805,
      "incessantly": 7806,
      "necessaries": 7807,
      "tempest": 7808,
      "awfully": 7809,
      "fathers": 7810,
      "duel": 7811,
      "conflict": 7812,
      "ignant": 7813,
      "region": 7814,
      "needle": 7815,
      "clearness": 7816,
      "trifles": 7817,
      "casement": 7818,
      "considerably": 7819,
      "bargain": 7820,
      "crib": 7821,
      "purch": 7822,
      "remainder": 7823,
      "footmen": 7824,
      "footsteps": 7825,
      "factions": 7826,
      "personage": 7827,
      "fasten": 7828,
      "beautifully": 7829,
      "portfoli": 7830,
      "THEY": 7831,
      "roads": 7832,
      "shortly": 7833,
      "nib": 7834,
      "aux": 7835,
      "Secretary": 7836,
      "Being": 7837,
      "seconds": 7838,
      "People": 7839,
      "centuries": 7840,
      "respecting": 7841,
      "RET": 7842,
      "Varens": 7843,
      "sprung": 7844,
      "harbour": 7845,
      "blos": 7846,
      "bloom": 7847,
      "governed": 7848,
      "smoked": 7849,
      "dealt": 7850,
      "breadth": 7851,
      "muscles": 7852,
      "muslin": 7853,
      "crum": 7854,
      "regarding": 7855,
      "replying": 7856,
      "obligation": 7857,
      "sickness": 7858,
      "profits": 7859,
      "seats": 7860,
      "tenderly": 7861,
      "madness": 7862,
      "horrors": 7863,
      "Madam": 7864,
      "lender": 7865,
      "spectacles": 7866,
      "rustling": 7867,
      "recollecting": 7868,
      "William": 7869,
      "baskets": 7870,
      "bourne": 7871,
      "culti": 7872,
      "blown": 7873,
      "storms": 7874,
      "affectionate": 7875,
      "warmly": 7876,
      "emaci": 7877,
      "dimin": 7878,
      "suggestion": 7879,
      "folds": 7880,
      "folding": 7881,
      "supporting": 7882,
      "elected": 7883,
      "instruments": 7884,
      "instructions": 7885,
      "turtle": 7886,
      "youthful": 7887,
      "explanations": 7888,
      "Order": 7889,
      "distressed": 7890,
      "glee": 7891,
      "whispers": 7892,
      "whispering": 7893,
      "furnish": 7894,
      "knives": 7895,
      "boldness": 7896,
      "palace": 7897,
      "XVI": 7898,
      "XVII": 7899,
      "harmony": 7900,
      "Majest": 7901,
      "explo": 7902,
      "expanded": 7903,
      "impatience": 7904,
      "greeting": 7905,
      "politics": 7906,
      "protect": 7907,
      "snare": 7908,
      "inhabitants": 7909,
      "convenience": 7910,
      "prospects": 7911,
      "picking": 7912,
      "swallow": 7913,
      "proceedings": 7914,
      "chorus": 7915,
      "chimed": 7916,
      "prompted": 7917,
      "witnessed": 7918,
      "deprive": 7919,
      "attendant": 7920,
      "throng": 7921,
      "entreaty": 7922,
      "trunks": 7923,
      "OLD": 7924,
      "noisy": 7925,
      "represented": 7926,
      "conveyed": 7927,
      "refreshment": 7928,
      "pulse": 7929,
      "swaths": 7930,
      "behaviour": 7931,
      "Guinea": 7932,
      "Louis": 7933,
      "lustre": 7934,
      "condemned": 7935,
      "vengeance": 7936,
      "strictly": 7937,
      "draught": 7938,
      "rejoiced": 7939,
      "cautiously": 7940,
      "embroidered": 7941,
      "intellectual": 7942,
      "encouragement": 7943,
      "proprietor": 7944,
      "avail": 7945,
      "IGHT": 7946,
      "borne": 7947,
      "Several": 7948,
      "ascending": 7949,
      "abruptly": 7950,
      "republic": 7951,
      "released": 7952,
      "blanket": 7953,
      "partially": 7954,
      "recommend": 7955,
      "degrading": 7956,
      "trimmed": 7957,
      "enthusiasm": 7958,
      "provincial": 7959,
      "commission": 7960,
      "walt": 7961,
      "Strange": 7962,
      "convention": 7963,
      "discretion": 7964,
      "finiteness": 7965,
      "superintendent": 7966,
      "December": 7967,
      "Above": 7968,
      "America": 7969,
      "Scripture": 7970,
      "nostrils": 7971,
      "bachelor": 7972,
      "scissors": 7973,
      "mazurka": 7974,
      "Florentines": 7975,
      "Greece": 7976,
      "Half": 7977,
      "Lloyd": 7978,
      "Oxford": 7979,
      "Slyudin": 7980,
      "Streatley": 7981,
      "Tartar": 7982,
      "Young": 7983,
      "samovar": 7984,
      "likeness": 7985,
      "loosened": 7986,
      "newspaper": 7987,
      "Majesty": 7988,
      "\"--": 7989,
      "18": 7990,
      "25": 7991,
      "Big": 7992,
      "Brit": 7993,
      "Ces": 7994,
      "DE": 7995,
      "DER": 7996,
      "EX": 7997,
      "Er": 7998,
      "Ear": 7999,
      "Each": 8000,
      "Egor": 8001,
      "FIR": 8002,
      "Get": 8003,
      "Ham": 8004,
      "Hold": 8005,
      "Hush": 8006,
      "HOW": 8007,
      "IC": 8008,
      "IM": 8009,
      "Ir": 8010,
      "Jack": 8011,
      "Lat": 8012,
      "Last": 8013,
      "LONSKY": 8014,
      "Man": 8015,
      "Men": 8016,
      "MAN": 8017,
      "NCY": 8018,
      "Pod": 8019,
      "Pok": 8020,
      "Sall": 8021,
      "Say": 8022,
      "Sil": 8023,
      "Tru": 8024,
      "Tues": 8025,
      "TMORE": 8026,
      "Ven": 8027,
      "XIII": 8028,
      "XIV": 8029,
      "XIX": 8030,
      "awe": 8031,
      "ahead": 8032,
      "aught": 8033,
      "aversion": 8034,
      "bay": 8035,
      "bul": 8036,
      "bud": 8037,
      "bars": 8038,
      "cision": 8039,
      "dir": 8040,
      "dened": 8041,
      "dled": 8042,
      "dling": 8043,
      "daring": 8044,
      "faded": 8045,
      "icon": 8046,
      "itor": 8047,
      "ium": 8048,
      "iency": 8049,
      "jars": 8050,
      "kick": 8051,
      "lent": 8052,
      "lam": 8053,
      "lated": 8054,
      "mult": 8055,
      "maman": 8056,
      "nes": 8057,
      "nations": 8058,
      "ore": 8059,
      "pump": 8060,
      "rat": 8061,
      "rash": 8062,
      "rasp": 8063,
      "ske": 8064,
      "slate": 8065,
      "uv": 8066,
      "uated": 8067,
      "xter": 8068,
      "heir": 8069,
      "inspe": 8070,
      "anter": 8071,
      "ante": 8072,
      "analy": 8073,
      "rew": 8074,
      "rever": 8075,
      "rela": 8076,
      "recei": 8077,
      "recent": 8078,
      "reference": 8079,
      "restraint": 8080,
      "atory": 8081,
      "toe": 8082,
      "eds": 8083,
      "eding": 8084,
      "istry": 8085,
      "ingen": 8086,
      "enam": 8087,
      "encing": 8088,
      "oring": 8089,
      "nook": 8090,
      "seize": 8091,
      "sealed": 8092,
      "sewing": 8093,
      "sting": 8094,
      "stur": 8095,
      "befallen": 8096,
      "idance": 8097,
      "wasting": 8098,
      "roast": 8099,
      "verily": 8100,
      "alo": 8101,
      "alas": 8102,
      "forsa": 8103,
      "soe": 8104,
      "limb": 8105,
      "hoof": 8106,
      "holes": 8107,
      "ira": 8108,
      "irregular": 8109,
      "loshes": 8110,
      "shels": 8111,
      "ripe": 8112,
      "coo": 8113,
      "coal": 8114,
      "coinc": 8115,
      "uncertain": 8116,
      "unnoticed": 8117,
      "unwilling": 8118,
      "abled": 8119,
      "abode": 8120,
      "urous": 8121,
      "acher": 8122,
      "access": 8123,
      "mocks": 8124,
      "pel": 8125,
      "peep": 8126,
      "pets": 8127,
      "dee": 8128,
      "deferred": 8129,
      "dexter": 8130,
      "goloshes": 8131,
      "nowadays": 8132,
      "resign": 8133,
      "doll": 8134,
      "doct": 8135,
      "docu": 8136,
      "evol": 8137,
      "evoked": 8138,
      "tech": 8139,
      "tember": 8140,
      "tempered": 8141,
      "okina": 8142,
      "manly": 8143,
      "iff": 8144,
      "expost": 8145,
      "cared": 8146,
      "sies": 8147,
      "fog": 8148,
      "icked": 8149,
      "ski": 8150,
      "boil": 8151,
      "boot": 8152,
      "peril": 8153,
      "pertur": 8154,
      "fath": 8155,
      "blest": 8156,
      "displeasure": 8157,
      "disease": 8158,
      "ckle": 8159,
      "...\"": 8160,
      "nave": 8161,
      "thoughtfully": 8162,
      "Its": 8163,
      "elabor": 8164,
      "comment": 8165,
      "composure": 8166,
      "assuring": 8167,
      "stove": 8168,
      "imble": 8169,
      "gia": 8170,
      "glances": 8171,
      "orting": 8172,
      "volley": 8173,
      "wardrobe": 8174,
      "pleasanter": 8175,
      "Notic": 8176,
      "Nobody": 8177,
      "desyat": 8178,
      "headache": 8179,
      "species": 8180,
      "clou": 8181,
      "clasped": 8182,
      "rugs": 8183,
      "puts": 8184,
      "broth": 8185,
      "brood": 8186,
      "obviously": 8187,
      "partners": 8188,
      "impart": 8189,
      "crew": 8190,
      "joc": 8191,
      "settling": 8192,
      "applied": 8193,
      "fortresses": 8194,
      "flush": 8195,
      "flaming": 8196,
      "shift": 8197,
      "guidance": 8198,
      "diff": 8199,
      "stee": 8200,
      "steak": 8201,
      "ization": 8202,
      "chambers": 8203,
      "calf": 8204,
      "submis": 8205,
      "scand": 8206,
      "otman": 8207,
      "cumb": 8208,
      "forming": 8209,
      "THING": 8210,
      "THERE": 8211,
      "vanity": 8212,
      "recovering": 8213,
      "dumb": 8214,
      "venturing": 8215,
      "suffused": 8216,
      "regained": 8217,
      "colder": 8218,
      "sunset": 8219,
      "bushels": 8220,
      "trifle": 8221,
      "licit": 8222,
      "emperor": 8223,
      "berry": 8224,
      "graph": 8225,
      "purse": 8226,
      "trait": 8227,
      "fearing": 8228,
      "facts": 8229,
      "signal": 8230,
      "signify": 8231,
      "hushed": 8232,
      "framed": 8233,
      "rovsk": 8234,
      "sorrows": 8235,
      "towing": 8236,
      "fortunately": 8237,
      "consciously": 8238,
      "latitude": 8239,
      "whistle": 8240,
      "secondly": 8241,
      "brighter": 8242,
      "brightly": 8243,
      "century": 8244,
      "Frenchman": 8245,
      "harass": 8246,
      "returns": 8247,
      "Gospe": 8248,
      "doctors": 8249,
      "growth": 8250,
      "floated": 8251,
      "crossly": 8252,
      "delicious": 8253,
      "exists": 8254,
      "topic": 8255,
      "hummocks": 8256,
      "crag": 8257,
      "stripped": 8258,
      "affections": 8259,
      "temptation": 8260,
      "admiring": 8261,
      "faithfully": 8262,
      "ornaments": 8263,
      "legal": 8264,
      "corners": 8265,
      "secrets": 8266,
      "conclude": 8267,
      "conclusions": 8268,
      "interrupting": 8269,
      "swing": 8270,
      "Should": 8271,
      "favourable": 8272,
      "madam": 8273,
      "vari": 8274,
      "leness": 8275,
      "maids": 8276,
      "slipp": 8277,
      "slightest": 8278,
      "educational": 8279,
      "sailor": 8280,
      "bborn": 8281,
      "planting": 8282,
      "utterly": 8283,
      "domestic": 8284,
      "ALIT": 8285,
      "Alb": 8286,
      "invite": 8287,
      "massive": 8288,
      "yielding": 8289,
      "intimacy": 8290,
      "bench": 8291,
      "apartments": 8292,
      "customs": 8293,
      "ITT": 8294,
      "Lowton": 8295,
      "tutor": 8296,
      "infidelity": 8297,
      "distressing": 8298,
      "significance": 8299,
      "articles": 8300,
      "management": 8301,
      "shirts": 8302,
      "balance": 8303,
      "cooking": 8304,
      "conqueror": 8305,
      "argument": 8306,
      "determination": 8307,
      "ridicule": 8308,
      "decline": 8309,
      "uniforms": 8310,
      "WHICH": 8311,
      "national": 8312,
      "twisted": 8313,
      "intentionally": 8314,
      "prisoner": 8315,
      "communication": 8316,
      "desert": 8317,
      "flattered": 8318,
      "delicacy": 8319,
      "Brazil": 8320,
      "testim": 8321,
      "deeds": 8322,
      "apprehension": 8323,
      "insulting": 8324,
      "scape": 8325,
      "establish": 8326,
      "OWN": 8327,
      "Pigeon": 8328,
      "rapidity": 8329,
      "invention": 8330,
      "agricultural": 8331,
      "bustle": 8332,
      "searched": 8333,
      "ruddy": 8334,
      "breeches": 8335,
      "philosop": 8336,
      "philosophi": 8337,
      "bearded": 8338,
      "hints": 8339,
      "tumult": 8340,
      "reckoning": 8341,
      "sown": 8342,
      "elbows": 8343,
      "Anyhow": 8344,
      "singularly": 8345,
      "OVER": 8346,
      "vulgar": 8347,
      "perplexed": 8348,
      "Robert": 8349,
      "harnessed": 8350,
      "seventy": 8351,
      "Probably": 8352,
      "horrible": 8353,
      "shyness": 8354,
      "imaginable": 8355,
      "imaginary": 8356,
      "institutions": 8357,
      "revoir": 8358,
      "comparison": 8359,
      "perspiration": 8360,
      "reluctantly": 8361,
      "durst": 8362,
      "swaying": 8363,
      "hauled": 8364,
      "sustained": 8365,
      "positively": 8366,
      "miseries": 8367,
      "Presently": 8368,
      "dominions": 8369,
      "prudence": 8370,
      "Footman": 8371,
      "Six": 8372,
      "Supposing": 8373,
      "smoothed": 8374,
      "scholars": 8375,
      "Impossible": 8376,
      "Madeira": 8377,
      "Sorokina": 8378,
      "weapon": 8379,
      "constitution": 8380,
      "flourishing": 8381,
      "scheme": 8382,
      "MONTMORE": 8383,
      "OBLONSKY": 8384,
      "permanent": 8385,
      "izvoshchik": 8386,
      "_Nov": 8387,
      "pacify": 8388,
      "Nataly": 8389,
      "WITH": 8390,
      "critic": 8391,
      "concentrated": 8392,
      "hallooed": 8393,
      "opponent": 8394,
      "horizon": 8395,
      "Accordingly": 8396,
      "Crusoe": 8397,
      "Mitya": 8398,
      "confronted": 8399,
      "destitute": 8400,
      "Linon": 8401,
      "Power": 8402,
      "Pilate": 8403,
      "September": 8404,
      "Spirit": 8405,
      "exalted": 8406,
      "portfolio": 8407,
      "Biggs": 8408,
      "FIRST": 8409,
      "Podger": 8410,
      "Pokrovsk": 8411,
      "Sallee": 8412,
      "doctr": 8413,
      "Noticing": 8414,
      "MONTMORENCY": 8415,
      "15": 8416,
      "AP": 8417,
      "AV": 8418,
      "Amy": 8419,
      "Bry": 8420,
      "Cont": 8421,
      "DO": 8422,
      "Fran": 8423,
      "FORE": 8424,
      "Hence": 8425,
      "Il": 8426,
      "Jew": 8427,
      "Kritsky": 8428,
      "Lom": 8429,
      "MOR": 8430,
      "Maid": 8431,
      "Maker": 8432,
      "Pier": 8433,
      "Pardon": 8434,
      "RI": 8435,
      "Rich": 8436,
      "SO": 8437,
      "SU": 8438,
      "Sto": 8439,
      "Stop": 8440,
      "Till": 8441,
      "Vite": 8442,
      "War": 8443,
      "West": 8444,
      "WAY": 8445,
      "Wonder": 8446,
      "aur": 8447,
      "awhile": 8448,
      "awaited": 8449,
      "bast": 8450,
      "bble": 8451,
      "bass": 8452,
      "bum": 8453,
      "base": 8454,
      "cade": 8455,
      "dun": 8456,
      "dashing": 8457,
      "ees": 8458,
      "eloqu": 8459,
      "fry": 8460,
      "frocks": 8461,
      "gence": 8462,
      "ib": 8463,
      "iate": 8464,
      "ilies": 8465,
      "mused": 8466,
      "nast": 8467,
      "oar": 8468,
      "owe": 8469,
      "osing": 8470,
      "pall": 8471,
      "ral": 8472,
      "rats": 8473,
      "slender": 8474,
      "tread": 8475,
      "tact": 8476,
      "tapp": 8477,
      "twit": 8478,
      "ua": 8479,
      "ux": 8480,
      "vices": 8481,
      "wri": 8482,
      "zy": 8483,
      "inha": 8484,
      "inher": 8485,
      "intr": 8486,
      "infat": 8487,
      "investi": 8488,
      "aning": 8489,
      "reign": 8490,
      "reverse": 8491,
      "reception": 8492,
      "toast": 8493,
      "toise": 8494,
      "toms": 8495,
      "assigned": 8496,
      "isition": 8497,
      "enlight": 8498,
      "orange": 8499,
      "estim": 8500,
      "estern": 8501,
      "hable": 8502,
      "nomen": 8503,
      "stall": 8504,
      "stable": 8505,
      "stated": 8506,
      "stamp": 8507,
      "stained": 8508,
      "beach": 8509,
      "beheld": 8510,
      "ider": 8511,
      "wiping": 8512,
      "wicket": 8513,
      "chast": 8514,
      "utch": 8515,
      "entrust": 8516,
      "entangle": 8517,
      "sob": 8518,
      "weeping": 8519,
      "hob": 8520,
      "hom": 8521,
      "advoc": 8522,
      "loaves": 8523,
      "fere": 8524,
      "feather": 8525,
      "feigned": 8526,
      "comed": 8527,
      "coward": 8528,
      "unarmed": 8529,
      "outline": 8530,
      "acid": 8531,
      "actor": 8532,
      "moors": 8533,
      "peering": 8534,
      "rede": 8535,
      "deck": 8536,
      "depressed": 8537,
      "geons": 8538,
      "tipsy": 8539,
      "conspir": 8540,
      "conceived": 8541,
      "conception": 8542,
      "gos": 8543,
      "uss": 8544,
      "usive": 8545,
      "amond": 8546,
      "polished": 8547,
      "doom": 8548,
      "quer": 8549,
      "quive": 8550,
      "quadrille": 8551,
      "evich": 8552,
      "manure": 8553,
      "expi": 8554,
      "exclam": 8555,
      "exquisite": 8556,
      "ardour": 8557,
      "wholes": 8558,
      "ulations": 8559,
      "sia": 8560,
      "sibility": 8561,
      "induced": 8562,
      "icuous": 8563,
      "skins": 8564,
      ".'\"": 8565,
      "placid": 8566,
      "persed": 8567,
      "failing": 8568,
      "ille": 8569,
      "illing": 8570,
      "blast": 8571,
      "blunder": 8572,
      "willow": 8573,
      "disown": 8574,
      "distr": 8575,
      "anyhow": 8576,
      "meddle": 8577,
      "thoughtless": 8578,
      "Levins": 8579,
      "howl": 8580,
      "handle": 8581,
      "overboard": 8582,
      "provision": 8583,
      "isting": 8584,
      "gigan": 8585,
      "undertaken": 8586,
      "vibr": 8587,
      "strang": 8588,
      "glided": 8589,
      "everyone": 8590,
      "divert": 8591,
      "digging": 8592,
      "diamond": 8593,
      "spade": 8594,
      "shaken": 8595,
      "earlier": 8596,
      "replies": 8597,
      "api": 8598,
      "aping": 8599,
      "tedious": 8600,
      "gait": 8601,
      "leton": 8602,
      "sideways": 8603,
      "marshes": 8604,
      "cling": 8605,
      "ruins": 8606,
      "rubb": 8607,
      "happening": 8608,
      "backward": 8609,
      "morose": 8610,
      "morsel": 8611,
      "comprom": 8612,
      "actual": 8613,
      "lighting": 8614,
      "impas": 8615,
      "implo": 8616,
      "impending": 8617,
      "county": 8618,
      "brisk": 8619,
      "clearer": 8620,
      "landowners": 8621,
      "waits": 8622,
      "apport": 8623,
      "flushing": 8624,
      "shipped": 8625,
      "monot": 8626,
      "attending": 8627,
      "appeal": 8628,
      "stew": 8629,
      "throughout": 8630,
      "curing": 8631,
      "ffed": 8632,
      "winding": 8633,
      "hardships": 8634,
      "seness": 8635,
      "interpre": 8636,
      "intercourse": 8637,
      "interfere": 8638,
      "ferences": 8639,
      "relating": 8640,
      "relinqu": 8641,
      "mainland": 8642,
      "pained": 8643,
      "speaks": 8644,
      "questionable": 8645,
      "families": 8646,
      "girdle": 8647,
      "Moors": 8648,
      "considers": 8649,
      "tempted": 8650,
      "ceptions": 8651,
      "decis": 8652,
      "confident": 8653,
      "bushes": 8654,
      "tribut": 8655,
      "charity": 8656,
      "emption": 8657,
      "oftener": 8658,
      "berg": 8659,
      "gravel": 8660,
      "barge": 8661,
      "purity": 8662,
      "engine": 8663,
      "engross": 8664,
      "elsewhere": 8665,
      "repet": 8666,
      "startled": 8667,
      "nursing": 8668,
      "Afterwards": 8669,
      "penc": 8670,
      "latti": 8671,
      "dram": 8672,
      "rocking": 8673,
      "patted": 8674,
      "patched": 8675,
      "Frenchwoman": 8676,
      "horseback": 8677,
      "Think": 8678,
      "steadfast": 8679,
      "acquiring": 8680,
      "acquisition": 8681,
      "experiencing": 8682,
      "cherished": 8683,
      "govern": 8684,
      "judging": 8685,
      "destiny": 8686,
      "stubborn": 8687,
      "occupy": 8688,
      "Marsh": 8689,
      "oppressive": 8690,
      "severity": 8691,
      "shouts": 8692,
      "sweets": 8693,
      "softness": 8694,
      "grip": 8695,
      "existing": 8696,
      "sively": 8697,
      "Serb": 8698,
      "crust": 8699,
      "splashing": 8700,
      "studying": 8701,
      "wretch": 8702,
      "zeal": 8703,
      "petty": 8704,
      "ISH": 8705,
      "occasioned": 8706,
      "lineaments": 8707,
      "ARLY": 8708,
      "included": 8709,
      "gymn": 8710,
      "noticeable": 8711,
      "abyss": 8712,
      "provoking": 8713,
      "mutiny": 8714,
      "passionately": 8715,
      "honestly": 8716,
      "trustees": 8717,
      "variety": 8718,
      "divorced": 8719,
      "iliaries": 8720,
      "shutting": 8721,
      "STE": 8722,
      "Turks": 8723,
      "univers": 8724,
      "defended": 8725,
      "funeral": 8726,
      "marrying": 8727,
      "lantern": 8728,
      "twigs": 8729,
      "influenced": 8730,
      "snowy": 8731,
      "feature": 8732,
      "screwed": 8733,
      "intimated": 8734,
      "attraction": 8735,
      "terminated": 8736,
      "malady": 8737,
      "buildings": 8738,
      "wander": 8739,
      "incred": 8740,
      "aspir": 8741,
      "electric": 8742,
      "magaz": 8743,
      "instruct": 8744,
      "shadowy": 8745,
      "surrounding": 8746,
      "breathless": 8747,
      "seasons": 8748,
      "gravely": 8749,
      "Death": 8750,
      "Life": 8751,
      "washstand": 8752,
      "gleamed": 8753,
      "mirac": 8754,
      "arisen": 8755,
      "grandfather": 8756,
      "bitterness": 8757,
      "regularly": 8758,
      "inquiring": 8759,
      "inquiries": 8760,
      "inquiringly": 8761,
      "neighbours": 8762,
      "lerably": 8763,
      "slaves": 8764,
      "sticking": 8765,
      "argued": 8766,
      "sheltered": 8767,
      "terrors": 8768,
      "reminding": 8769,
      "palm": 8770,
      "ivy": 8771,
      "streets": 8772,
      "railways": 8773,
      "shrie": 8774,
      "shriek": 8775,
      "operation": 8776,
      "collecting": 8777,
      "discoveries": 8778,
      "tortured": 8779,
      "Himself": 8780,
      "dusty": 8781,
      "virtu": 8782,
      "indignantly": 8783,
      "executed": 8784,
      "scared": 8785,
      "rolls": 8786,
      "calculations": 8787,
      "failure": 8788,
      "scram": 8789,
      "weariness": 8790,
      "accidentally": 8791,
      "proceeding": 8792,
      "observations": 8793,
      "majesty": 8794,
      "Cape": 8795,
      "sculling": 8796,
      "anticipation": 8797,
      "axe": 8798,
      "kids": 8799,
      "rudder": 8800,
      "superiority": 8801,
      "Titular": 8802,
      "sheets": 8803,
      "Street": 8804,
      "proofs": 8805,
      "pillows": 8806,
      "ploughs": 8807,
      "tarn": 8808,
      "encouraging": 8809,
      "soothe": 8810,
      "amusement": 8811,
      "amusements": 8812,
      "combined": 8813,
      "vessels": 8814,
      "refreshing": 8815,
      "IDE": 8816,
      "phrases": 8817,
      "jerked": 8818,
      "attachment": 8819,
      "caresses": 8820,
      "preparation": 8821,
      "draper": 8822,
      "mowers": 8823,
      "reconcile": 8824,
      "piteous": 8825,
      "ecstasy": 8826,
      "encountered": 8827,
      "enterprises": 8828,
      "lunatic": 8829,
      "vehicles": 8830,
      "muffled": 8831,
      "executioner": 8832,
      "sanct": 8833,
      "indulged": 8834,
      "trampled": 8835,
      "Ministry": 8836,
      "idiot": 8837,
      "studies": 8838,
      "PRINCIP": 8839,
      "squee": 8840,
      "achieve": 8841,
      "errand": 8842,
      "consolation": 8843,
      "skirts": 8844,
      "mournful": 8845,
      "Corps": 8846,
      "conjecture": 8847,
      "overflowing": 8848,
      "dainty": 8849,
      "oeuv": 8850,
      "substance": 8851,
      "boughs": 8852,
      "recently": 8853,
      "ceaseless": 8854,
      "diverted": 8855,
      "pretext": 8856,
      "Julius": 8857,
      "scrutinizing": 8858,
      "fascinating": 8859,
      "diplo": 8860,
      "confinement": 8861,
      "cushion": 8862,
      "magistrate": 8863,
      "FROM": 8864,
      "RIVER": 8865,
      "conspicuous": 8866,
      "serfdom": 8867,
      "'-\"": 8868,
      "Department": 8869,
      "Voz": 8870,
      "overwhelmed": 8871,
      "glistening": 8872,
      "bronze": 8873,
      "Satur": 8874,
      "kope": 8875,
      "favoured": 8876,
      "legitimate": 8877,
      "Switzers": 8878,
      "bardy": 8879,
      "scientific": 8880,
      "pavilion": 8881,
      "piercing": 8882,
      "sensitive": 8883,
      "RETUR": 8884,
      "British": 8885,
      "Irish": 8886,
      "Tuesday": 8887,
      "fathom": 8888,
      "clouded": 8889,
      "Lombardy": 8890,
      "frying": 8891,
      "quivered": 8892,
      "wholesome": 8893,
      "gigantic": 8894,
      "rubbish": 8895,
      "PRINCIPALIT": 8896,
      "!)": 8897,
      "4th": 8898,
      "Bos": 8899,
      "Cyr": 8900,
      "DI": 8901,
      "Day": 8902,
      "DIS": 8903,
      "Eh": 8904,
      "Ethe": 8905,
      "Far": 8906,
      "Fare": 8907,
      "Fancy": 8908,
      "GO": 8909,
      "Gard": 8910,
      "Goring": 8911,
      "Je": 8912,
      "Jo": 8913,
      "Kap": 8914,
      "Knave": 8915,
      "List": 8916,
      "Later": 8917,
      "OS": 8918,
      "Over": 8919,
      "Pat": 8920,
      "Put": 8921,
      "Sen": 8922,
      "Sfor": 8923,
      "Seven": 8924,
      "Syr": 8925,
      "TE": 8926,
      "Test": 8927,
      "Vir": 8928,
      "VER": 8929,
      "Wor": 8930,
      "Word": 8931,
      "WOR": 8932,
      "Whit": 8933,
      "Yarm": 8934,
      "_I": 8935,
      "ais": 8936,
      "border": 8937,
      "baked": 8938,
      "bunch": 8939,
      "cs": 8940,
      "ctern": 8941,
      "dil": 8942,
      "dashed": 8943,
      "dviz": 8944,
      "eli": 8945,
      "emin": 8946,
      "erer": 8947,
      "fid": 8948,
      "fenced": 8949,
      "foul": 8950,
      "gal": 8951,
      "gged": 8952,
      "hinde": 8953,
      "hanged": 8954,
      "io": 8955,
      "iac": 8956,
      "lred": 8957,
      "lag": 8958,
      "lend": 8959,
      "mally": 8960,
      "mute": 8961,
      "oars": 8962,
      "pane": 8963,
      "paces": 8964,
      "plot": 8965,
      "papa": 8966,
      "rout": 8967,
      "racing": 8968,
      "tse": 8969,
      "tart": 8970,
      "tune": 8971,
      "tresses": 8972,
      "umb": 8973,
      "vities": 8974,
      "xious": 8975,
      "yal": 8976,
      "inations": 8977,
      "inmates": 8978,
      "rear": 8979,
      "relic": 8980,
      "recommenced": 8981,
      "outh": 8982,
      "thi": 8983,
      "thic": 8984,
      "onich": 8985,
      "ata": 8986,
      "attire": 8987,
      "anding": 8988,
      "tofore": 8989,
      "tombs": 8990,
      "erors": 8991,
      "asho": 8992,
      "assum": 8993,
      "isit": 8994,
      "isoned": 8995,
      "enn": 8996,
      "enclosed": 8997,
      "envied": 8998,
      "itonich": 8999,
      "artic": 9000,
      "halted": 9001,
      "lectern": 9002,
      "stump": 9003,
      "wipe": 9004,
      "robes": 9005,
      "entangled": 9006,
      "withdraw": 9007,
      "album": 9008,
      "forbear": 9009,
      "sore": 9010,
      "weir": 9011,
      "sack": 9012,
      "liable": 9013,
      "limit": 9014,
      "homes": 9015,
      "adjust": 9016,
      "adventure": 9017,
      "allied": 9018,
      "irre": 9019,
      "irres": 9020,
      "rib": 9021,
      "rikov": 9022,
      "undone": 9023,
      "unaccoun": 9024,
      "unfolded": 9025,
      "unbeliever": 9026,
      "unconsciously": 9027,
      "outstretched": 9028,
      "abated": 9029,
      "neath": 9030,
      "tery": 9031,
      "terre": 9032,
      "motive": 9033,
      "redemption": 9034,
      "defi": 9035,
      "upwards": 9036,
      "tier": 9037,
      "tial": 9038,
      "tick": 9039,
      "essential": 9040,
      "domain": 9041,
      "odour": 9042,
      "quity": 9043,
      "evsky": 9044,
      "te_": 9045,
      "managing": 9046,
      "ources": 9047,
      "exacting": 9048,
      "lful": 9049,
      "antas": 9050,
      "ulously": 9051,
      "Hel": 9052,
      "shrug": 9053,
      "skating": 9054,
      "skates": 9055,
      "ilities": 9056,
      "worries": 9057,
      "akin": 9058,
      "plank": 9059,
      "plaid": 9060,
      "wolf": 9061,
      "traged": 9062,
      "disgu": 9063,
      "disaster": 9064,
      "disregard": 9065,
      "distemper": 9066,
      "disgraceful": 9067,
      "discharged": 9068,
      "distracted": 9069,
      "affor": 9070,
      "afresh": 9071,
      "affirmed": 9072,
      "foreseen": 9073,
      "cheered": 9074,
      "vingly": 9075,
      "eled": 9076,
      "handing": 9077,
      "omit": 9078,
      "civi": 9079,
      "shouldered": 9080,
      "ishly": 9081,
      "asser": 9082,
      "assurance": 9083,
      "prodi": 9084,
      "prophe": 9085,
      "stores": 9086,
      "renounce": 9087,
      "imposing": 9088,
      "impossibility": 9089,
      "hedges": 9090,
      "gled": 9091,
      "firing": 9092,
      "dili": 9093,
      "divers": 9094,
      "diame": 9095,
      "sparing": 9096,
      "offers": 9097,
      "pton": 9098,
      "eyel": 9099,
      "chilly": 9100,
      "opium": 9101,
      "hypo": 9102,
      "desiring": 9103,
      "typ": 9104,
      "tying": 9105,
      "tyard": 9106,
      "serving": 9107,
      "gaiety": 9108,
      "clad": 9109,
      "clust": 9110,
      "heretofore": 9111,
      "betro": 9112,
      "shovel": 9113,
      "paths": 9114,
      "effaced": 9115,
      "effemin": 9116,
      "countries": 9117,
      "nerve": 9118,
      "prel": 9119,
      "premat": 9120,
      "landscape": 9121,
      "childlike": 9122,
      "workman": 9123,
      "courtyard": 9124,
      "corrup": 9125,
      "flatter": 9126,
      "treacher": 9127,
      "shilling": 9128,
      "guards": 9129,
      "solved": 9130,
      "steering": 9131,
      "kinder": 9132,
      "parish": 9133,
      "heartless": 9134,
      "verses": 9135,
      "minis": 9136,
      "curse": 9137,
      "spoiling": 9138,
      "laden": 9139,
      "youngest": 9140,
      "aneously": 9141,
      "writes": 9142,
      "calves": 9143,
      "submission": 9144,
      "husbandry": 9145,
      "sensibly": 9146,
      "enery": 9147,
      "interpret": 9148,
      "ranks": 9149,
      "otto": 9150,
      "visits": 9151,
      "visage": 9152,
      "maintaining": 9153,
      "meanwhile": 9154,
      "listener": 9155,
      "worlds": 9156,
      "hunt": 9157,
      "lingering": 9158,
      "awaken": 9159,
      "conversed": 9160,
      "southern": 9161,
      "regain": 9162,
      "sunlight": 9163,
      "sunshade": 9164,
      "spirited": 9165,
      "clearing": 9166,
      "tric": 9167,
      "tricks": 9168,
      "emptied": 9169,
      "emperors": 9170,
      "whit": 9171,
      "travers": 9172,
      "sounding": 9173,
      "importun": 9174,
      "sorting": 9175,
      "repelled": 9176,
      "sweeping": 9177,
      "statement": 9178,
      "simpler": 9179,
      "walks": 9180,
      "mistakes": 9181,
      "Isn": 9182,
      "midwife": 9183,
      "brightening": 9184,
      "capti": 9185,
      "comforts": 9186,
      "freshe": 9187,
      "RED": 9188,
      "smothered": 9189,
      "Herr": 9190,
      "float": 9191,
      "musket": 9192,
      "XXI": 9193,
      "XXII": 9194,
      "XXIII": 9195,
      "crumbs": 9196,
      "fancies": 9197,
      "delirious": 9198,
      "examination": 9199,
      "depra": 9200,
      "casting": 9201,
      "porridge": 9202,
      "crash": 9203,
      "student": 9204,
      "brim": 9205,
      "Better": 9206,
      "Between": 9207,
      "legged": 9208,
      "occasional": 9209,
      "welcomed": 9210,
      "ARD": 9211,
      "kneeling": 9212,
      "swinging": 9213,
      "provoked": 9214,
      "colonies": 9215,
      "muttering": 9216,
      "honesty": 9217,
      "gardeners": 9218,
      "irritating": 9219,
      "journal": 9220,
      "probability": 9221,
      "bigger": 9222,
      "pitiful": 9223,
      "rusty": 9224,
      "rustle": 9225,
      "defending": 9226,
      "churchyard": 9227,
      "Coming": 9228,
      "Commission": 9229,
      "OUN": 9230,
      "witch": 9231,
      "fatal": 9232,
      "antique": 9233,
      "antipath": 9234,
      "ATION": 9235,
      "governesses": 9236,
      "flee": 9237,
      "fleet": 9238,
      "knocking": 9239,
      "heavenly": 9240,
      "screamed": 9241,
      "physici": 9242,
      "attract": 9243,
      "elements": 9244,
      "guessing": 9245,
      "pursuing": 9246,
      "pursuit": 9247,
      "frosty": 9248,
      "assume": 9249,
      "bathed": 9250,
      "vicious": 9251,
      "surroundings": 9252,
      "injury": 9253,
      "Barons": 9254,
      "turf": 9255,
      "inflict": 9256,
      "Christianity": 9257,
      "extravag": 9258,
      "TOW": 9259,
      "accused": 9260,
      "arises": 9261,
      "Looking": 9262,
      "eagerness": 9263,
      "genius": 9264,
      "devote": 9265,
      "shelves": 9266,
      "reminds": 9267,
      "attentive": 9268,
      "ridicul": 9269,
      "inns": 9270,
      "trodden": 9271,
      "groups": 9272,
      "starved": 9273,
      "commanded": 9274,
      "mix": 9275,
      "reveal": 9276,
      "winning": 9277,
      "heaved": 9278,
      "dragging": 9279,
      "benefits": 9280,
      "apprehensive": 9281,
      "Christmas": 9282,
      "comprehension": 9283,
      "customary": 9284,
      "flavour": 9285,
      "foreigners": 9286,
      "BEFORE": 9287,
      "TIME": 9288,
      "extended": 9289,
      "glittered": 9290,
      "profession": 9291,
[...]
