{
  "version": "1.0",
  "truncation": null,
  "padding": null,
  "added_tokens": [
    {
      "id": 0,
      "content": "[UNK]",
      "single_word": false,
      "lstrip": false,
      "rstrip": false,
      "normalized": false,
      "special": true
    },
    {
      "id": 1,
      "content": "[SOS]",
      "single_word": false,
      "lstrip": false,
      "rstrip": false,
      "normalized": false,
      "special": true
    },
    {
      "id": 2,
      "content": "[EOS]",
      "single_word": false,
      "lstrip": false,
      "rstrip": false,
      "normalized": false,
      "special": true
    },
    {
      "id": 3,
      "content": "[PAD]",
      "single_word": false,
      "lstrip": false,
      "rstrip": false,
      "normalized": false,
      "special": true
    }
  ],
  "normalizer": null,
  "pre_tokenizer": {
    "type": "Whitespace"
  },
  "post_processor": null,
  "decoder": null,
  "model": {
    "type": "BPE",
    "dropout": null,
    "unk_token": "[UNK]",
    "continuing_subword_prefix": null,
    "end_of_word_suffix": null,
    "fuse_unk": false,
    "byte_fallback": false,
    "vocab": {
      "[UNK]": 0,
      "[SOS]": 1,
      "[EOS]": 2,
      "[PAD]": 3,
      "!": 4,
      "\"": 5,
      "'": 6,
      "(": 7,
      ")": 8,
      "*": 9,
      ",": 10,
      "-": 11,
      ".": 12,
      "/": 13,
      "0": 14,
      "1": 15,
      "2": 16,
      "3": 17,
      "4": 18,
      "5": 19,
      "6": 20,
      "7": 21,
      "8": 22,
      "9": 23,
      ":": 24,
      ";": 25,
      "?": 26,
      "A": 27,
      "B": 28,
      "C": 29,
      "D": 30,
      "E": 31,
      "F": 32,
      "G": 33,
      "H": 34,
      "I": 35,
      "J": 36,
      "K": 37,
      "L": 38,
      "M": 39,
      "N": 40,
      "O": 41,
      "P": 42,
      "Q": 43,
      "R": 44,
      "S": 45,
      "T": 46,
      "U": 47,
      "V": 48,
      "W": 49,
      "X": 50,
      "Y": 51,
      "Z": 52,
      "[": 53,
      "]": 54,
      "_": 55,
      "a": 56,
      "b": 57,
      "c": 58,
      "d": 59,
      "e": 60,
      "f": 61,
      "g": 62,
      "h": 63,
      "i": 64,
      "j": 65,
      "k": 66,
      "l": 67,
      "m": 68,
      "n": 69,
      "o": 70,
      "p": 71,
      "q": 72,
      "r": 73,
      "s": 74,
      "t": 75,
      "u": 76,
      "v": 77,
      "w": 78,
      "x": 79,
      "y": 80,
      "z": 81,
      "«": 82,
      "°": 83,
      "»": 84,
      "¼": 85,
      "½": 86,
      "Ç": 87,
      "È": 88,
      "É": 89,
      "à": 90,
      "á": 91,
      "â": 92,
      "ä": 93,
      "æ": 94,
      "ç": 95,
      "è": 96,
      "é": 97,
      "ê": 98,
      "ë": 99,
      "ì": 100,
      "í": 101,
      "î": 102,
      "ò": 103,
      "ó": 104,
      "ô": 105,
      "ù": 106,
      "ü": 107,
      "œ": 108,
      "Š": 109,
      "š": 110,
      "–": 111,
      "—": 112,
      "―": 113,
      "‘": 114,
      "’": 115,
      "“": 116,
      "”": 117,
      "…": 118,
      "er": 119,
      "on": 120,
      "to": 121,
      "di": 122,
      "an": 123,
      "en": 124,
      "la": 125,
      "re": 126,
      "in": 127,
      "ch": 128,
      "ta": 129,
      "te": 130,
      "al": 131,
      "co": 132,
      "si": 133,
      "el": 134,
      "ri": 135,
      "ra": 136,
      "le": 137,
      "un": 138,
      "va": 139,
      "che": 140,
      "se": 141,
      "li": 142,
      "ti": 143,
      "qu": 144,
      "so": 145,
      "do": 146,
      "ar": 147,
      "es": 148,
      "po": 149,
      "ro": 150,
      "ci": 151,
      "mi": 152,
      "con": 153,
      "lo": 154,
      "sa": 155,
      "ma": 156,
      "per": 157,
      "ca": 158,
      "vo": 159,
      "vi": 160,
      "mo": 161,
      "il": 162,
      "non": 163,
      "gli": 164,
      "pi": 165,
      "ve": 166,
      "da": 167,
      "gi": 168,
      "me": 169,
      "del": 170,
      "su": 171,
      "de": 172,
      "men": 173,
      "no": 174,
      "tu": 175,
      "era": 176,
      "tto": 177,
      "zi": 178,
      "pa": 179,
      "ere": 180,
      "ano": 181,
      "ce": 182,
      "st": 183,
      "za": 184,
      "one": 185,
      "una": 186,
      "or": 187,
      "na": 188,
      "sse": 189,
      "bi": 190,
      "chi": 191,
      "fa": 192,
      "pre": 193,
      "av": 194,
      "sta": 195,
      "ando": 196,
      "quel": 197,
      "ne": 198,
      "par": 199,
      "uo": 200,
      "mente": 201,
      "tro": 202,
      "nel": 203,
      "io": 204,
      "pe": 205,
      "sen": 206,
      "ave": 207,
      "tra": 208,
      "ono": 209,
      "ui": 210,
      "ver": 211,
      "ques": 212,
      "bb": 213,
      "pro": 214,
      "tta": 215,
      "ssi": 216,
      "pri": 217,
      "ac": 218,
      "fi": 219,
      "come": 220,
      "du": 221,
      "tt": 222,
      "alla": 223,
      "tti": 224,
      "zione": 225,
      "ggi": 226,
      "gu": 227,
      "man": 228,
      "più": 229,
      "cor": 230,
      "pen": 231,
      "della": 232,
      "ero": 233,
      "ven": 234,
      "vano": 235,
      "ina": 236,
      "gno": 237,
      "ni": 238,
      "com": 239,
      "qual": 240,
      "ad": 241,
      "disse": 242,
      "sc": 243,
      "vol": 244,
      "ess": 245,
      "anto": 246,
      "tà": 247,
      "cia": 248,
      "aveva": 249,
      "ten": 250,
      "pr": 251,
      "..": 252,
      "ter": 253,
      "go": 254,
      "sso": 255,
      "lla": 256,
      "ba": 257,
      "ga": 258,
      "col": 259,
      "ste": 260,
      "im": 261,
      "sto": 262,
      "ran": 263,
      "sì": 264,
      "cchi": 265,
      "por": 266,
      "tre": 267,
      "suo": 268,
      "tte": 269,
      "pu": 270,
      "ssa": 271,
      "for": 272,
      "vin": 273,
      "Ma": 274,
      "fo": 275,
      "cosa": 276,
      "endo": 277,
      "sci": 278,
      "Le": 279,
      "mento": 280,
      "ino": 281,
      "perch": 282,
      "lui": 283,
      "zza": 284,
      "cu": 285,
      "ris": 286,
      "sua": 287,
      "tutto": 288,
      "bbe": 289,
      "eri": 290,
      "ini": 291,
      "ss": 292,
      "questo": 293,
      "fu": 294,
      "oni": 295,
      "ente": 296,
      "ale": 297,
      "signo": 298,
      "zz": 299,
      "guar": 300,
      "and": 301,
      "uno": 302,
      "mia": 303,
      "sem": 304,
      "dere": 305,
      "egli": 306,
      "dal": 307,
      "Non": 308,
      "così": 309,
      "ene": 310,
      "tri": 311,
      "uto": 312,
      "glio": 313,
      "vic": 314,
      "Levin": 315,
      "ff": 316,
      "ap": 317,
      "inci": 318,
      "loro": 319,
      "stra": 320,
      "pote": 321,
      "ai": 322,
      "tanto": 323,
      "ella": 324,
      "mio": 325,
      "cam": 326,
      "ge": 327,
      "tem": 328,
      "quando": 329,
      "gio": 330,
      "cer": 331,
      "ed": 332,
      "sk": 333,
      "rebbe": 334,
      "ru": 335,
      "dis": 336,
      "lei": 337,
      "nella": 338,
      "Ale": 339,
      "anda": 340,
      "tor": 341,
      "senti": 342,
      "ij": 343,
      "gna": 344,
      "gra": 345,
      "sono": 346,
      "Alek": 347,
      "gni": 348,
      "spe": 349,
      "perché": 350,
      "mai": 351,
      "all": 352,
      "senza": 353,
      "glia": 354,
      "der": 355,
      "ron": 356,
      "ante": 357,
      "La": 358,
      "skij": 359,
      "vole": 360,
      "quella": 361,
      "fatto": 362,
      "spi": 363,
      "alle": 364,
      "sti": 365,
      "mol": 366,
      "bu": 367,
      "sul": 368,
      "fra": 369,
      "sor": 370,
      "bile": 371,
      "cco": 372,
      "am": 373,
      "An": 374,
      "esso": 375,
      "quello": 376,
      "propri": 377,
      "amo": 378,
      "nu": 379,
      "prima": 380,
      "due": 381,
      "porta": 382,
      "ora": 383,
      "Qu": 384,
      "allo": 385,
      "cre": 386,
      "delle": 387,
      "Il": 388,
      "gior": 389,
      "nuo": 390,
      "fe": 391,
      "sco": 392,
      "ceva": 393,
      "ho": 394,
      "anti": 395,
      "erano": 396,
      "que": 397,
      "stato": 398,
      "ona": 399,
      "esse": 400,
      "anza": 401,
      "sol": 402,
      "via": 403,
      "mb": 404,
      "essa": 405,
      "essere": 406,
      "dei": 407,
      "tutti": 408,
      "qua": 409,
      "anno": 410,
      "car": 411,
      "far": 412,
      "tempo": 413,
      "enza": 414,
      "dove": 415,
      "cci": 416,
      "anche": 417,
      "cono": 418,
      "ol": 419,
      "sempre": 420,
      "deva": 421,
      "ria": 422,
      "essi": 423,
      "ani": 424,
      "princi": 425,
      "gran": 426,
      "dopo": 427,
      "anco": 428,
      "vita": 429,
      "altro": 430,
      "ali": 431,
      "bene": 432,
      "dalla": 433,
      "questa": 434,
      "fosse": 435,
      "fin": 436,
      "ha": 437,
      "dire": 438,
      "dell": 439,
      "ggio": 440,
      "bbi": 441,
      "ciò": 442,
      "zzo": 443,
      "cui": 444,
      "oc": 445,
      "occhi": 446,
      "lu": 447,
      "mor": 448,
      "poi": 449,
      "zio": 450,
      "parla": 451,
      "pensa": 452,
      "capi": 453,
      "Per": 454,
      "voi": 455,
      "veni": 456,
      "ane": 457,
      "volta": 458,
      "molto": 459,
      "uni": 460,
      "tura": 461,
      "qui": 462,
      "ja": 463,
      "trova": 464,
      "menti": 465,
      "rò": 466,
      "fare": 467,
      "llo": 468,
      "...": 469,
      "mie": 470,
      "mon": 471,
      "zioni": 472,
      "casa": 473,
      "gh": 474,
      "pra": 475,
      "tin": 476,
      "dò": 477,
      "sia": 478,
      "Anna": 479,
      "Vron": 480,
      "fer": 481,
      "sp": 482,
      "parte": 483,
      "signor": 484,
      "Vronskij": 485,
      "quale": 486,
      "aver": 487,
      "rispo": 488,
      "ancora": 489,
      "In": 490,
      "die": 491,
      "verso": 492,
      "mmo": 493,
      "nulla": 494,
      "parti": 495,
      "enti": 496,
      "andro": 497,
      "glie": 498,
      "ggia": 499,
      "sca": 500,
      "mani": 501,
      "Co": 502,
      "anta": 503,
      "rio": 504,
      "Aleks": 505,
      "solo": 506,
      "zia": 507,
      "vero": 508,
      "sal": 509,
      "mano": 510,
      "Aleksandro": 511,
      "bra": 512,
      "pie": 513,
      "chia": 514,
      "tato": 515,
      "pren": 516,
      "già": 517,
      "ccia": 518,
      "modo": 519,
      "ogni": 520,
      "ello": 521,
      "rmi": 522,
      "inter": 523,
      "stesso": 524,
      "cen": 525,
      "paro": 526,
      "Io": 527,
      "tutta": 528,
      "ffi": 529,
      "Mi": 530,
      "pan": 531,
      "poteva": 532,
      "quanto": 533,
      "pure": 534,
      "sorri": 535,
      "cal": 536,
      "ine": 537,
      "Ch": 538,
      "fre": 539,
      "sola": 540,
      "ser": 541,
      "uta": 542,
      "tò": 543,
      "sarebbe": 544,
      "giorno": 545,
      "desi": 546,
      "nuovo": 547,
      "abb": 548,
      "ing": 549,
      "doman": 550,
      "sie": 551,
      "altra": 552,
      "esti": 553,
      "Si": 554,
      "Ki": 555,
      "fuo": 556,
      "dar": 557,
      "lib": 558,
      "cato": 559,
      "pia": 560,
      "rono": 561,
      "proprio": 562,
      "sulla": 563,
      "tty": 564,
      "Kitty": 565,
      "don": 566,
      "alc": 567,
      "pare": 568,
      "mare": 569,
      "stro": 570,
      "tamente": 571,
      "gg": 572,
      "chè": 573,
      "rito": 574,
      "momento": 575,
      "Ar": 576,
      "ia": 577,
      "indi": 578,
      "rei": 579,
      "bito": 580,
      "zo": 581,
      "suoi": 582,
      "dendo": 583,
      "pensi": 584,
      "Alekse": 585,
      "No": 586,
      "dia": 587,
      "bo": 588,
      "gri": 589,
      "allora": 590,
      "ppo": 591,
      "guarda": 592,
      "scia": 593,
      "vere": 594,
      "Aleksej": 595,
      "eli": 596,
      "meno": 597,
      "ben": 598,
      "usci": 599,
      "perchè": 600,
      "poco": 601,
      "stu": 602,
      "viso": 603,
      "Se": 604,
      "dre": 605,
      "detto": 606,
      "avrebbe": 607,
      "ssero": 608,
      "sape": 609,
      "para": 610,
      "dio": 611,
      "contin": 612,
      "ic": 613,
      "aspe": 614,
      "ness": 615,
      "sotto": 616,
      "qualche": 617,
      "ché": 618,
      "nell": 619,
      "kad": 620,
      "elo": 621,
      "Arkad": 622,
      "Tu": 623,
      "tava": 624,
      "altri": 625,
      "cola": 626,
      "consi": 627,
      "ster": 628,
      "mini": 629,
      "questi": 630,
      "lavo": 631,
      "cose": 632,
      "bar": 633,
      "tutte": 634,
      "bili": 635,
      "esser": 636,
      "ordi": 637,
      "vna": 638,
      "lice": 639,
      "lun": 640,
      "anzi": 641,
      "biso": 642,
      "uomo": 643,
      "sopra": 644,
      "ssione": 645,
      "tare": 646,
      "cc": 647,
      "Aleksandrovic": 648,
      "giu": 649,
      "Sì": 650,
      "noi": 651,
      "vecchi": 652,
      "care": 653,
      "rispose": 654,
      "Ste": 655,
      "gui": 656,
      "min": 657,
      "dera": 658,
      "feli": 659,
      "pera": 660,
      "passa": 661,
      "rsi": 662,
      "stanza": 663,
      "pers": 664,
      "pena": 665,
      "Stepan": 666,
      "può": 667,
      "gione": 668,
      "aff": 669,
      "ricor": 670,
      "grande": 671,
      "continu": 672,
      "ami": 673,
      "dente": 674,
      "ont": 675,
      "Ro": 676,
      "len": 677,
      "né": 678,
      "Do": 679,
      "Gi": 680,
      "voce": 681,
      "as": 682,
      "elli": 683,
      "ren": 684,
      "stessa": 685,
      "arsi": 686,
      "des": 687,
      "andare": 688,
      "Di": 689,
      "qualcosa": 690,
      "duto": 691,
      "uti": 692,
      "gen": 693,
      "almente": 694,
      "contra": 695,
      "conten": 696,
      "contro": 697,
      "rin": 698,
      "ul": 699,
      "mina": 700,
      "moglie": 701,
      "pun": 702,
      "cio": 703,
      "sar": 704,
      "subito": 705,
      "possi": 706,
      "dov": 707,
      "posi": 708,
      "terra": 709,
      "bamb": 710,
      "miei": 711,
      "dietro": 712,
      "stre": 713,
      "Che": 714,
      "dando": 715,
      "cura": 716,
      "Ser": 717,
      "signore": 718,
      "dato": 719,
      "ggiun": 720,
      "sue": 721,
      "compa": 722,
      "tten": 723,
      "fon": 724,
      "entra": 725,
      "af": 726,
      "diceva": 727,
      "quali": 728,
      "picco": 729,
      "ze": 730,
      "ana": 731,
      "tore": 732,
      "gn": 733,
      "pon": 734,
      "cuo": 735,
      "stata": 736,
      "versa": 737,
      "mett": 738,
      "pio": 739,
      "stava": 740,
      "fino": 741,
      "spa": 742,
      "sione": 743,
      "tur": 744,
      "mu": 745,
      "condo": 746,
      "signora": 747,
      "tello": 748,
      "unque": 749,
      "cominci": 750,
      "stri": 751,
      "fini": 752,
      "prova": 753,
      "cap": 754,
      "riva": 755,
      "forse": 756,
      "chie": 757,
      "tar": 758,
      "avete": 759,
      "are": 760,
      "can": 761,
      "posto": 762,
      "andosi": 763,
      "parole": 764,
      "lascia": 765,
      "vedere": 766,
      "acc": 767,
      "dai": 768,
      "tratto": 769,
      "rima": 770,
      "Egli": 771,
      "tran": 772,
      "avesse": 773,
      "quelle": 774,
      "fuori": 775,
      "inten": 776,
      "cav": 777,
      "torna": 778,
      "tale": 779,
      "Ques": 780,
      "testa": 781,
      "colo": 782,
      "ccio": 783,
      "be": 784,
      "lato": 785,
      "sser": 786,
      "chester": 787,
      "soltanto": 788,
      "Po": 789,
      "princip": 790,
      "letto": 791,
      "Rochester": 792,
      "dare": 793,
      "fece": 794,
      "ppure": 795,
      "giun": 796,
      "parlare": 797,
      "Era": 798,
      "mar": 799,
      "Alice": 800,
      "piac": 801,
      "queste": 802,
      "mezzo": 803,
      "Ivano": 804,
      "sera": 805,
      "scri": 806,
      "Dio": 807,
      "abi": 808,
      "anni": 809,
      "Vi": 810,
      "là": 811,
      "quasi": 812,
      "meglio": 813,
      "den": 814,
      "fac": 815,
      "rato": 816,
      "quelli": 817,
      "abbi": 818,
      "tua": 819,
      "scu": 820,
      "prese": 821,
      "particola": 822,
      "Come": 823,
      "incia": 824,
      "esa": 825,
      "agi": 826,
      "vera": 827,
      "accor": 828,
      "ore": 829,
      "nelle": 830,
      "voleva": 831,
      "ghi": 832,
      "ka": 833,
      "tuto": 834,
      "guardo": 835,
      "acqua": 836,
      "off": 837,
      "avevo": 838,
      "cuore": 839,
      "vesti": 840,
      "sé": 841,
      "aspetta": 842,
      "degli": 843,
      "ssimo": 844,
      "dall": 845,
      "cir": 846,
      "marito": 847,
      "mentre": 848,
      "comincia": 849,
      "avevano": 850,
      "veder": 851,
      "bbero": 852,
      "et": 853,
      "ur": 854,
      "possibile": 855,
      "rano": 856,
      "segui": 857,
      "cin": 858,
      "male": 859,
      "ir": 860,
      "arono": 861,
      "pressione": 862,
      "sce": 863,
      "son": 864,
      "alz": 865,
      "posso": 866,
      "occu": 867,
      "bel": 868,
      "ppa": 869,
      "sapeva": 870,
      "rac": 871,
      "Quando": 872,
      "armi": 873,
      "mò": 874,
      "gge": 875,
      "alli": 876,
      "sentiva": 877,
      "principe": 878,
      "nanzi": 879,
      "servi": 880,
      "dì": 881,
      "avvic": 882,
      "Vo": 883,
      "ele": 884,
      "cie": 885,
      "torno": 886,
      "raga": 887,
      "presso": 888,
      "fratello": 889,
      "conosc": 890,
      "dir": 891,
      "Jane": 892,
      "Ri": 893,
      "arris": 894,
      "cava": 895,
      "chiu": 896,
      "pron": 897,
      "cambi": 898,
      "cominciò": 899,
      "sguardo": 900,
      "samente": 901,
      "avere": 902,
      "volte": 903,
      "forte": 904,
      "vostra": 905,
      "punto": 906,
      "sare": 907,
      "simi": 908,
      "ulti": 909,
      "Lo": 910,
      "ttina": 911,
      "appena": 912,
      "camera": 913,
      "nè": 914,
      "osser": 915,
      "soli": 916,
      "pad": 917,
      "donna": 918,
      "troppo": 919,
      "dice": 920,
      "port": 921,
      "nello": 922,
      "ide": 923,
      "uomini": 924,
      "forza": 925,
      "spia": 926,
      "propria": 927,
      "siete": 928,
      "diven": 929,
      "lavoro": 930,
      "mondo": 931,
      "deci": 932,
      "Ave": 933,
      "pau": 934,
      "sorriso": 935,
      "quell": 936,
      "hanno": 937,
      "rice": 938,
      "notte": 939,
      "prov": 940,
      "amore": 941,
      "ena": 942,
      "capo": 943,
      "certo": 944,
      "accanto": 945,
      "Harris": 946,
      "cessa": 947,
      "Sa": 948,
      "tata": 949,
      "dava": 950,
      "Gior": 951,
      "cri": 952,
      "rare": 953,
      "Dopo": 954,
      "tavo": 955,
      "madre": 956,
      "faceva": 957,
      "....": 958,
      "gro": 959,
      "vuo": 960,
      "oll": 961,
      "Giorgio": 962,
      "Re": 963,
      "luo": 964,
      "acco": 965,
      "gej": 966,
      "Sergej": 967,
      "atti": 968,
      "leva": 969,
      "sei": 970,
      "miglia": 971,
      "giov": 972,
      "at": 973,
      "op": 974,
      "sembra": 975,
      "doveva": 976,
      "lungo": 977,
      "pes": 978,
      "ama": 979,
      "lasci": 980,
      "lett": 981,
      "tazione": 982,
      "zze": 983,
      "ascol": 984,
      "Doll": 985,
      "Ella": 986,
      "Ecco": 987,
      "eno": 988,
      "potuto": 989,
      "gia": 990,
      "piedi": 991,
      "Dolly": 992,
      "lle": 993,
      "inc": 994,
      "peri": 995,
      "alb": 996,
      "Perché": 997,
      "gua": 998,
      "corre": 999,
      "ell": 1000,
      "mag": 1001,
      "int": 1002,
      "diffi": 1003,
      "vece": 1004,
      "nei": 1005,
      "guardando": 1006,
      "felice": 1007,
      "rà": 1008,
      "spo": 1009,
      "vento": 1010,
      "Allo": 1011,
      "Un": 1012,
      "riman": 1013,
      "primo": 1014,
      "pens": 1015,
      "ffer": 1016,
      "tal": 1017,
      "principessa": 1018,
      "avrei": 1019,
      "dalle": 1020,
      "vecchio": 1021,
      "corr": 1022,
      "adesso": 1023,
      "barca": 1024,
      "Ven": 1025,
      "ple": 1026,
      "altre": 1027,
      "Allora": 1028,
      "aro": 1029,
      "corso": 1030,
      "giorni": 1031,
      "fine": 1032,
      "secondo": 1033,
      "anima": 1034,
      "cità": 1035,
      "conta": 1036,
      "vostro": 1037,
      "presen": 1038,
      "presto": 1039,
      "parve": 1040,
      "parola": 1041,
      "Ivanovic": 1042,
      "mma": 1043,
      "rie": 1044,
      "fred": 1045,
      "sieme": 1046,
      "ll": 1047,
      "messo": 1048,
      "”.": 1049,
      "nessuno": 1050,
      "ent": 1051,
      "tica": 1052,
      "condu": 1053,
      "preso": 1054,
      "ordina": 1055,
      "bisogno": 1056,
      "cca": 1057,
      "insieme": 1058,
      "dav": 1059,
      "ggiunse": 1060,
      "zzi": 1061,
      "occupa": 1062,
      "esi": 1063,
      "sper": 1064,
      "dimenti": 1065,
      "une": 1066,
      "stan": 1067,
      "lli": 1068,
      "aren": 1069,
      "ragione": 1070,
      "dissi": 1071,
      "vedeva": 1072,
      "stante": 1073,
      "dol": 1074,
      "devo": 1075,
      "cla": 1076,
      "rispon": 1077,
      "pensiero": 1078,
      "Su": 1079,
      "schi": 1080,
      "sero": 1081,
      "venuto": 1082,
      "occa": 1083,
      "lont": 1084,
      "avre": 1085,
      "abba": 1086,
      "mette": 1087,
      "avuto": 1088,
      "pensava": 1089,
      "luogo": 1090,
      "andò": 1091,
      "signorina": 1092,
      "gente": 1093,
      "mal": 1094,
      "acca": 1095,
      "bella": 1096,
      "cile": 1097,
      "conversa": 1098,
      "cando": 1099,
      "mattina": 1100,
      "arlo": 1101,
      "otto": 1102,
      "immag": 1103,
      "semp": 1104,
      "domandò": 1105,
      "vò": 1106,
      "tali": 1107,
      "quil": 1108,
      "Ah": 1109,
      "segu": 1110,
      "mise": 1111,
      "desidera": 1112,
      "onde": 1113,
      "invece": 1114,
      "dine": 1115,
      "espressione": 1116,
      "visi": 1117,
      "bil": 1118,
      "temi": 1119,
      "avano": 1120,
      "gato": 1121,
      "tando": 1122,
      "prendere": 1123,
      "feri": 1124,
      "conte": 1125,
      "mostra": 1126,
      "spie": 1127,
      "ghe": 1128,
      "evi": 1129,
      "padre": 1130,
      "essero": 1131,
      "erò": 1132,
      "intorno": 1133,
      "venire": 1134,
      "tranquil": 1135,
      "atten": 1136,
      "rap": 1137,
      "more": 1138,
      "padr": 1139,
      "veri": 1140,
      "porti": 1141,
      "piacere": 1142,
      "persone": 1143,
      "Pi": 1144,
      "arriva": 1145,
      "bbene": 1146,
      "chiama": 1147,
      "osserva": 1148,
      "riusci": 1149,
      "sulle": 1150,
      "gere": 1151,
      "dini": 1152,
      "legg": 1153,
      "miglio": 1154,
      "vor": 1155,
      "presa": 1156,
      "neppure": 1157,
      "avessi": 1158,
      "pareva": 1159,
      "saper": 1160,
      "gare": 1161,
      "geva": 1162,
      "paura": 1163,
      "piace": 1164,
      "bisogna": 1165,
      "tì": 1166,
      "silen": 1167,
      "pol": 1168,
      "pot": 1169,
      "silenzio": 1170,
      "tiva": 1171,
      "tene": 1172,
      "guardò": 1173,
      "rlo": 1174,
      "torn": 1175,
      "fuoco": 1176,
      "dita": 1177,
      "posizione": 1178,
      "Sono": 1179,
      "tano": 1180,
      "sole": 1181,
      "voglio": 1182,
      "fossero": 1183,
      "diri": 1184,
      "tate": 1185,
      "bur": 1186,
      "pensare": 1187,
      "gre": 1188,
      "ove": 1189,
      "ttura": 1190,
      "tuo": 1191,
      "rante": 1192,
      "considera": 1193,
      "volto": 1194,
      "appa": 1195,
      "fal": 1196,
      "hai": 1197,
      "rava": 1198,
      "gnifi": 1199,
      "Ci": 1200,
      "ecco": 1201,
      "ripe": 1202,
      "necessa": 1203,
      "forma": 1204,
      "usc": 1205,
      "vamo": 1206,
      "buona": 1207,
      "nuova": 1208,
      "Questo": 1209,
      "conversazione": 1210,
      "Oh": 1211,
      "ate": 1212,
      "scon": 1213,
      "rire": 1214,
      "Ho": 1215,
      "dele": 1216,
      "gioia": 1217,
      "quei": 1218,
      "oltre": 1219,
      "raccon": 1220,
      "Con": 1221,
      "isola": 1222,
      "oh": 1223,
      "Li": 1224,
      "bri": 1225,
      "udi": 1226,
      "deli": 1227,
      "morte": 1228,
      "veniva": 1229,
      "ttore": 1230,
      "andava": 1231,
      "abband": 1232,
      "Dar": 1233,
      "aria": 1234,
      "etro": 1235,
      "pur": 1236,
      "Aleksandrovna": 1237,
      "eni": 1238,
      "avea": 1239,
      "duta": 1240,
      "pran": 1241,
      "avvicin": 1242,
      "assi": 1243,
      "assa": 1244,
      "vidi": 1245,
      "sendo": 1246,
      "tras": 1247,
      "venne": 1248,
      "gover": 1249,
      "Mo": 1250,
      "ato": 1251,
      "cchio": 1252,
      "liber": 1253,
      "padrone": 1254,
      "Una": 1255,
      "inte": 1256,
      "nostra": 1257,
      "mili": 1258,
      "pass": 1259,
      "fiu": 1260,
      "continuò": 1261,
      "agli": 1262,
      "sala": 1263,
      "petto": 1264,
      "desider": 1265,
      "irri": 1266,
      "sten": 1267,
      "carro": 1268,
      "mer": 1269,
      "caso": 1270,
      "amici": 1271,
      "spiaggia": 1272,
      "fran": 1273,
      "mala": 1274,
      "stare": 1275,
      "sarà": 1276,
      "II": 1277,
      "ppe": 1278,
      "estra": 1279,
      "rore": 1280,
      "dette": 1281,
      "pensieri": 1282,
      "au": 1283,
      "prepara": 1284,
      "senso": 1285,
      "monio": 1286,
      "Gli": 1287,
      "dinanzi": 1288,
      "sore": 1289,
      "metter": 1290,
      "dello": 1291,
      "dete": 1292,
      "persona": 1293,
      "idea": 1294,
      "tudine": 1295,
      "vista": 1296,
      "cinque": 1297,
      "evidente": 1298,
      "alza": 1299,
      "cara": 1300,
      "str": 1301,
      "pranzo": 1302,
      "grazia": 1303,
      "Va": 1304,
      "sel": 1305,
      "data": 1306,
      "stran": 1307,
      "stru": 1308,
      "pensò": 1309,
      "incontra": 1310,
      "grado": 1311,
      "animo": 1312,
      "Joh": 1313,
      "erdì": 1314,
      "dic": 1315,
      "lare": 1316,
      "stati": 1317,
      "chiese": 1318,
      "simile": 1319,
      "bilmente": 1320,
      "John": 1321,
      "dormi": 1322,
      "condi": 1323,
      "collo": 1324,
      "cce": 1325,
      "dici": 1326,
      "nostro": 1327,
      "bre": 1328,
      "mpa": 1329,
      "alu": 1330,
      "fron": 1331,
      "estre": 1332,
      "vivere": 1333,
      "comple": 1334,
      "diver": 1335,
      "dolo": 1336,
      "profon": 1337,
      "figu": 1338,
      "scello": 1339,
      "visto": 1340,
      "Chi": 1341,
      "guardava": 1342,
      "contento": 1343,
      "uscì": 1344,
      "tono": 1345,
      "tori": 1346,
      "arla": 1347,
      "bambini": 1348,
      "Al": 1349,
      "aper": 1350,
      "tr": 1351,
      "dino": 1352,
      "cora": 1353,
      "avendo": 1354,
      "sorridendo": 1355,
      "Venerdì": 1356,
      "denza": 1357,
      "escla": 1358,
      "andar": 1359,
      "buon": 1360,
      "attra": 1361,
      "denti": 1362,
      "ger": 1363,
      "ute": 1364,
      "dico": 1365,
      "devano": 1366,
      "piccola": 1367,
      "proprie": 1368,
      "credo": 1369,
      "alcuni": 1370,
      "coper": 1371,
      "cari": 1372,
      "atto": 1373,
      "figlio": 1374,
      "sembrava": 1375,
      "ko": 1376,
      "resto": 1377,
      "inti": 1378,
      "sentì": 1379,
      "tendo": 1380,
      "sentimento": 1381,
      "selva": 1382,
      "rla": 1383,
      "sche": 1384,
      "rif": 1385,
      "fatti": 1386,
      "mangi": 1387,
      "sentito": 1388,
      "capire": 1389,
      "guardare": 1390,
      "giovane": 1391,
      "tanta": 1392,
      "ango": 1393,
      "ferma": 1394,
      "eria": 1395,
      "allegra": 1396,
      "grandi": 1397,
      "ttro": 1398,
      "almeno": 1399,
      "situa": 1400,
      "felicità": 1401,
      "davanti": 1402,
      "fiume": 1403,
      "pli": 1404,
      "sin": 1405,
      "risol": 1406,
      "famiglia": 1407,
      "Così": 1408,
      "calma": 1409,
      "Bi": 1410,
      "Ni": 1411,
      "scor": 1412,
      "vascello": 1413,
      "date": 1414,
      "damente": 1415,
      "endosi": 1416,
      "lettera": 1417,
      "bru": 1418,
      "import": 1419,
      "continua": 1420,
      "affatto": 1421,
      "tavola": 1422,
      "mpi": 1423,
      "faccia": 1424,
      "vergo": 1425,
      "tenere": 1426,
      "trimonio": 1427,
      "gridò": 1428,
      "nessun": 1429,
      "signifi": 1430,
      "spesso": 1431,
      "bilità": 1432,
      "sicu": 1433,
      "ribile": 1434,
      "dor": 1435,
      "fatta": 1436,
      "volon": 1437,
      "viaggio": 1438,
      "lì": 1439,
      "labb": 1440,
      "appar": 1441,
      "quattro": 1442,
      "amico": 1443,
      "lan": 1444,
      "esto": 1445,
      "nata": 1446,
      "campa": 1447,
      "posta": 1448,
      "inare": 1449,
      "domanda": 1450,
      "circa": 1451,
      "alzò": 1452,
      "dolce": 1453,
      "sapere": 1454,
      "catti": 1455,
      "giù": 1456,
      "fossi": 1457,
      "furono": 1458,
      "spirito": 1459,
      "tù": 1460,
      "caccia": 1461,
      "nome": 1462,
      "allont": 1463,
      "Voi": 1464,
      "semplice": 1465,
      "rvi": 1466,
      "sfor": 1467,
      "però": 1468,
      "state": 1469,
      "venti": 1470,
      "particolare": 1471,
      "Nel": 1472,
      "Varen": 1473,
      "ass": 1474,
      "cò": 1475,
      "etto": 1476,
      "tè": 1477,
      "inf": 1478,
      "poter": 1479,
      "potre": 1480,
      "gliato": 1481,
      "fermò": 1482,
      "donne": 1483,
      "affa": 1484,
      "aggiunse": 1485,
      "diamo": 1486,
      "rivol": 1487,
      "quad": 1488,
      "potesse": 1489,
      "Poi": 1490,
      "situazione": 1491,
      "So": 1492,
      "lava": 1493,
      "zie": 1494,
      "compi": 1495,
      "braccio": 1496,
      "opera": 1497,
      "rai": 1498,
      "andato": 1499,
      "giudi": 1500,
      "fronte": 1501,
      "acce": 1502,
      "».": 1503,
      "arro": 1504,
      "ssima": 1505,
      "piccolo": 1506,
      "Da": 1507,
      "gioni": 1508,
      "strano": 1509,
      "natur": 1510,
      "quest": 1511,
      "triste": 1512,
      "libera": 1513,
      "negli": 1514,
      "capitano": 1515,
      "affer": 1516,
      "gener": 1517,
      "dati": 1518,
      "natura": 1519,
      "qualc": 1520,
      "fuggi": 1521,
      "fretta": 1522,
      "bbia": 1523,
      "compagni": 1524,
      "lontano": 1525,
      "bli": 1526,
      "ese": 1527,
      "omb": 1528,
      "inato": 1529,
      "luce": 1530,
      "capp": 1531,
      "contessa": 1532,
      "labbra": 1533,
      "rata": 1534,
      "convin": 1535,
      "tratta": 1536,
      "feci": 1537,
      "capelli": 1538,
      "mera": 1539,
      "lar": 1540,
      "perio": 1541,
      "favo": 1542,
      "sciu": 1543,
      "reno": 1544,
      "cavallo": 1545,
      "entrò": 1546,
      "asso": 1547,
      "pian": 1548,
      "pace": 1549,
      "passi": 1550,
      "vicino": 1551,
      "conosci": 1552,
      "risposta": 1553,
      "cioè": 1554,
      "dunque": 1555,
      "oro": 1556,
      "ton": 1557,
      "anca": 1558,
      "cha": 1559,
      "rov": 1560,
      "lov": 1561,
      "preci": 1562,
      "assai": 1563,
      "tante": 1564,
      "ggior": 1565,
      "voluto": 1566,
      "guardar": 1567,
      "braccia": 1568,
      "belle": 1569,
      "Ebbene": 1570,
      "ppi": 1571,
      "san": 1572,
      "sceva": 1573,
      "tuna": 1574,
      "maggio": 1575,
      "veduto": 1576,
      "stitu": 1577,
      "molti": 1578,
      "buono": 1579,
      "Tutto": 1580,
      "passato": 1581,
      "speranza": 1582,
      "Svi": 1583,
      "ebbe": 1584,
      "erà": 1585,
      "incontro": 1586,
      "alto": 1587,
      "riti": 1588,
      "quar": 1589,
      "ture": 1590,
      "face": 1591,
      "corse": 1592,
      "cerca": 1593,
      "specie": 1594,
      "mettere": 1595,
      "rapporti": 1596,
      "Mosca": 1597,
      "evidentemente": 1598,
      "Ne": 1599,
      "Ora": 1600,
      "arri": 1601,
      "perd": 1602,
      "nato": 1603,
      "provvi": 1604,
      "carrozza": 1605,
      "perciò": 1606,
      "amma": 1607,
      "trovare": 1608,
      "studio": 1609,
      "contenta": 1610,
      "campagna": 1611,
      "atte": 1612,
      "alta": 1613,
      "nostri": 1614,
      "ttere": 1615,
      "impe": 1616,
      "necessario": 1617,
      "fio": 1618,
      "fui": 1619,
      "tezza": 1620,
      "potevo": 1621,
      "dieci": 1622,
      "interro": 1623,
      "aspetto": 1624,
      "facendo": 1625,
      "),": 1626,
      "van": 1627,
      "divi": 1628,
      "cento": 1629,
      "Aveva": 1630,
      "ecc": 1631,
      "tol": 1632,
      "sov": 1633,
      "strada": 1634,
      "spetta": 1635,
      "parlava": 1636,
      "Micha": 1637,
      "qualcuno": 1638,
      "Gu": 1639,
      "setti": 1640,
      "piena": 1641,
      "parl": 1642,
      "mana": 1643,
      "scen": 1644,
      "certa": 1645,
      "mbe": 1646,
      "principio": 1647,
      "Du": 1648,
      "ccato": 1649,
      "zskij": 1650,
      "est": 1651,
      "cielo": 1652,
      "sai": 1653,
      "voglia": 1654,
      "vide": 1655,
      "penso": 1656,
      "riamente": 1657,
      "ingle": 1658,
      "nessuna": 1659,
      "confu": 1660,
      "sui": 1661,
      "star": 1662,
      "trovato": 1663,
      "avrebbero": 1664,
      "france": 1665,
      "bl": 1666,
      "ucci": 1667,
      "’,": 1668,
      "cata": 1669,
      "piano": 1670,
      "presi": 1671,
      "dispera": 1672,
      "abbia": 1673,
      "desiderio": 1674,
      "bocca": 1675,
      "ancor": 1676,
      "innanzi": 1677,
      "lie": 1678,
      "conto": 1679,
      "veva": 1680,
      "bbli": 1681,
      "venuta": 1682,
      "cammina": 1683,
      "gnato": 1684,
      "clu": 1685,
      "ddis": 1686,
      "tati": 1687,
      "conda": 1688,
      "bbri": 1689,
      "acqui": 1690,
      "impossibile": 1691,
      "getta": 1692,
      "onato": 1693,
      "tuttavia": 1694,
      "vecchia": 1695,
      "meravi": 1696,
      "pane": 1697,
      "elle": 1698,
      "espri": 1699,
      "jazskij": 1700,
      "bambina": 1701,
      "opini": 1702,
      "Svijazskij": 1703,
      "usa": 1704,
      "indo": 1705,
      "sità": 1706,
      "tratten": 1707,
      "corte": 1708,
      "colpe": 1709,
      "ordine": 1710,
      "freddo": 1711,
      "messa": 1712,
      "ospi": 1713,
      "soddis": 1714,
      "crea": 1715,
      "spin": 1716,
      "Signo": 1717,
      "Saint": 1718,
      "abbastanza": 1719,
      "figura": 1720,
      "Obl": 1721,
      "nero": 1722,
      "ann": 1723,
      "inna": 1724,
      "gue": 1725,
      "volete": 1726,
      "chiara": 1727,
      "prender": 1728,
      "cappello": 1729,
      "Oblon": 1730,
      "line": 1731,
      "lega": 1732,
      "vimento": 1733,
      "pieno": 1734,
      "pezzo": 1735,
      "ttà": 1736,
      "corpo": 1737,
      "discorso": 1738,
      "rona": 1739,
      "portato": 1740,
      "finalmente": 1741,
      "tornare": 1742,
      "mino": 1743,
      "sch": 1744,
      "sve": 1745,
      "tina": 1746,
      "val": 1747,
      "siamo": 1748,
      "matrimonio": 1749,
      "menta": 1750,
      "chiam": 1751,
      "avver": 1752,
      "figli": 1753,
      "durante": 1754,
      "trovai": 1755,
      "salva": 1756,
      "alcun": 1757,
      "alcune": 1758,
      "utile": 1759,
      "difficile": 1760,
      "Oblonskij": 1761,
      "rne": 1762,
      "enda": 1763,
      "viva": 1764,
      "debo": 1765,
      "stò": 1766,
      "fondo": 1767,
      "finito": 1768,
      "esclamò": 1769,
      "Cre": 1770,
      "mba": 1771,
      "meri": 1772,
      "rando": 1773,
      "città": 1774,
      "comuni": 1775,
      "questione": 1776,
      "bambino": 1777,
      "Ad": 1778,
      "Adele": 1779,
      "rre": 1780,
      "soffer": 1781,
      "fortuna": 1782,
      "libro": 1783,
      "popo": 1784,
      "poss": 1785,
      "sarei": 1786,
      "deve": 1787,
      "avessero": 1788,
      "dubbi": 1789,
      "mane": 1790,
      "tempi": 1791,
      "sull": 1792,
      "passare": 1793,
      "sarebbero": 1794,
      "kola": 1795,
      "Nikola": 1796,
      "Michaj": 1797,
      "quindi": 1798,
      "esta": 1799,
      "vedo": 1800,
      "giro": 1801,
      "priva": 1802,
      "scuo": 1803,
      "termina": 1804,
      "conosceva": 1805,
      "minuti": 1806,
      "Già": 1807,
      "Questa": 1808,
      "bello": 1809,
      "deri": 1810,
      "gar": 1811,
      "anch": 1812,
      "entro": 1813,
      "rapi": 1814,
      "socie": 1815,
      "giar": 1816,
      "vestito": 1817,
      "pronun": 1818,
      "tranquilla": 1819,
      "Pietro": 1820,
      "teneva": 1821,
      "sorella": 1822,
      "cche": 1823,
      "ori": 1824,
      "pone": 1825,
      "quegli": 1826,
      "este": 1827,
      "possa": 1828,
      "proba": 1829,
      "essie": 1830,
      "entrare": 1831,
      "Bessie": 1832,
      "Pro": 1833,
      "segno": 1834,
      "esam": 1835,
      "perfe": 1836,
      "sup": 1837,
      "sentire": 1838,
      "dolore": 1839,
      "società": 1840,
      "ltre": 1841,
      "indu": 1842,
      "poten": 1843,
      "mosche": 1844,
      "passe": 1845,
      "avanti": 1846,
      "ttamente": 1847,
      "straordina": 1848,
      "portare": 1849,
      "veramente": 1850,
      "ëza": 1851,
      "coi": 1852,
      "rità": 1853,
      "villa": 1854,
      "medesi": 1855,
      "passo": 1856,
      "proposi": 1857,
      "parlato": 1858,
      "contrario": 1859,
      "Serëza": 1860,
      "cavalli": 1861,
      "strana": 1862,
      "Ka": 1863,
      "gelo": 1864,
      "kij": 1865,
      "resi": 1866,
      "ciale": 1867,
      "debb": 1868,
      "chio": 1869,
      "sene": 1870,
      "tener": 1871,
      "cameri": 1872,
      "molte": 1873,
      "lunga": 1874,
      "faccen": 1875,
      "conoscere": 1876,
      "pericolo": 1877,
      "piu": 1878,
      "cchia": 1879,
      "scala": 1880,
      "ultima": 1881,
      "burgo": 1882,
      "Mar": 1883,
      "oggi": 1884,
      "legge": 1885,
      "mità": 1886,
      "inava": 1887,
      "colpi": 1888,
      "potei": 1889,
      "aiuto": 1890,
      "Pietroburgo": 1891,
      "Cer": 1892,
      "gne": 1893,
      "rego": 1894,
      "sic": 1895,
      "quanti": 1896,
      "posse": 1897,
      "vità": 1898,
      "ttosto": 1899,
      "vers": 1900,
      "fia": 1901,
      "finestra": 1902,
      "tornò": 1903,
      "francese": 1904,
      "bor": 1905,
      "ecci": 1906,
      "velo": 1907,
      "rati": 1908,
      "sensa": 1909,
      "pensato": 1910,
      "ricev": 1911,
      "Be": 1912,
      "gina": 1913,
      "pal": 1914,
      "sap": 1915,
      "maggior": 1916,
      "cate": 1917,
      "media": 1918,
      "accen": 1919,
      "corsa": 1920,
      "ciasc": 1921,
      "salotto": 1922,
      "att": 1923,
      "gò": 1924,
      "erci": 1925,
      "dite": 1926,
      "rido": 1927,
      "sop": 1928,
      "sogna": 1929,
      "viol": 1930,
      "generale": 1931,
      "inglese": 1932,
      "bal": 1933,
      "eff": 1934,
      "uffi": 1935,
      "simpa": 1936,
      "cazione": 1937,
      "illu": 1938,
      "gliere": 1939,
      "metà": 1940,
      "noti": 1941,
      "coltà": 1942,
      "aiuta": 1943,
      "rumore": 1944,
      "simili": 1945,
      "giovani": 1946,
      "diritto": 1947,
      "piuttosto": 1948,
      "ebbi": 1949,
      "hi": 1950,
      "dottore": 1951,
      "arti": 1952,
      "eramente": 1953,
      "scialu": 1954,
      "trice": 1955,
      "carne": 1956,
      "trovava": 1957,
      "ricordo": 1958,
      "leggere": 1959,
      "Ve": 1960,
      "XX": 1961,
      "sy": 1962,
      "distanza": 1963,
      "paese": 1964,
      "orn": 1965,
      "orgo": 1966,
      "fatica": 1967,
      "avvi": 1968,
      "peggio": 1969,
      "ttò": 1970,
      "credere": 1971,
      "giornata": 1972,
      "abbiamo": 1973,
      "aspettava": 1974,
      "albero": 1975,
      "contadini": 1976,
      "falcia": 1977,
      "ttu": 1978,
      "cosci": 1979,
      "separa": 1980,
      "vede": 1981,
      "nascon": 1982,
      "ultimo": 1983,
      "maggiore": 1984,
      "De": 1985,
      "cro": 1986,
      "oppo": 1987,
      "sba": 1988,
      "sali": 1989,
      "dito": 1990,
      "dija": 1991,
      "enze": 1992,
      "intanto": 1993,
      "segna": 1994,
      "cati": 1995,
      "dovuto": 1996,
      "spaven": 1997,
      "Reed": 1998,
      "migliore": 1999,
      "Lidija": 2000,
      "sangue": 2001,
      "desse": 2002,
      "genti": 2003,
      "sinc": 2004,
      "tere": 2005,
      "rezza": 2006,
      "tario": 2007,
      "ripo": 2008,
      "impa": 2009,
      "scio": 2010,
      "andata": 2011,
      "Dove": 2012,
      "lasciato": 2013,
      "sposa": 2014,
      "sicuro": 2015,
      "favore": 2016,
      "opinione": 2017,
      "Fai": 2018,
      "atta": 2019,
      "belli": 2020,
      "incon": 2021,
      "seconda": 2022,
      "accompa": 2023,
      "corsi": 2024,
      "coll": 2025,
      "ammi": 2026,
      "solleva": 2027,
      "bosco": 2028,
      "intelli": 2029,
      "completamente": 2030,
      "vergogna": 2031,
      "Kon": 2032,
      "Ves": 2033,
      "apri": 2034,
      "ssu": 2035,
      "coli": 2036,
      "cercando": 2037,
      "morto": 2038,
      "partito": 2039,
      "Ivanovna": 2040,
      "solito": 2041,
      "attenzione": 2042,
      "proposito": 2043,
      "Bet": 2044,
      "asse": 2045,
      "bac": 2046,
      "rfa": 2047,
      "tanti": 2048,
      "lati": 2049,
      "stin": 2050,
      "spalle": 2051,
      "maniera": 2052,
      "denaro": 2053,
      "correre": 2054,
      "stantin": 2055,
      "verità": 2056,
      "debole": 2057,
      "scialuppa": 2058,
      "Fairfa": 2059,
      "Konstantin": 2060,
      "Betsy": 2061,
      "Fairfax": 2062,
      "For": 2063,
      "dero": 2064,
      "fanno": 2065,
      "sh": 2066,
      "umi": 2067,
      "vel": 2068,
      "soff": 2069,
      "succ": 2070,
      "strin": 2071,
      "ormai": 2072,
      "primi": 2073,
      "puto": 2074,
      "scoper": 2075,
      "conosce": 2076,
      "offen": 2077,
      "spiega": 2078,
      "Karen": 2079,
      "ata": 2080,
      "cru": 2081,
      "edu": 2082,
      "ttutto": 2083,
      "lacri": 2084,
      "tico": 2085,
      "essendo": 2086,
      "eserci": 2087,
      "camente": 2088,
      "acci": 2089,
      "sentimenti": 2090,
      "solle": 2091,
      "interess": 2092,
      "alcuna": 2093,
      "ragazzo": 2094,
      "avvicinò": 2095,
      "dicendo": 2096,
      "mangiare": 2097,
      "colpevole": 2098,
      "innamo": 2099,
      "siccome": 2100,
      "Senti": 2101,
      "lmente": 2102,
      "palli": 2103,
      "casse": 2104,
      "voli": 2105,
      "vir": 2106,
      "fate": 2107,
      "prì": 2108,
      "gambe": 2109,
      "storia": 2110,
      "volevo": 2111,
      "onare": 2112,
      "capisco": 2113,
      "particolari": 2114,
      "lovskij": 2115,
      "Veslovskij": 2116,
      "cessi": 2117,
      "cane": 2118,
      "mere": 2119,
      "discu": 2120,
      "divor": 2121,
      "lotta": 2122,
      "pianta": 2123,
      "procura": 2124,
      "gliare": 2125,
      "dentro": 2126,
      "ragazza": 2127,
      "riusciva": 2128,
      "Ti": 2129,
      "dra": 2130,
      "fan": 2131,
      "indietro": 2132,
      "cchiere": 2133,
      "risti": 2134,
      "grazio": 2135,
      "alcuno": 2136,
      "indiffer": 2137,
      "dubbio": 2138,
      "orgoglio": 2139,
      "ari": 2140,
      "evna": 2141,
      "smo": 2142,
      "tai": 2143,
      "raggiun": 2144,
      "lità": 2145,
      "qualunque": 2146,
      "Anche": 2147,
      "interessa": 2148,
      "sapete": 2149,
      "provava": 2150,
      "capì": 2151,
      "rimasto": 2152,
      "chiusa": 2153,
      "attimo": 2154,
      "coraggio": 2155,
      "amare": 2156,
      "dono": 2157,
      "dagli": 2158,
      "appresso": 2159,
      "diede": 2160,
      "Tutti": 2161,
      "soprattutto": 2162,
      "turba": 2163,
      "passò": 2164,
      "Guar": 2165,
      "Th": 2166,
      "seduto": 2167,
      "mori": 2168,
      "vettura": 2169,
      "terribile": 2170,
      "gnata": 2171,
      "scritto": 2172,
      "libertà": 2173,
      "lacrime": 2174,
      "Pen": 2175,
      "fun": 2176,
      "sè": 2177,
      "dif": 2178,
      "ram": 2179,
      "rosso": 2180,
      "andomi": 2181,
      "figlia": 2182,
      "stessi": 2183,
      "portava": 2184,
      "stupi": 2185,
      "genere": 2186,
      "rimase": 2187,
      "azi": 2188,
      "affi": 2189,
      "gino": 2190,
      "osa": 2191,
      "pochi": 2192,
      "prego": 2193,
      "capito": 2194,
      "particolar": 2195,
      "rispondere": 2196,
      "accaduto": 2197,
      "Te": 2198,
      "besti": 2199,
      "rgli": 2200,
      "resso": 2201,
      "inò": 2202,
      "rim": 2203,
      "estran": 2204,
      "fabbri": 2205,
      "presenza": 2206,
      "stavano": 2207,
      "niente": 2208,
      "principi": 2209,
      "sorrise": 2210,
      "benché": 2211,
      "uscire": 2212,
      "ministra": 2213,
      "tardi": 2214,
      "idee": 2215,
      "alberi": 2216,
      "davvero": 2217,
      "assicura": 2218,
      "naturale": 2219,
      "azienda": 2220,
      "ag": 2221,
      "asciu": 2222,
      "cina": 2223,
      "eld": 2224,
      "conf": 2225,
      "uoi": 2226,
      "field": 2227,
      "gusto": 2228,
      "colpa": 2229,
      "impressione": 2230,
      "rispetto": 2231,
      "mbo": 2232,
      "occorre": 2233,
      "benchè": 2234,
      "spavento": 2235,
      "allontan": 2236,
      "ornfield": 2237,
      "divorzio": 2238,
      "Thornfield": 2239,
      "estrane": 2240,
      "Ed": 2241,
      "odio": 2242,
      "ucc": 2243,
      "infer": 2244,
      "tac": 2245,
      "sedette": 2246,
      "sotti": 2247,
      "lovna": 2248,
      "saputo": 2249,
      "mesi": 2250,
      "sentendo": 2251,
      "dispre": 2252,
      "monta": 2253,
      "vuole": 2254,
      "malgrado": 2255,
      "Adesso": 2256,
      "Nikolaj": 2257,
      "ber": 2258,
      "dri": 2259,
      "fru": 2260,
      "vanta": 2261,
      "erba": 2262,
      "ridere": 2263,
      "tito": 2264,
      "biglie": 2265,
      "ttando": 2266,
      "comune": 2267,
      "pru": 2268,
      "puli": 2269,
      "appo": 2270,
      "sentii": 2271,
      "nuovi": 2272,
      "occhio": 2273,
      "possono": 2274,
      "Forse": 2275,
      "Cap": 2276,
      "ado": 2277,
      "ada": 2278,
      "spen": 2279,
      "spera": 2280,
      "tino": 2281,
      "ermi": 2282,
      "rica": 2283,
      "tivo": 2284,
      "arvi": 2285,
      "argo": 2286,
      "eravamo": 2287,
      "stenza": 2288,
      "faci": 2289,
      "duti": 2290,
      "signori": 2291,
      "ruppe": 2292,
      "buoni": 2293,
      "finchè": 2294,
      "piaceva": 2295,
      "Sape": 2296,
      "amava": 2297,
      "rimane": 2298,
      "volonta": 2299,
      ".»": 2300,
      "Fu": 2301,
      "lin": 2302,
      "ostante": 2303,
      "dità": 2304,
      "enor": 2305,
      "reli": 2306,
      "segre": 2307,
      "timi": 2308,
      "sospi": 2309,
      "conce": 2310,
      "chied": 2311,
      "chiaro": 2312,
      "scal": 2313,
      "scar": 2314,
      "cul": 2315,
      "potete": 2316,
      "campo": 2317,
      "dersi": 2318,
      "Noi": 2319,
      "rinun": 2320,
      "importante": 2321,
      "sforzo": 2322,
      "Sta": 2323,
      "gono": 2324,
      "istitu": 2325,
      "ov": 2326,
      "vostri": 2327,
      "vivo": 2328,
      "mene": 2329,
      "addor": 2330,
      "stesse": 2331,
      "impara": 2332,
      "rubli": 2333,
      "grave": 2334,
      "quie": 2335,
      "ggiare": 2336,
      "ingresso": 2337,
      "darsi": 2338,
      "metteva": 2339,
      "condizione": 2340,
      "Av": 2341,
      "seri": 2342,
      "quanta": 2343,
      "soggiunse": 2344,
      "arte": 2345,
      "arra": 2346,
      "stabili": 2347,
      "scel": 2348,
      "ciato": 2349,
      "gaf": 2350,
      "pioggia": 2351,
      "attraverso": 2352,
      "scher": 2353,
      "popolo": 2354,
      "Men": 2355,
      "Qui": 2356,
      "otti": 2357,
      "din": 2358,
      "rive": 2359,
      "arma": 2360,
      "movimento": 2361,
      "prece": 2362,
      "voltò": 2363,
      "forze": 2364,
      "fuor": 2365,
      "amministra": 2366,
      "sapevo": 2367,
      "cominciato": 2368,
      "compagnia": 2369,
      "giardino": 2370,
      "successo": 2371,
      "virtù": 2372,
      "Mentre": 2373,
      "Id": 2374,
      "canta": 2375,
      "yre": 2376,
      "mater": 2377,
      "perfino": 2378,
      "vedendo": 2379,
      "bianco": 2380,
      "facile": 2381,
      "forti": 2382,
      "sorpresa": 2383,
      "ambi": 2384,
      "stretto": 2385,
      "difficoltà": 2386,
      "dormire": 2387,
      "selvaggi": 2388,
      "bellezza": 2389,
      "fiori": 2390,
      "eccell": 2391,
      "coscienza": 2392,
      "Iddio": 2393,
      "!”": 2394,
      "Eyre": 2395,
      "azione": 2396,
      "cano": 2397,
      "ffo": 2398,
      "istante": 2399,
      "mero": 2400,
      "sini": 2401,
      "schia": 2402,
      "erra": 2403,
      "raggi": 2404,
      "meva": 2405,
      "stere": 2406,
      "compra": 2407,
      "compren": 2408,
      "porto": 2409,
      "zzato": 2410,
      "ska": 2411,
      "splen": 2412,
      "ggine": 2413,
      "beni": 2414,
      "agitazione": 2415,
      "lettere": 2416,
      "alber": 2417,
      "bisognava": 2418,
      "potere": 2419,
      "Bisogna": 2420,
      "particolarmente": 2421,
      "Pu": 2422,
      "cch": 2423,
      "dan": 2424,
      "mone": 2425,
      "mbi": 2426,
      "mando": 2427,
      "rci": 2428,
      "riso": 2429,
      "vostre": 2430,
      "pendo": 2431,
      "terreno": 2432,
      "forme": 2433,
      "potevano": 2434,
      "farmi": 2435,
      "intenzione": 2436,
      "dimenticato": 2437,
      "ombra": 2438,
      "Fin": 2439,
      "gendosi": 2440,
      "muo": 2441,
      "od": 2442,
      "uso": 2443,
      "vale": 2444,
      "sosten": 2445,
      "ardo": 2446,
      "posti": 2447,
      "Maria": 2448,
      "zzare": 2449,
      "allegro": 2450,
      "risposi": 2451,
      "dovesse": 2452,
      "lasciare": 2453,
      "effetto": 2454,
      "fanta": 2455,
      "muta": 2456,
      "uzione": 2457,
      "disa": 2458,
      "invi": 2459,
      "sogno": 2460,
      "mici": 2461,
      "migli": 2462,
      "gliò": 2463,
      "memb": 2464,
      "nau": 2465,
      "chiesa": 2466,
      "necessi": 2467,
      "sento": 2468,
      "inata": 2469,
      "gram": 2470,
      "pensai": 2471,
      "ghio": 2472,
      "piede": 2473,
      "colazione": 2474,
      "seguito": 2475,
      "spiace": 2476,
      "Avete": 2477,
      "corrente": 2478,
      "presente": 2479,
      "occasione": 2480,
      "chiamava": 2481,
      "carattere": 2482,
      "Ero": 2483,
      "Me": 2484,
      "bon": 2485,
      "gendo": 2486,
      "rli": 2487,
      "spar": 2488,
      "umili": 2489,
      "dimostra": 2490,
      "respi": 2491,
      "tavano": 2492,
      "segn": 2493,
      "pore": 2494,
      "medi": 2495,
      "tratti": 2496,
      "addietro": 2497,
      "batt": 2498,
      "immedia": 2499,
      "cerbac": 2500,
      "tormento": 2501,
      "string": 2502,
      "condizioni": 2503,
      "aggiun": 2504,
      "gl": 2505,
      "ener": 2506,
      "lazione": 2507,
      "seduta": 2508,
      "misi": 2509,
      "notato": 2510,
      "orri": 2511,
      "orrore": 2512,
      "preferi": 2513,
      "mangia": 2514,
      "commo": 2515,
      "porre": 2516,
      "onata": 2517,
      "caro": 2518,
      "farò": 2519,
      "ghil": 2520,
      "ggiata": 2521,
      "ingan": 2522,
      "giusti": 2523,
      "intende": 2524,
      "vuoi": 2525,
      "contadino": 2526,
      "quadro": 2527,
      "Signore": 2528,
      "Ca": 2529,
      "spor": 2530,
      "Šcerbac": 2531,
      "anim": 2532,
      "coman": 2533,
      "rimor": 2534,
      "paio": 2535,
      "trovò": 2536,
      "produ": 2537,
      "pene": 2538,
      "voler": 2539,
      "cur": 2540,
      "curio": 2541,
      "guardi": 2542,
      "scopo": 2543,
      "Inghil": 2544,
      "domandai": 2545,
      "tavasov": 2546,
      "qualità": 2547,
      "bev": 2548,
      "affari": 2549,
      "arros": 2550,
      "Katavasov": 2551,
      "biglietto": 2552,
      "bui": 2553,
      "eppure": 2554,
      "scom": 2555,
      "costo": 2556,
      "racco": 2557,
      "sedere": 2558,
      "domani": 2559,
      "dovere": 2560,
      "conclu": 2561,
      "mezz": 2562,
      "suono": 2563,
      "fame": 2564,
      "pressi": 2565,
      "guan": 2566,
      "terzo": 2567,
      "cchie": 2568,
      "tric": 2569,
      "fede": 2570,
      "stanze": 2571,
      "Inghilterra": 2572,
      "Fi": 2573,
      "Lui": 2574,
      "cente": 2575,
      "luna": 2576,
      "moni": 2577,
      "oso": 2578,
      "pp": 2579,
      "vando": 2580,
      "distru": 2581,
      "telli": 2582,
      "povero": 2583,
      "cercare": 2584,
      "gliata": 2585,
      "numero": 2586,
      "carmi": 2587,
      "conosco": 2588,
      "alità": 2589,
      "capiva": 2590,
      "Ingram": 2591,
      "darmi": 2592,
      "consiglio": 2593,
      "finita": 2594,
      "orecchio": 2595,
      "Ciò": 2596,
      "abbandon": 2597,
      "settimana": 2598,
      "annun": 2599,
      "Agaf": 2600,
      "gando": 2601,
      "ner": 2602,
      "vono": 2603,
      "anja": 2604,
      "rete": 2605,
      "mava": 2606,
      "pasto": 2607,
      "terrore": 2608,
      "cercava": 2609,
      "tormen": 2610,
      "solamente": 2611,
      "stretta": 2612,
      "tornato": 2613,
      "accordo": 2614,
      "circon": 2615,
      "eleg": 2616,
      "conoscenza": 2617,
      "sempli": 2618,
      "assolu": 2619,
      "orolo": 2620,
      "Michajlovna": 2621,
      "Ness": 2622,
      "aš": 2623,
      "bere": 2624,
      "ost": 2625,
      "rle": 2626,
      "tevi": 2627,
      "mila": 2628,
      "viene": 2629,
      "morire": 2630,
      "giuo": 2631,
      "trasc": 2632,
      "filo": 2633,
      "colto": 2634,
      "andate": 2635,
      "frequ": 2636,
      "ricordò": 2637,
      "Diana": 2638,
      "cominciare": 2639,
      "ragazze": 2640,
      "deciso": 2641,
      "Regina": 2642,
      "ascoltava": 2643,
      "polvere": 2644,
      "breve": 2645,
      "sensazione": 2646,
      "dirò": 2647,
      "sica": 2648,
      "poli": 2649,
      "metti": 2650,
      "super": 2651,
      "neanche": 2652,
      "onore": 2653,
      "ssime": 2654,
      "prime": 2655,
      "mante": 2656,
      "tenza": 2657,
      "improvvi": 2658,
      "campi": 2659,
      "disgrazia": 2660,
      "credeva": 2661,
      "piaci": 2662,
      "canz": 2663,
      "fredda": 2664,
      "rispondeva": 2665,
      "seguente": 2666,
      "malatti": 2667,
      "sorelle": 2668,
      "accetta": 2669,
      "rimpro": 2670,
      "cy": 2671,
      "ete": 2672,
      "gal": 2673,
      "mpe": 2674,
      "oper": 2675,
      "vali": 2676,
      "invita": 2677,
      "sicura": 2678,
      "vai": 2679,
      "esco": 2680,
      "coni": 2681,
      "consegu": 2682,
      "causa": 2683,
      "cev": 2684,
      "avevamo": 2685,
      "impie": 2686,
      "portò": 2687,
      "venivano": 2688,
      "ggiato": 2689,
      "interesse": 2690,
      "donde": 2691,
      "ordini": 2692,
      "possibilità": 2693,
      "cambia": 2694,
      "pensando": 2695,
      "tranquillo": 2696,
      "allontana": 2697,
      "scuola": 2698,
      "moschetto": 2699,
      "cameriere": 2700,
      "faccenda": 2701,
      "immediatamente": 2702,
      "orologio": 2703,
      "grano": 2704,
      "dife": 2705,
      "remo": 2706,
      "infelice": 2707,
      "soffi": 2708,
      "mamma": 2709,
      "pari": 2710,
      "preghi": 2711,
      "prote": 2712,
      "dura": 2713,
      "ciare": 2714,
      "colpo": 2715,
      "ferro": 2716,
      "giunse": 2717,
      "abitu": 2718,
      "pronta": 2719,
      "rimanere": 2720,
      "piacevole": 2721,
      "tivamente": 2722,
      "ospiti": 2723,
      "Ap": 2724,
      "Gol": 2725,
      "ballo": 2726,
      "puoi": 2727,
      "tosto": 2728,
      "ant": 2729,
      "testu": 2730,
      "ritorno": 2731,
      "arme": 2732,
      "malato": 2733,
      "cami": 2734,
      "nem": 2735,
      "acque": 2736,
      "folla": 2737,
      "appunto": 2738,
      "sentivo": 2739,
      "abbra": 2740,
      "Siete": 2741,
      "felici": 2742,
      "provato": 2743,
      "pronto": 2744,
      "polt": 2745,
      "lingua": 2746,
      "Fran": 2747,
      "dde": 2748,
      "vani": 2749,
      "ša": 2750,
      "ester": 2751,
      "vissu": 2752,
      "nasco": 2753,
      "dubi": 2754,
      "volesse": 2755,
      "solen": 2756,
      "principa": 2757,
      "ocche": 2758,
      "salute": 2759,
      "cena": 2760,
      "condotta": 2761,
      "cominciava": 2762,
      "seguire": 2763,
      "guada": 2764,
      "immagina": 2765,
      "angolo": 2766,
      "volontà": 2767,
      "creatura": 2768,
      "poltrona": 2769,
      "En": 2770,
      "Jaš": 2771,
      "Prima": 2772,
      "canza": 2773,
      "tren": 2774,
      "zu": 2775,
      "šcev": 2776,
      "cocchiere": 2777,
      "tiche": 2778,
      "volo": 2779,
      "mese": 2780,
      "demmo": 2781,
      "accon": 2782,
      "accia": 2783,
      "corrido": 2784,
      "bassa": 2785,
      "gata": 2786,
      "molta": 2787,
      "giorn": 2788,
      "chiamare": 2789,
      "serva": 2790,
      "consiste": 2791,
      "lavorare": 2792,
      "amica": 2793,
      "punta": 2794,
      "offer": 2795,
      "sonno": 2796,
      "servizio": 2797,
      "tavolo": 2798,
      "arrivo": 2799,
      "Credo": 2800,
      "medesimo": 2801,
      "volontariamente": 2802,
      "Jašvin": 2803,
      "?”": 2804,
      "Alla": 2805,
      "To": 2806,
      "ecce": 2807,
      "gon": 2808,
      "ie": 2809,
      "igno": 2810,
      "oscu": 2811,
      "obbli": 2812,
      "onale": 2813,
      "distra": 2814,
      "sette": 2815,
      "dosso": 2816,
      "misu": 2817,
      "ved": 2818,
      "mezza": 2819,
      "superio": 2820,
      "nove": 2821,
      "nostre": 2822,
      "orribile": 2823,
      "pubbli": 2824,
      "aiu": 2825,
      "speci": 2826,
      "ammo": 2827,
      "Com": 2828,
      "chiedere": 2829,
      "cande": 2830,
      "attività": 2831,
      "enišcev": 2832,
      "cattivo": 2833,
      "fuggire": 2834,
      "facevano": 2835,
      "necessità": 2836,
      "Šcerbackij": 2837,
      "Golenišcev": 2838,
      "Gra": 2839,
      "Ha": 2840,
      "Spa": 2841,
      "dà": 2842,
      "egu": 2843,
      "ffa": 2844,
      "ersi": 2845,
      "dipen": 2846,
      "ritratto": 2847,
      "sedia": 2848,
      "limi": 2849,
      "quante": 2850,
      "somma": 2851,
      "cai": 2852,
      "glielo": 2853,
      "picc": 2854,
      "memo": 2855,
      "stando": 2856,
      "pezzi": 2857,
      "acchi": 2858,
      "mandato": 2859,
      "dermi": 2860,
      "carte": 2861,
      "farlo": 2862,
      "zioso": 2863,
      "venisse": 2864,
      "partire": 2865,
      "interruppe": 2866,
      "caldo": 2867,
      "libri": 2868,
      "destra": 2869,
      "aspettare": 2870,
      "III": 2871,
      "estremità": 2872,
      "proprietario": 2873,
      "allegramente": 2874,
      "continuamente": 2875,
      "naufra": 2876,
      "Mil": 2877,
      "Pe": 2878,
      "auto": 2879,
      "aprì": 2880,
      "bro": 2881,
      "ood": 2882,
      "pel": 2883,
      "uro": 2884,
      "tosi": 2885,
      "retta": 2886,
      "inutile": 2887,
      "siste": 2888,
      "mira": 2889,
      "prete": 2890,
      "ssimi": 2891,
      "scere": 2892,
      "volle": 2893,
      "batte": 2894,
      "zzò": 2895,
      "poichè": 2896,
      "lena": 2897,
      "ultimi": 2898,
      "governa": 2899,
      "Vasen": 2900,
      "attor": 2901,
      "probabilmente": 2902,
      "ciascuno": 2903,
      "nemmeno": 2904,
      "Sol": 2905,
      "ccar": 2906,
      "cristi": 2907,
      "ieri": 2908,
      "mesti": 2909,
      "sanza": 2910,
      "té": 2911,
      "andiamo": 2912,
      "inver": 2913,
      "involontariamente": 2914,
      "riprese": 2915,
      "vado": 2916,
      "som": 2917,
      "soffo": 2918,
      "basso": 2919,
      "gava": 2920,
      "sko": 2921,
      "sorte": 2922,
      "salu": 2923,
      "Tutta": 2924,
      "affare": 2925,
      "vuol": 2926,
      "strui": 2927,
      "aperta": 2928,
      "suppli": 2929,
      "regola": 2930,
      "bordo": 2931,
      "Karenin": 2932,
      "fanci": 2933,
      "testuggine": 2934,
      "Bra": 2935,
      "Stiva": 2936,
      "evita": 2937,
      "otten": 2938,
      "pella": 2939,
      "puni": 2940,
      "ppia": 2941,
      "pelle": 2942,
      "rina": 2943,
      "vive": 2944,
      "stazione": 2945,
      "peso": 2946,
      "proce": 2947,
      "fissa": 2948,
      "discorsi": 2949,
      "lunghe": 2950,
      "solita": 2951,
      "accostò": 2952,
      "desiderava": 2953,
      "aperto": 2954,
      "Elena": 2955,
      "Na": 2956,
      "Or": 2957,
      "gru": 2958,
      "genza": 2959,
      "osta": 2960,
      "pla": 2961,
      "dip": 2962,
      "tela": 2963,
      "cos": 2964,
      "como": 2965,
      "coloro": 2966,
      "dore": 2967,
      "esperi": 2968,
      "estate": 2969,
      "naso": 2970,
      "navi": 2971,
      "iore": 2972,
      "sente": 2973,
      "guerra": 2974,
      "tenuto": 2975,
      "zzata": 2976,
      "cusa": 2977,
      "dispensa": 2978,
      "carta": 2979,
      "pietà": 2980,
      "ordin": 2981,
      "descri": 2982,
      "accorsi": 2983,
      "vorrei": 2984,
      "ombre": 2985,
      "camminare": 2986,
      "chiaramente": 2987,
      "ricevuto": 2988,
      "simpati": 2989,
      "assolutamente": 2990,
      "Erano": 2991,
      "Mont": 2992,
      "cero": 2993,
      "dano": 2994,
      "ogn": 2995,
      "ogge": 2996,
      "pali": 2997,
      "erla": 2998,
      "costa": 2999,
      "leggi": 3000,
      "legno": 3001,
      "tira": 3002,
      "rossa": 3003,
      "voci": 3004,
      "dezza": 3005,
      "ventura": 3006,
      "scinti": 3007,
      "tenda": 3008,
      "vino": 3009,
      "dallo": 3010,
      "grati": 3011,
      "spon": 3012,
      "geni": 3013,
      "entrato": 3014,
      "muro": 3015,
      "scrivere": 3016,
      "Vole": 3017,
      "Low": 3018,
      "padrona": 3019,
      "ascoltare": 3020,
      "figliuo": 3021,
      "Montmor": 3022,
      "Del": 3023,
      "Nella": 3024,
      "seria": 3025,
      "perduto": 3026,
      "cadere": 3027,
      "momenti": 3028,
      "gliar": 3029,
      "medico": 3030,
      "mendo": 3031,
      "erete": 3032,
      "chiesto": 3033,
      "prodo": 3034,
      "cordi": 3035,
      "vene": 3036,
      "inai": 3037,
      "colon": 3038,
      "trib": 3039,
      "Quanto": 3040,
      "giusto": 3041,
      "lasciò": 3042,
      "osservare": 3043,
      "ripeté": 3044,
      "continuava": 3045,
      "tenerezza": 3046,
      "attesa": 3047,
      "estero": 3048,
      "Sentiva": 3049,
      "gine": 3050,
      "mine": 3051,
      "sino": 3052,
      "ency": 3053,
      "lagri": 3054,
      "deltà": 3055,
      "ssia": 3056,
      "mancanza": 3057,
      "basti": 3058,
      "ssò": 3059,
      "disposizione": 3060,
      "sorta": 3061,
      "nuove": 3062,
      "venir": 3063,
      "grido": 3064,
      "studia": 3065,
      "affin": 3066,
      "principale": 3067,
      "grosso": 3068,
      "portiere": 3069,
      "poté": 3070,
      "divisa": 3071,
      "Certo": 3072,
      "interessante": 3073,
      "sottile": 3074,
      "enorme": 3075,
      "vissuto": 3076,
      "Montmorency": 3077,
      "Eh": 3078,
      "esem": 3079,
      "odia": 3080,
      "dile": 3081,
      "diversa": 3082,
      "resti": 3083,
      "inch": 3084,
      "inno": 3085,
      "infi": 3086,
      "rico": 3087,
      "risul": 3088,
      "estro": 3089,
      "posa": 3090,
      "mico": 3091,
      "missione": 3092,
      "misero": 3093,
      "sapendo": 3094,
      "caff": 3095,
      "sud": 3096,
      "detta": 3097,
      "debbe": 3098,
      "bianca": 3099,
      "neve": 3100,
      "partenza": 3101,
      "vendo": 3102,
      "Mason": 3103,
      "soldati": 3104,
      "dovete": 3105,
      "bbiamo": 3106,
      "Perchè": 3107,
      "unica": 3108,
      "calmo": 3109,
      "assu": 3110,
      "piccoli": 3111,
      "giunto": 3112,
      "semplicemente": 3113,
      "precipi": 3114,
      "disperazione": 3115,
      "tranquillamente": 3116,
      "attorno": 3117,
      "Bene": 3118,
      "cante": 3119,
      "gnuo": 3120,
      "palu": 3121,
      "treno": 3122,
      "lata": 3123,
      "intro": 3124,
      "rivolta": 3125,
      "vate": 3126,
      "sospe": 3127,
      "pose": 3128,
      "mille": 3129,
      "consola": 3130,
      "mato": 3131,
      "perdere": 3132,
      "piro": 3133,
      "nobile": 3134,
      "penti": 3135,
      "addosso": 3136,
      "potessi": 3137,
      "gevano": 3138,
      "grazie": 3139,
      "dovevano": 3140,
      "prendeva": 3141,
      "indicando": 3142,
      "lavora": 3143,
      "ricordava": 3144,
      "spazio": 3145,
      "rimasta": 3146,
      "pesante": 3147,
      "malata": 3148,
      "coperto": 3149,
      "coperta": 3150,
      "carico": 3151,
      "singhio": 3152,
      "settimane": 3153,
      "intelligente": 3154,
      "albergo": 3155,
      "giuoco": 3156,
      "corridoio": 3157,
      "ccare": 3158,
      "marsi": 3159,
      "nj": 3160,
      "inta": 3161,
      "tappe": 3162,
      "sibile": 3163,
      "rifi": 3164,
      "risto": 3165,
      "lio": 3166,
      "confi": 3167,
      "giac": 3168,
      "meco": 3169,
      "tutt": 3170,
      "org": 3171,
      "versi": 3172,
      "bbo": 3173,
      "farsi": 3174,
      "averne": 3175,
      "compagno": 3176,
      "chiuse": 3177,
      "immagin": 3178,
      "rifle": 3179,
      "importanza": 3180,
      "conosciuto": 3181,
      "illumina": 3182,
      "notizia": 3183,
      "malattia": 3184,
      "Ge": 3185,
      "Vor": 3186,
      "ban": 3187,
      "cani": 3188,
      "danza": 3189,
      "età": 3190,
      "umore": 3191,
      "dizione": 3192,
      "entu": 3193,
      "intra": 3194,
      "tedes": 3195,
      "rivolto": 3196,
      "ragi": 3197,
      "povera": 3198,
      "avvenire": 3199,
      "ioso": 3200,
      "gate": 3201,
      "certamente": 3202,
      "siasi": 3203,
      "marea": 3204,
      "sopracci": 3205,
      "Avevo": 3206,
      "correva": 3207,
      "talvolta": 3208,
      "soddisfa": 3209,
      "poneva": 3210,
      "Cappella": 3211,
      "addormen": 3212,
      "Lowood": 3213,
      "affinchè": 3214,
      "entusia": 3215,
      "Cappellaio": 3216,
      "Fal": 3217,
      "Itali": 3218,
      "Pre": 3219,
      "neri": 3220,
      "rallegra": 3221,
      "scono": 3222,
      "scambi": 3223,
      "vele": 3224,
      "erlo": 3225,
      "distin": 3226,
      "sedeva": 3227,
      "cavano": 3228,
      "videnza": 3229,
      "davano": 3230,
      "parenti": 3231,
      "bbre": 3232,
      "volse": 3233,
      "basta": 3234,
      "importa": 3235,
      "Lei": 3236,
      "entemente": 3237,
      "campan": 3238,
      "finché": 3239,
      "pensavo": 3240,
      "uscita": 3241,
      "barba": 3242,
      "minò": 3243,
      "finire": 3244,
      "vederlo": 3245,
      "governato": 3246,
      "diverti": 3247,
      "potrebbe": 3248,
      "sinistra": 3249,
      "benissimo": 3250,
      "improvvisamente": 3251,
      "trenta": 3252,
      "Lon": 3253,
      "Ru": 3254,
      "ah": 3255,
      "asi": 3256,
      "abito": 3257,
      "boc": 3258,
      "lina": 3259,
      "inquie": 3260,
      "tetto": 3261,
      "vato": 3262,
      "segni": 3263,
      "sebbene": 3264,
      "cili": 3265,
      "case": 3266,
      "veduta": 3267,
      "nota": 3268,
      "pasti": 3269,
      "preoccupa": 3270,
      "fianco": 3271,
      "ttera": 3272,
      "altrimenti": 3273,
      "ricordando": 3274,
      "lentamente": 3275,
      "becca": 3276,
      "giungere": 3277,
      "cominciai": 3278,
      "lasciar": 3279,
      "arrivato": 3280,
      "piangere": 3281,
      "camminava": 3282,
      "Pensa": 3283,
      "rammen": 3284,
      "bestia": 3285,
      "conseguenza": 3286,
      "specialmente": 3287,
      "vello": 3288,
      "diti": 3289,
      "disegno": 3290,
      "tele": 3291,
      "altà": 3292,
      "riera": 3293,
      "timore": 3294,
      "rosa": 3295,
      "roba": 3296,
      "capre": 3297,
      "vela": 3298,
      "susci": 3299,
      "avvenuto": 3300,
      "prendo": 3301,
      "zzava": 3302,
      "cammino": 3303,
      "torni": 3304,
      "alleg": 3305,
      "nutri": 3306,
      "direzione": 3307,
      "morta": 3308,
      "mormor": 3309,
      "siate": 3310,
      "saluta": 3311,
      "desidero": 3312,
      "maresci": 3313,
      "essersi": 3314,
      "guisa": 3315,
      "ricordi": 3316,
      "entrava": 3317,
      "piccole": 3318,
      "canc": 3319,
      "seguì": 3320,
      "rappresen": 3321,
      "quarto": 3322,
      "linea": 3323,
      "difen": 3324,
      "Nessuno": 3325,
      "candela": 3326,
      "esempio": 3327,
      "caffè": 3328,
      "Falsa": 3329,
      "Londra": 3330,
      "Mol": 3331,
      "spre": 3332,
      "th": 3333,
      "ulla": 3334,
      "umana": 3335,
      "resta": 3336,
      "repu": 3337,
      "sile": 3338,
      "rav": 3339,
      "rasse": 3340,
      "lezione": 3341,
      "poche": 3342,
      "ciali": 3343,
      "confor": 3344,
      "conveni": 3345,
      "cacci": 3346,
      "nobili": 3347,
      "ston": 3348,
      "fazzo": 3349,
      "qualsiasi": 3350,
      "immo": 3351,
      "cucina": 3352,
      "certi": 3353,
      "andai": 3354,
      "Quella": 3355,
      "scopri": 3356,
      "prendendo": 3357,
      "compassione": 3358,
      "circo": 3359,
      "avvicinava": 3360,
      "Ricor": 3361,
      "perdona": 3362,
      "spiacevole": 3363,
      "Appena": 3364,
      "inverno": 3365,
      "lagrime": 3366,
      "Russia": 3367,
      "Grif": 3368,
      "Ivan": 3369,
      "Pare": 3370,
      "Senza": 3371,
      "evic": 3372,
      "sbi": 3373,
      "yc": 3374,
      "costu": 3375,
      "riuscì": 3376,
      "casi": 3377,
      "vitto": 3378,
      "modi": 3379,
      "pazza": 3380,
      "erei": 3381,
      "nate": 3382,
      "avveni": 3383,
      "promesso": 3384,
      "prio": 3385,
      "ttino": 3386,
      "tenendo": 3387,
      "sciocche": 3388,
      "onia": 3389,
      "vicina": 3390,
      "Lascia": 3391,
      "farà": 3392,
      "diedi": 3393,
      "manif": 3394,
      "fresca": 3395,
      "giusta": 3396,
      "render": 3397,
      "serata": 3398,
      "osservò": 3399,
      "dicevano": 3400,
      "dolci": 3401,
      "avremmo": 3402,
      "chiamato": 3403,
      "appariva": 3404,
      "brilla": 3405,
      "mettersi": 3406,
      "rivolse": 3407,
      "strinse": 3408,
      "tacque": 3409,
      "vantaggio": 3410,
      "Finalmente": 3411,
      "camicia": 3412,
      "solenne": 3413,
      "soddisfazione": 3414,
      "governatorato": 3415,
      "Grifone": 3416,
      "Dmi": 3417,
      "Ver": 3418,
      "Via": 3419,
      "azz": 3420,
      "econo": 3421,
      "smar": 3422,
      "diverso": 3423,
      "inge": 3424,
      "indispensa": 3425,
      "teva": 3426,
      "sili": 3427,
      "rita": 3428,
      "doloro": 3429,
      "dodici": 3430,
      "rose": 3431,
      "capace": 3432,
      "pazi": 3433,
      "bimba": 3434,
      "fidu": 3435,
      "venuti": 3436,
      "baci": 3437,
      "gati": 3438,
      "impresa": 3439,
      "ssato": 3440,
      "fol": 3441,
      "guardia": 3442,
      "disgusto": 3443,
      "fecero": 3444,
      "scolo": 3445,
      "lume": 3446,
      "averlo": 3447,
      "boschi": 3448,
      "sarò": 3449,
      "abitazione": 3450,
      "sarete": 3451,
      "solitudine": 3452,
      "accomo": 3453,
      "opport": 3454,
      "sforzi": 3455,
      "potrei": 3456,
      "parlando": 3457,
      "quantità": 3458,
      "argomento": 3459,
      "Pure": 3460,
      "Brasile": 3461,
      "njanja": 3462,
      "Italia": 3463,
      "Ben": 3464,
      "Fa": 3465,
      "Gio": 3466,
      "Ino": 3467,
      "ava": 3468,
      "canti": 3469,
      "hl": 3470,
      "sgo": 3471,
      "tola": 3472,
      "togli": 3473,
      "divo": 3474,
      "realtà": 3475,
      "ricche": 3476,
      "rate": 3477,
      "razione": 3478,
      "varie": 3479,
      "chessa": 3480,
      "soc": 3481,
      "dover": 3482,
      "poca": 3483,
      "conge": 3484,
      "mostr": 3485,
      "dea": 3486,
      "passione": 3487,
      "fisi": 3488,
      "ggiò": 3489,
      "gramma": 3490,
      "minuto": 3491,
      "deser": 3492,
      "genero": 3493,
      "musica": 3494,
      "chiedeva": 3495,
      "servitù": 3496,
      "ragazzi": 3497,
      "Rivers": 3498,
      "decisione": 3499,
      "condurre": 3500,
      "desiderare": 3501,
      "appassi": 3502,
      "racconto": 3503,
      "abbandonato": 3504,
      "govern": 3505,
      "significato": 3506,
      "tristezza": 3507,
      "liberazione": 3508,
      "Due": 3509,
      "meraviglia": 3510,
      "Proprio": 3511,
      "villaggio": 3512,
      "violenza": 3513,
      "riposo": 3514,
      "collera": 3515,
      "indifferente": 3516,
      "uccelli": 3517,
      "facilmente": 3518,
      "amministratore": 3519,
      "ordinò": 3520,
      "palude": 3521,
      "maresciallo": 3522,
      "Inoltre": 3523,
      "Bu": 3524,
      "Petro": 3525,
      "mmi": 3526,
      "mali": 3527,
      "muni": 3528,
      "sò": 3529,
      "sbar": 3530,
      "ttuto": 3531,
      "disc": 3532,
      "dimeno": 3533,
      "dianzi": 3534,
      "reci": 3535,
      "remi": 3536,
      "infine": 3537,
      "sioni": 3538,
      "ricono": 3539,
      "popu": 3540,
      "mito": 3541,
      "vola": 3542,
      "viveva": 3543,
      "nor": 3544,
      "zattera": 3545,
      "fatte": 3546,
      "volere": 3547,
      "terri": 3548,
      "gai": 3549,
      "ranno": 3550,
      "fumo": 3551,
      "potea": 3552,
      "buone": 3553,
      "dovevo": 3554,
      "spalla": 3555,
      "ggiamento": 3556,
      "ziare": 3557,
      "domande": 3558,
      "esservi": 3559,
      "gnere": 3560,
      "tornai": 3561,
      "facesse": 3562,
      "abbiate": 3563,
      "urst": 3564,
      "dirlo": 3565,
      "correndo": 3566,
      "esistenza": 3567,
      "dimenticare": 3568,
      "arrivare": 3569,
      "considerazioni": 3570,
      "appari": 3571,
      "udito": 3572,
      "incontrato": 3573,
      "esprimere": 3574,
      "chiamò": 3575,
      "debbo": 3576,
      "leggeva": 3577,
      "religione": 3578,
      "memoria": 3579,
      "mormorò": 3580,
      "fiducia": 3581,
      "centi": 3582,
      "plo": 3583,
      "umano": 3584,
      "ška": 3585,
      "onesto": 3586,
      "dica": 3587,
      "diss": 3588,
      "anchi": 3589,
      "into": 3590,
      "sieno": 3591,
      "ripara": 3592,
      "tivi": 3593,
      "roso": 3594,
      "citta": 3595,
      "notò": 3596,
      "stero": 3597,
      "stavo": 3598,
      "peccato": 3599,
      "prof": 3600,
      "prigioni": 3601,
      "pensar": 3602,
      "terò": 3603,
      "immen": 3604,
      "cupo": 3605,
      "andrò": 3606,
      "appre": 3607,
      "potessero": 3608,
      "cercar": 3609,
      "primavera": 3610,
      "Quel": 3611,
      "cresci": 3612,
      "farne": 3613,
      "monte": 3614,
      "fermar": 3615,
      "Cosa": 3616,
      "centro": 3617,
      "ffici": 3618,
      "dendosi": 3619,
      "guardato": 3620,
      "consigli": 3621,
      "Roma": 3622,
      "saranno": 3623,
      "condotto": 3624,
      "Queste": 3625,
      "raccol": 3626,
      "chiuso": 3627,
      "brill": 3628,
      "riflettere": 3629,
      "Bianca": 3630,
      "cattiva": 3631,
      "influ": 3632,
      "tolse": 3633,
      "avverti": 3634,
      "sofferenza": 3635,
      "potente": 3636,
      "interessava": 3637,
      "scarpe": 3638,
      "Stahl": 3639,
      "pastore": 3640,
      "Mill": 3641,
      "gratitudine": 3642,
      ").": 3643,
      "Uno": 3644,
      "XV": 3645,
      "azioni": 3646,
      "agg": 3647,
      "cere": 3648,
      "hurst": 3649,
      "svel": 3650,
      "alti": 3651,
      "altezza": 3652,
      "core": 3653,
      "arli": 3654,
      "arne": 3655,
      "conti": 3656,
      "vocato": 3657,
      "viale": 3658,
      "medio": 3659,
      "note": 3660,
      "erai": 3661,
      "accio": 3662,
      "terre": 3663,
      "fussi": 3664,
      "allor": 3665,
      "fem": 3666,
      "carsi": 3667,
      "ock": 3668,
      "occhiata": 3669,
      "mormo": 3670,
      "uscito": 3671,
      "vecchie": 3672,
      "passata": 3673,
      "giunta": 3674,
      "vestita": 3675,
      "Rima": 3676,
      "decise": 3677,
      "lontana": 3678,
      "migliori": 3679,
      "Liza": 3680,
      "trasporta": 3681,
      "struzione": 3682,
      "profondo": 3683,
      "gentile": 3684,
      "Tem": 3685,
      "disagio": 3686,
      "Geor": 3687,
      "azzur": 3688,
      "00": 3689,
      "Bock": 3690,
      "Dal": 3691,
      "Ghi": 3692,
      "Im": 3693,
      "svi": 3694,
      "anze": 3695,
      "tagli": 3696,
      "elhurst": 3697,
      "ragioni": 3698,
      "domesti": 3699,
      "archi": 3700,
      "rom": 3701,
      "mister": 3702,
      "mati": 3703,
      "magnifi": 3704,
      "vimenti": 3705,
      "suffici": 3706,
      "nare": 3707,
      "famili": 3708,
      "verrà": 3709,
      "gatto": 3710,
      "stello": 3711,
      "appare": 3712,
      "morale": 3713,
      "quivi": 3714,
      "ggere": 3715,
      "destino": 3716,
      "vestiti": 3717,
      "Veni": 3718,
      "immaginare": 3719,
      "avvicinarsi": 3720,
      "amicizia": 3721,
      "profonda": 3722,
      "significa": 3723,
      "quaranta": 3724,
      "pienamente": 3725,
      "sofferenze": 3726,
      "straordinariamente": 3727,
      "cultà": 3728,
      "skaja": 3729,
      "energia": 3730,
      "colonnello": 3731,
      "organi": 3732,
      "sopracciglia": 3733,
      "Fra": 3734,
      "Gri": 3735,
      "aggi": 3736,
      "equi": 3737,
      "nar": 3738,
      "pì": 3739,
      "spara": 3740,
      "tron": 3741,
      "udire": 3742,
      "differ": 3743,
      "anzia": 3744,
      "realmente": 3745,
      "incre": 3746,
      "indov": 3747,
      "chino": 3748,
      "tasca": 3749,
      "riuni": 3750,
      "riconosc": 3751,
      "sott": 3752,
      "arle": 3753,
      "miseri": 3754,
      "sabbia": 3755,
      "vogli": 3756,
      "pigli": 3757,
      "notare": 3758,
      "ziona": 3759,
      "patrimonio": 3760,
      "orso": 3761,
      "fai": 3762,
      "iosa": 3763,
      "traversa": 3764,
      "provin": 3765,
      "ttare": 3766,
      "dua": 3767,
      "penoso": 3768,
      "adunque": 3769,
      "volmente": 3770,
      "trion": 3771,
      "apparve": 3772,
      "andati": 3773,
      "andavano": 3774,
      "gliava": 3775,
      "frase": 3776,
      "annoia": 3777,
      "poiché": 3778,
      "Però": 3779,
      "colare": 3780,
      "essermi": 3781,
      "affe": 3782,
      "utili": 3783,
      "gnò": 3784,
      "tarlo": 3785,
      "alzandosi": 3786,
      "schiena": 3787,
      "augu": 3788,
      "sicurezza": 3789,
      "conosciuta": 3790,
      "Michajlov": 3791,
      "sopportare": 3792,
      "rimaneva": 3793,
      "giustizia": 3794,
      "nervo": 3795,
      "canzone": 3796,
      "Soltanto": 3797,
      "skoj": 3798,
      "fazzoletto": 3799,
      "Temple": 3800,
      "Coni": 3801,
      "Sal": 3802,
      "Var": 3803,
      "bin": 3804,
      "eso": 3805,
      "fango": 3806,
      "ole": 3807,
      "ppur": 3808,
      "use": 3809,
      "dirmi": 3810,
      "latte": 3811,
      "reggi": 3812,
      "respin": 3813,
      "ridendo": 3814,
      "letti": 3815,
      "levò": 3816,
      "tirò": 3817,
      "domin": 3818,
      "arci": 3819,
      "contem": 3820,
      "sacri": 3821,
      "persua": 3822,
      "giana": 3823,
      "degno": 3824,
      "defini": 3825,
      "bianche": 3826,
      "avan": 3827,
      "uova": 3828,
      "proposta": 3829,
      "vennero": 3830,
      "imperio": 3831,
      "vine": 3832,
      "foglio": 3833,
      "specchio": 3834,
      "scosse": 3835,
      "ziosa": 3836,
      "venite": 3837,
      "trovata": 3838,
      "ggiava": 3839,
      "chiarezza": 3840,
      "diavolo": 3841,
      "grida": 3842,
      "lunghi": 3843,
      "passava": 3844,
      "offesa": 3845,
      "vedermi": 3846,
      "Voleva": 3847,
      "provò": 3848,
      "grotta": 3849,
      "lasciando": 3850,
      "difficultà": 3851,
      "riempi": 3852,
      "osservazione": 3853,
      "desiderando": 3854,
      "kov": 3855,
      "lancia": 3856,
      "guardarlo": 3857,
      "interroga": 3858,
      "scendere": 3859,
      "ospite": 3860,
      "valore": 3861,
      "impazi": 3862,
      "bontà": 3863,
      "stringendo": 3864,
      "arrossendo": 3865,
      "Francia": 3866,
      "giornali": 3867,
      "consisteva": 3868,
      "simpatia": 3869,
      "ognuno": 3870,
      "piroga": 3871,
      "Bockelhurst": 3872,
      "Coniglio": 3873,
      "Ba": 3874,
      "Pass": 3875,
      "XI": 3876,
      "balla": 3877,
      "done": 3878,
      "dante": 3879,
      "ev": 3880,
      "eter": 3881,
      "sfi": 3882,
      "trò": 3883,
      "valle": 3884,
      "diva": 3885,
      "divano": 3886,
      "dimento": 3887,
      "reste": 3888,
      "insi": 3889,
      "infatti": 3890,
      "insegna": 3891,
      "tarmi": 3892,
      "alun": 3893,
      "ricom": 3894,
      "tiro": 3895,
      "quand": 3896,
      "mamente": 3897,
      "cavo": 3898,
      "nonostante": 3899,
      "bianchi": 3900,
      "ssino": 3901,
      "furia": 3902,
      "sorpreso": 3903,
      "Qual": 3904,
      "Questi": 3905,
      "morti": 3906,
      "prati": 3907,
      "risposto": 3908,
      "inetto": 3909,
      "gento": 3910,
      "scusa": 3911,
      "alzando": 3912,
      "occupava": 3913,
      "mettermi": 3914,
      "selvaggio": 3915,
      "rapidamente": 3916,
      "esamin": 3917,
      "perfettamente": 3918,
      "pallida": 3919,
      "berre": 3920,
      "chieder": 3921,
      "penetra": 3922,
      "costoro": 3923,
      "abbracci": 3924,
      "Dmitric": 3925,
      "populo": 3926,
      "Georgiana": 3927,
      ".\"": 3928,
      "All": 3929,
      "Aspetta": 3930,
      "Bo": 3931,
      "Fe": 3932,
      "Kor": 3933,
      "Ogni": 3934,
      "pelli": 3935,
      "tomi": 3936,
      "dimo": 3937,
      "lad": 3938,
      "tasse": 3939,
      "tazza": 3940,
      "siano": 3941,
      "riferi": 3942,
      "lesse": 3943,
      "arà": 3944,
      "roman": 3945,
      "maestra": 3946,
      "macch": 3947,
      "pertanto": 3948,
      "permesso": 3949,
      "vile": 3950,
      "vezza": 3951,
      "metri": 3952,
      "succe": 3953,
      "determina": 3954,
      "noto": 3955,
      "nave": 3956,
      "stagione": 3957,
      "ttero": 3958,
      "vente": 3959,
      "rispe": 3960,
      "cercato": 3961,
      "gnare": 3962,
      "gnava": 3963,
      "allu": 3964,
      "finestre": 3965,
      "avermi": 3966,
      "pietra": 3967,
      "libero": 3968,
      "pensiere": 3969,
      "entrambi": 3970,
      "mettendo": 3971,
      "lasciava": 3972,
      "cavali": 3973,
      "offeso": 3974,
      "dirgli": 3975,
      "pesce": 3976,
      "incanto": 3977,
      "considerazione": 3978,
      "stento": 3979,
      "strani": 3980,
      "diverse": 3981,
      "vergogno": 3982,
      "Durante": 3983,
      "colpito": 3984,
      "ufficio": 3985,
      "nascondere": 3986,
      "innamorato": 3987,
      "scherzo": 3988,
      "eccellente": 3989,
      "cambiamento": 3990,
      "Volete": 3991,
      "bastimento": 3992,
      "reggimento": 3993,
      "Cono": 3994,
      "Essi": 3995,
      "Fro": 3996,
      "Por": 3997,
      "aspi": 3998,
      "ead": 3999,
      "gin": 4000,
      "gesto": 4001,
      "messi": 4002,
      "sforza": 4003,
      "tandosi": 4004,
      "vanno": 4005,
      "”,": 4006,
      "eranno": 4007,
      "dii": 4008,
      "regno": 4009,
      "chov": 4010,
      "tarono": 4011,
      "ridu": 4012,
      "ricu": 4013,
      "seta": 4014,
      "lire": 4015,
      "doveri": 4016,
      "mica": 4017,
      "conserva": 4018,
      "maestro": 4019,
      "pero": 4020,
      "visione": 4021,
      "mezzi": 4022,
      "stai": 4023,
      "parli": 4024,
      "aveano": 4025,
      "verde": 4026,
      "accol": 4027,
      "fieno": 4028,
      "duro": 4029,
      "ttrice": 4030,
      "scale": 4031,
      "bara": 4032,
      "rispar": 4033,
      "zzando": 4034,
      "semb": 4035,
      "appe": 4036,
      "approva": 4037,
      "Aless": 4038,
      "Laska": 4039,
      "credevo": 4040,
      "diresse": 4041,
      "pensate": 4042,
      "ziato": 4043,
      "desideri": 4044,
      "indipen": 4045,
      "guardavano": 4046,
      "consider": 4047,
      "questioni": 4048,
      "lavorato": 4049,
      "affretta": 4050,
      "ponte": 4051,
      "provare": 4052,
      "ricevere": 4053,
      "presentò": 4054,
      "ragionevole": 4055,
      "accadeva": 4056,
      "riuscito": 4057,
      "alzai": 4058,
      "afferrò": 4059,
      "ancorchè": 4060,
      "moschetti": 4061,
      "straordinaria": 4062,
      "debolezza": 4063,
      "scoperta": 4064,
      "Capi": 4065,
      "elegante": 4066,
      "superiore": 4067,
      "piccina": 4068,
      "sacrifi": 4069,
      "Frou": 4070,
      ".”": 4071,
      "Eli": 4072,
      "Par": 4073,
      "Son": 4074,
      "bron": 4075,
      "glo": 4076,
      "gano": 4077,
      "istin": 4078,
      "mes": 4079,
      "sb": 4080,
      "udì": 4081,
      "»,": 4082,
      "šk": 4083,
      "errore": 4084,
      "dicono": 4085,
      "costretto": 4086,
      "risa": 4087,
      "ritar": 4088,
      "espe": 4089,
      "cagione": 4090,
      "vite": 4091,
      "metto": 4092,
      "eremo": 4093,
      "stano": 4094,
      "strò": 4095,
      "famo": 4096,
      "traverso": 4097,
      "ssibile": 4098,
      "mancava": 4099,
      "termine": 4100,
      "battere": 4101,
      "vicin": 4102,
      "temere": 4103,
      "tempes": 4104,
      "russo": 4105,
      "gliati": 4106,
      "volevano": 4107,
      "unico": 4108,
      "interv": 4109,
      "aspettando": 4110,
      "lavori": 4111,
      "turb": 4112,
      "cominciarono": 4113,
      "scuro": 4114,
      "elezioni": 4115,
      "cambiato": 4116,
      "spero": 4117,
      "mettete": 4118,
      "potè": 4119,
      "irritato": 4120,
      "Alc": 4121,
      "assali": 4122,
      "Duchessa": 4123,
      "lievo": 4124,
      "quindici": 4125,
      "spiegazione": 4126,
      "educazione": 4127,
      "indifferenza": 4128,
      "scelta": 4129,
      "pressioni": 4130,
      "Grace": 4131,
      "influenza": 4132,
      "Mal": 4133,
      "Parla": 4134,
      "atro": 4135,
      "cera": 4136,
      "canto": 4137,
      "ott": 4138,
      "odore": 4139,
      "teso": 4140,
      "alo": 4141,
      "cori": 4142,
      "coda": 4143,
      "elmo": 4144,
      "ridi": 4145,
      "leg": 4146,
      "vata": 4147,
      "misera": 4148,
      "capa": 4149,
      "pito": 4150,
      "suppo": 4151,
      "zampe": 4152,
      "avvocato": 4153,
      "parso": 4154,
      "parlo": 4155,
      "verò": 4156,
      "dute": 4157,
      "mandar": 4158,
      "tenne": 4159,
      "colui": 4160,
      "puchov": 4161,
      "derò": 4162,
      "portata": 4163,
      "pratica": 4164,
      "Intanto": 4165,
      "ccò": 4166,
      "affetto": 4167,
      "Serpuchov": 4168,
      "lasciai": 4169,
      "tornava": 4170,
      "abitudine": 4171,
      "vedervi": 4172,
      "dirvi": 4173,
      "chiusi": 4174,
      "amato": 4175,
      "ordinato": 4176,
      "stanca": 4177,
      "diversi": 4178,
      "quadri": 4179,
      "naturalmente": 4180,
      "convinto": 4181,
      "rovina": 4182,
      "perdono": 4183,
      "confusione": 4184,
      "ucciso": 4185,
      "soddisfatto": 4186,
      "deriva": 4187,
      "potenti": 4188,
      "passeggiata": 4189,
      "gelosia": 4190,
      "ufficiale": 4191,
      "Karenina": 4192,
      "disprezzo": 4193,
      "miglior": 4194,
      "preghiera": 4195,
      "autorità": 4196,
      "governante": 4197,
      "Ghiro": 4198,
      "Griša": 4199,
      "Alessandro": 4200,
      "Serpuchovskoj": 4201,
      "?»": 4202,
      "Dunque": 4203,
      "Nell": 4204,
      "Oltre": 4205,
      "Stre": 4206,
      "amante": 4207,
      "gesse": 4208,
      "sfuggi": 4209,
      "distri": 4210,
      "inon": 4211,
      "infini": 4212,
      "tamento": 4213,
      "legato": 4214,
      "domina": 4215,
      "consue": 4216,
      "capri": 4217,
      "caduto": 4218,
      "caduta": 4219,
      "vie": 4220,
      "moto": 4221,
      "movimenti": 4222,
      "vedete": 4223,
      "stanco": 4224,
      "stagno": 4225,
      "andolo": 4226,
      "parto": 4227,
      "duca": 4228,
      "mantenere": 4229,
      "scino": 4230,
      "tena": 4231,
      "inoltre": 4232,
      "vicini": 4233,
      "aia": 4234,
      "cammin": 4235,
      "derà": 4236,
      "fratelli": 4237,
      "Andiamo": 4238,
      "creduto": 4239,
      "febbre": 4240,
      "entieri": 4241,
      "saltò": 4242,
      "cenno": 4243,
      "sorrideva": 4244,
      "servo": 4245,
      "inganno": 4246,
      "affli": 4247,
      "dentemente": 4248,
      "cavalla": 4249,
      "vederla": 4250,
      "guardandolo": 4251,
      "accade": 4252,
      "burra": 4253,
      "considerava": 4254,
      "abbandona": 4255,
      "profondamente": 4256,
      "coperte": 4257,
      "trattava": 4258,
      "stitui": 4259,
      "sollevò": 4260,
      "aggra": 4261,
      "confessa": 4262,
      "montagne": 4263,
      "Sapeva": 4264,
      "ottimo": 4265,
      "cantare": 4266,
      "curva": 4267,
      "filoso": 4268,
      "piaciuto": 4269,
      "principato": 4270,
      "genitori": 4271,
      "tappeto": 4272,
      "indispensabile": 4273,
      "Eppure": 4274,
      "Pesco": 4275,
      "Tor": 4276,
      "pà": 4277,
      "ruo": 4278,
      "scontento": 4279,
      "sguardi": 4280,
      "umani": 4281,
      "zò": 4282,
      "relazione": 4283,
      "tari": 4284,
      "teme": 4285,
      "costrui": 4286,
      "ritu": 4287,
      "ritra": 4288,
      "rami": 4289,
      "rarsi": 4290,
      "lettura": 4291,
      "seppi": 4292,
      "poste": 4293,
      "mata": 4294,
      "perce": 4295,
      "castello": 4296,
      "vio": 4297,
      "motivo": 4298,
      "piani": 4299,
      "vedi": 4300,
      "vedre": 4301,
      "delli": 4302,
      "eravate": 4303,
      "papà": 4304,
      "faccio": 4305,
      "avrà": 4306,
      "neppur": 4307,
      "sensi": 4308,
      "profi": 4309,
      "fisso": 4310,
      "ficazione": 4311,
      "mandare": 4312,
      "volentieri": 4313,
      "ciava": 4314,
      "zzino": 4315,
      "eneva": 4316,
      "ellata": 4317,
      "giovine": 4318,
      "derlo": 4319,
      "spiriti": 4320,
      "stico": 4321,
      "parlavano": 4322,
      "sping": 4323,
      "Tutte": 4324,
      "ricordare": 4325,
      "continuare": 4326,
      "Dov": 4327,
      "rimasi": 4328,
      "kaja": 4329,
      "ury": 4330,
      "seguiva": 4331,
      "servitore": 4332,
      "saremmo": 4333,
      "divenuto": 4334,
      "intera": 4335,
      "occupato": 4336,
      "visita": 4337,
      "Pilato": 4338,
      "tuoso": 4339,
      "raccontò": 4340,
      "raccontare": 4341,
      "Solo": 4342,
      "giudizio": 4343,
      "largo": 4344,
      "periodo": 4345,
      "creature": 4346,
      "cameriera": 4347,
      "sopporta": 4348,
      "ginocchia": 4349,
      "sperare": 4350,
      "religio": 4351,
      "sospirò": 4352,
      "materi": 4353,
      "materia": 4354,
      "arrossì": 4355,
      "trickij": 4356,
      "zuppa": 4357,
      "Spagnuo": 4358,
      "Petrickij": 4359,
      "scintill": 4360,
      "prodotto": 4361,
      "tedesco": 4362,
      "Pescov": 4363,
      "!...": 4364,
      "Dav": 4365,
      "Gate": 4366,
      "Tra": 4367,
      "ade": 4368,
      "bacco": 4369,
      "cesso": 4370,
      "mono": 4371,
      "melo": 4372,
      "svani": 4373,
      "tture": 4374,
      "usi": 4375,
      "lazioni": 4376,
      "comi": 4377,
      "rad": 4378,
      "razza": 4379,
      "raff": 4380,
      "timone": 4381,
      "dote": 4382,
      "espu": 4383,
      "populi": 4384,
      "rotta": 4385,
      "cipa": 4386,
      "cone": 4387,
      "mate": 4388,
      "vigo": 4389,
      "pisto": 4390,
      "pigliare": 4391,
      "vedevo": 4392,
      "debi": 4393,
      "noia": 4394,
      "avanza": 4395,
      "parente": 4396,
      "prodi": 4397,
      "corti": 4398,
      "addio": 4399,
      "terio": 4400,
      "bagno": 4401,
      "baciò": 4402,
      "scialle": 4403,
      "custo": 4404,
      "zzante": 4405,
      "spiritu": 4406,
      "buio": 4407,
      "amor": 4408,
      "antico": 4409,
      "mbre": 4410,
      "fermo": 4411,
      "spun": 4412,
      "salvezza": 4413,
      "esserci": 4414,
      "contenti": 4415,
      "ciotto": 4416,
      "stretti": 4417,
      "fonda": 4418,
      "accorger": 4419,
      "Sarebbe": 4420,
      "desiderato": 4421,
      "passando": 4422,
      "alzato": 4423,
      "Vasili": 4424,
      "dormito": 4425,
      "larghe": 4426,
      "parlò": 4427,
      "meraviglio": 4428,
      "shead": 4429,
      "solleci": 4430,
      "pallido": 4431,
      "Sapete": 4432,
      "cultura": 4433,
      "istitutrice": 4434,
      "bevuto": 4435,
      "oggetti": 4436,
      "Davvero": 4437,
      "Gateshead": 4438,
      "Vasilij": 4439,
      "!»": 4440,
      "?”.": 4441,
      "Euro": 4442,
      "Mor": 4443,
      "Nor": 4444,
      "Stava": 4445,
      "Sul": 4446,
      "Tver": 4447,
      "ara": 4448,
      "danno": 4449,
      "edi": 4450,
      "fero": 4451,
      "flu": 4452,
      "sanno": 4453,
      "vanni": 4454,
      "tarsi": 4455,
      "alquanto": 4456,
      "simo": 4457,
      "ricco": 4458,
      "riconoscere": 4459,
      "lev": 4460,
      "undici": 4461,
      "severo": 4462,
      "liti": 4463,
      "somiglia": 4464,
      "arre": 4465,
      "argento": 4466,
      "poe": 4467,
      "potendo": 4468,
      "mari": 4469,
      "pere": 4470,
      "vedevano": 4471,
      "nomina": 4472,
      "chiar": 4473,
      "chiave": 4474,
      "preten": 4475,
      "presero": 4476,
      "avven": 4477,
      "verà": 4478,
      "volgendosi": 4479,
      "impu": 4480,
      "foglie": 4481,
      "fossimo": 4482,
      "andando": 4483,
      "andarono": 4484,
      "strappa": 4485,
      "speciale": 4486,
      "viaggia": 4487,
      "parlar": 4488,
      "botte": 4489,
      "gridare": 4490,
      "Tušk": 4491,
      "guida": 4492,
      "mura": 4493,
      "intendere": 4494,
      "scrisse": 4495,
      "accorse": 4496,
      "cinquanta": 4497,
      "spiegare": 4498,
      "legger": 4499,
      "tornando": 4500,
      "diritti": 4501,
      "governo": 4502,
      "preparato": 4503,
      "roves": 4504,
      "svegli": 4505,
      "Nikolaevna": 4506,
      "sappia": 4507,
      "sinceri": 4508,
      "soffrire": 4509,
      "scoperto": 4510,
      "crudele": 4511,
      "crudeltà": 4512,
      "ginocchio": 4513,
      "uccello": 4514,
      "animale": 4515,
      "difetti": 4516,
      "sudditi": 4517,
      "Vorrei": 4518,
      "Giovanni": 4519,
      "differenza": 4520,
      "Malgrado": 4521,
      "Tuškevic": 4522,
      "Hai": 4523,
      "Kost": 4524,
      "bali": 4525,
      "messe": 4526,
      "ny": 4527,
      "sventura": 4528,
      "ule": 4529,
      "todo": 4530,
      "diste": 4531,
      "digni": 4532,
      "ansi": 4533,
      "anne": 4534,
      "angelo": 4535,
      "lam": 4536,
      "inven": 4537,
      "copri": 4538,
      "vara": 4539,
      "varia": 4540,
      "seco": 4541,
      "quer": 4542,
      "dobbiamo": 4543,
      "està": 4544,
      "sacer": 4545,
      "perple": 4546,
      "cada": 4547,
      "erebbe": 4548,
      "fasti": 4549,
      "presenti": 4550,
      "prezzo": 4551,
      "avrò": 4552,
      "pezze": 4553,
      "tramon": 4554,
      "ttava": 4555,
      "fila": 4556,
      "manda": 4557,
      "venni": 4558,
      "scru": 4559,
      "bastava": 4560,
      "gamba": 4561,
      "riser": 4562,
      "appi": 4563,
      "gettò": 4564,
      "tormenta": 4565,
      "grazi": 4566,
      "benefi": 4567,
      "direttrice": 4568,
      "trovar": 4569,
      "partita": 4570,
      "centina": 4571,
      "sorridere": 4572,
      "fresco": 4573,
      "ggeri": 4574,
      "usciva": 4575,
      "studi": 4576,
      "Semb": 4577,
      "barche": 4578,
      "passati": 4579,
      "ringrazia": 4580,
      "compagna": 4581,
      "entrai": 4582,
      "chiesi": 4583,
      "Vidi": 4584,
      "aspettavo": 4585,
      "decisa": 4586,
      "correvano": 4587,
      "conduceva": 4588,
      "malincon": 4589,
      "considerare": 4590,
      "aumen": 4591,
      "singo": 4592,
      "infanti": 4593,
      "infanzia": 4594,
      "guardarla": 4595,
      "eccessi": 4596,
      "gettato": 4597,
      "vedova": 4598,
      "terminato": 4599,
      "origin": 4600,
      "atter": 4601,
      "attri": 4602,
      "conoscete": 4603,
      "allontanò": 4604,
      "segreto": 4605,
      "danaro": 4606,
      "invidia": 4607,
      "Fili": 4608,
      "allegria": 4609,
      "soccorso": 4610,
      "cittadini": 4611,
      "allorchè": 4612,
      "Venite": 4613,
      "misericor": 4614,
      "burrasca": 4615,
      "Europa": 4616,
      "Kostja": 4617,
      "Cor": 4618,
      "bol": 4619,
      "bria": 4620,
      "osti": 4621,
      "sf": 4622,
      "sun": 4623,
      "sano": 4624,
      "sfo": 4625,
      "ttur": 4626,
      "ento": 4627,
      "lau": 4628,
      "lampa": 4629,
      "incora": 4630,
      "tabacco": 4631,
      "ricon": 4632,
      "rado": 4633,
      "legna": 4634,
      "vari": 4635,
      "seppe": 4636,
      "pover": 4637,
      "perdon": 4638,
      "vivi": 4639,
      "suad": 4640,
      "detti": 4641,
      "pavimento": 4642,
      "statura": 4643,
      "andola": 4644,
      "parvero": 4645,
      "progre": 4646,
      "promessa": 4647,
      "ggiando": 4648,
      "gusti": 4649,
      "gari": 4650,
      "impera": 4651,
      "porte": 4652,
      "certezza": 4653,
      "disposto": 4654,
      "andasse": 4655,
      "spese": 4656,
      "allun": 4657,
      "stica": 4658,
      "sorpren": 4659,
      "portar": 4660,
      "credete": 4661,
      "sollievo": 4662,
      "lumino": 4663,
      "prato": 4664,
      "maniere": 4665,
      "tatori": 4666,
      "cciato": 4667,
      "interno": 4668,
      "gridava": 4669,
      "stupore": 4670,
      "personale": 4671,
      "lento": 4672,
      "Giun": 4673,
      "entrata": 4674,
      "pongo": 4675,
      "ponendo": 4676,
      "piacque": 4677,
      "abiti": 4678,
      "denze": 4679,
      "offri": 4680,
      "cambiare": 4681,
      "divenne": 4682,
      "cessato": 4683,
      "vuoto": 4684,
      "intero": 4685,
      "occupazioni": 4686,
      "abbassa": 4687,
      "visibile": 4688,
      "avessimo": 4689,
      "rivolgendosi": 4690,
      "compiere": 4691,
      "arrossi": 4692,
      "blio": 4693,
      "lieve": 4694,
      "indomani": 4695,
      "pronunciò": 4696,
      "Marzo": 4697,
      "notizie": 4698,
      "Devo": 4699,
      "spaventato": 4700,
      "sinceramente": 4701,
      "graziosa": 4702,
      "bestie": 4703,
      "estraneo": 4704,
      "arrabbi": 4705,
      "stabilito": 4706,
      "ambiente": 4707,
      "comprensibile": 4708,
      "respiro": 4709,
      "gruppo": 4710,
      "sponda": 4711,
      "introdu": 4712,
      "singhiozzi": 4713,
      "ritardo": 4714,
      "Bru": 4715,
      "Cristo": 4716,
      "Tro": 4717,
      "ble": 4718,
      "tane": 4719,
      "distante": 4720,
      "repli": 4721,
      "informa": 4722,
      "china": 4723,
      "taglio": 4724,
      "cognata": 4725,
      "ramente": 4726,
      "rabile": 4727,
      "ley": 4728,
      "seggio": 4729,
      "seduti": 4730,
      "soggior": 4731,
      "cima": 4732,
      "caver": 4733,
      "cadde": 4734,
      "picchi": 4735,
      "devono": 4736,
      "menzo": 4737,
      "zii": 4738,
      "cevano": 4739,
      "nati": 4740,
      "ssioni": 4741,
      "fiss": 4742,
      "fiamma": 4743,
      "mandò": 4744,
      "scena": 4745,
      "volgeva": 4746,
      "battuto": 4747,
      "colle": 4748,
      "stor": 4749,
      "ford": 4750,
      "Lepre": 4751,
      "cure": 4752,
      "fummo": 4753,
      "gemmo": 4754,
      "giovano": 4755,
      "certe": 4756,
      "crescere": 4757,
      "soluzione": 4758,
      "morbi": 4759,
      "unione": 4760,
      "fermarsi": 4761,
      "panni": 4762,
      "dargli": 4763,
      "piatto": 4764,
      "affet": 4765,
      "ringrazi": 4766,
      "punti": 4767,
      "intendeva": 4768,
      "ghiaccio": 4769,
      "cintura": 4770,
      "bell": 4771,
      "Voglio": 4772,
      "cambiò": 4773,
      "cambiar": 4774,
      "entrando": 4775,
      "lontani": 4776,
      "desideravo": 4777,
      "mostrava": 4778,
      "arrivati": 4779,
      "falce": 4780,
      "uscendo": 4781,
      "Chie": 4782,
      "compiuto": 4783,
      "generalmente": 4784,
      "atteggiamento": 4785,
      "impeto": 4786,
      "tolto": 4787,
      "confuso": 4788,
      "legame": 4789,
      "straordinario": 4790,
      "resistere": 4791,
      "articolo": 4792,
      "peggiore": 4793,
      "sciocco": 4794,
      "sposato": 4795,
      "piantagione": 4796,
      "occorreva": 4797,
      "argomenti": 4798,
      "facilità": 4799,
      "splendi": 4800,
      "Può": 4801,
      "fantasia": 4802,
      "batteva": 4803,
      "governatore": 4804,
      "cristiano": 4805,
      "esperienza": 4806,
      "assur": 4807,
      "reputazione": 4808,
      "Pareva": 4809,
      "economia": 4810,
      "ricchezza": 4811,
      "svilu": 4812,
      "vogliono": 4813,
      "sacerdote": 4814,
      "Esh": 4815,
      "Ku": 4816,
      "Mio": 4817,
      "Spero": 4818,
      "Xury": 4819,
      "cess": 4820,
      "eva": 4821,
      "imi": 4822,
      "iudi": 4823,
      "lendo": 4824,
      "sale": 4825,
      "sposi": 4826,
      "tve": 4827,
      "tera": 4828,
      "insegn": 4829,
      "cher": 4830,
      "temeva": 4831,
      "ripu": 4832,
      "ricci": 4833,
      "rimpi": 4834,
      "rabbia": 4835,
      "vasso": 4836,
      "severa": 4837,
      "quio": 4838,
      "rotto": 4839,
      "lor": 4840,
      "capra": 4841,
      "cappo": 4842,
      "mostrò": 4843,
      "veduti": 4844,
      "sugli": 4845,
      "ttolo": 4846,
      "patri": 4847,
      "nemici": 4848,
      "parsi": 4849,
      "versità": 4850,
      "accare": 4851,
      "penosa": 4852,
      "volendo": 4853,
      "colà": 4854,
      "colpì": 4855,
      "rancore": 4856,
      "vinto": 4857,
      "inizi": 4858,
      "cervello": 4859,
      "russa": 4860,
      "nuvole": 4861,
      "fedele": 4862,
      "scoppi": 4863,
      "antichi": 4864,
      "farla": 4865,
      "dovetti": 4866,
      "lupi": 4867,
      "parlate": 4868,
      "calore": 4869,
      "abbon": 4870,
      "ingen": 4871,
      "pensione": 4872,
      "ccando": 4873,
      "perare": 4874,
      "grandezza": 4875,
      "gnarsi": 4876,
      "ponente": 4877,
      "tranne": 4878,
      "Possibile": 4879,
      "giunsi": 4880,
      "piaceri": 4881,
      "dirle": 4882,
      "ultime": 4883,
      "dicevo": 4884,
      "diventa": 4885,
      "ccata": 4886,
      "avrete": 4887,
      "burro": 4888,
      "necessarie": 4889,
      "liberato": 4890,
      "perdonare": 4891,
      "indovin": 4892,
      "cortesia": 4893,
      "debba": 4894,
      "debbono": 4895,
      "lungamente": 4896,
      "faccende": 4897,
      "palco": 4898,
      "vedemmo": 4899,
      "estranei": 4900,
      "addormenta": 4901,
      "ambizione": 4902,
      "energi": 4903,
      "curiosità": 4904,
      "guance": 4905,
      "semplici": 4906,
      "mettiamo": 4907,
      "nascosto": 4908,
      "immaginazione": 4909,
      "pubblica": 4910,
      "aiutante": 4911,
      "egualmente": 4912,
      "salutò": 4913,
      "evitare": 4914,
      "ottenere": 4915,
      "palizzata": 4916,
      "tribun": 4917,
      "avvenimento": 4918,
      "manifes": 4919,
      "deserto": 4920,
      "contemp": 4921,
      "lampada": 4922,
      "menzogna": 4923,
      "Eshton": 4924,
      "cappotto": 4925,
      "Ko": 4926,
      "Pë": 4927,
      "cel": 4928,
      "cli": 4929,
      "cell": 4930,
      "garsi": 4931,
      "itali": 4932,
      "nera": 4933,
      "uva": 4934,
      "eran": 4935,
      "onò": 4936,
      "dicia": 4937,
      "dissero": 4938,
      "ditemi": 4939,
      "rema": 4940,
      "remare": 4941,
      "tazioni": 4942,
      "tese": 4943,
      "telo": 4944,
      "cognato": 4945,
      "ricca": 4946,
      "vag": 4947,
      "var": 4948,
      "vapore": 4949,
      "sedendosi": 4950,
      "ardente": 4951,
      "cibo": 4952,
      "massima": 4953,
      "pieni": 4954,
      "vei": 4955,
      "metodo": 4956,
      "devi": 4957,
      "papa": 4958,
      "veruna": 4959,
      "provo": 4960,
      "ttato": 4961,
      "ssità": 4962,
      "mantello": 4963,
      "corrispon": 4964,
      "commissione": 4965,
      "tensione": 4966,
      "pranza": 4967,
      "stelle": 4968,
      "impi": 4969,
      "Matve": 4970,
      "fucile": 4971,
      "sentir": 4972,
      "gnazione": 4973,
      "derla": 4974,
      "dervi": 4975,
      "portai": 4976,
      "farle": 4977,
      "farvi": 4978,
      "ferì": 4979,
      "splendo": 4980,
      "averla": 4981,
      "salvo": 4982,
      "interessi": 4983,
      "darvi": 4984,
      "guardai": 4985,
      "sterline": 4986,
      "passaggio": 4987,
      "assue": 4988,
      "genera": 4989,
      "rinno": 4990,
      "finora": 4991,
      "Pote": 4992,
      "Poole": 4993,
      "orecchie": 4994,
      "avvicina": 4995,
      "interamente": 4996,
      "esiste": 4997,
      "osservazioni": 4998,
      "leggero": 4999,
      "nuovamente": 5000,
      "Contin": 5001,
      "alzata": 5002,
      "Poichè": 5003,
      "giudicare": 5004,
      "facea": 5005,
      "disperata": 5006,
      "croce": 5007,
      "collina": 5008,
      "intelligenza": 5009,
      "enormi": 5010,
      "raggiu": 5011,
      "rimorso": 5012,
      "frequen": 5013,
      "abituale": 5014,
      "eguale": 5015,
      "sistema": 5016,
      "entusiasmo": 5017,
      "beccacce": 5018,
      "telegramma": 5019,
      "Molto": 5020,
      "Ivanyc": 5021,
      "ingegno": 5022,
      "professo": 5023,
      "femmini": 5024,
      "apparecchi": 5025,
      "Varvara": 5026,
      "sembrò": 5027,
      "Bruco": 5028,
      "Pëtr": 5029,
      "Matvej": 5030,
      "Am": 5031,
      "Car": 5032,
      "Essa": 5033,
      "Nulla": 5034,
      "Oli": 5035,
      "Sp": 5036,
      "abile": 5037,
      "abilità": 5038,
      "banda": 5039,
      "cino": 5040,
      "cespu": 5041,
      "dè": 5042,
      "duo": 5043,
      "is": 5044,
      "obbe": 5045,
      "pani": 5046,
      "sella": 5047,
      "tristi": 5048,
      "ervi": 5049,
      "toglie": 5050,
      "ansia": 5051,
      "restare": 5052,
      "invano": 5053,
      "tavole": 5054,
      "taceva": 5055,
      "tema": 5056,
      "coro": 5057,
      "cogni": 5058,
      "sig": 5059,
      "ramo": 5060,
      "lette": 5061,
      "tirava": 5062,
      "socchi": 5063,
      "dozz": 5064,
      "confon": 5065,
      "perduta": 5066,
      "mobili": 5067,
      "gliendo": 5068,
      "subi": 5069,
      "nobil": 5070,
      "pala": 5071,
      "stanno": 5072,
      "nac": 5073,
      "nazione": 5074,
      "bicchiere": 5075,
      "chiunque": 5076,
      "chiacchi": 5077,
      "fascino": 5078,
      "prepar": 5079,
      "tratt": 5080,
      "ficato": 5081,
      "ttibile": 5082,
      "guanti": 5083,
      "vengono": 5084,
      "volger": 5085,
      "tenni": 5086,
      "tentati": 5087,
      "terza": 5088,
      "gatti": 5089,
      "improv": 5090,
      "foste": 5091,
      "endomi": 5092,
      "furio": 5093,
      "andrà": 5094,
      "stito": 5095,
      "fines": 5096,
      "trovarsi": 5097,
      "cciata": 5098,
      "serio": 5099,
      "giudice": 5100,
      "contenuto": 5101,
      "ringrazio": 5102,
      "posizioni": 5103,
      "lasciata": 5104,
      "lasciate": 5105,
      "mezzogiorno": 5106,
      "abitua": 5107,
      "abitanti": 5108,
      "agito": 5109,
      "agitato": 5110,
      "agitava": 5111,
      "fortezza": 5112,
      "portando": 5113,
      "grossa": 5114,
      "luoghi": 5115,
      "sembravano": 5116,
      "pericoli": 5117,
      "speranze": 5118,
      "chiamata": 5119,
      "necessaria": 5120,
      "strane": 5121,
      "trino": 5122,
      "risoluzione": 5123,
      "brutta": 5124,
      "disperato": 5125,
      "opinioni": 5126,
      "cortese": 5127,
      "medesima": 5128,
      "illuminò": 5129,
      "ttuale": 5130,
      "eserciti": 5131,
      "discutere": 5132,
      "sottili": 5133,
      "imparare": 5134,
      "mangiato": 5135,
      "animali": 5136,
      "coniu": 5137,
      "preghiere": 5138,
      "principati": 5139,
      "gonfi": 5140,
      "misura": 5141,
      "acchiappa": 5142,
      "provincia": 5143,
      "macchina": 5144,
      "appetito": 5145,
      "tribunale": 5146,
      "splendore": 5147,
      "Continu": 5148,
      "nobiltà": 5149,
      "Alle": 5150,
      "Abbo": 5151,
      "Col": 5152,
      "Fer": 5153,
      "Gatto": 5154,
      "Lu": 5155,
      "Ter": 5156,
      "Vol": 5157,
      "br": 5158,
      "cale": 5159,
      "cello": 5160,
      "dona": 5161,
      "dka": 5162,
      "gesti": 5163,
      "oppure": 5164,
      "us": 5165,
      "vina": 5166,
      "vul": 5167,
      "onesta": 5168,
      "tomba": 5169,
      "disegna": 5170,
      "insignifi": 5171,
      "cherò": 5172,
      "chinò": 5173,
      "testi": 5174,
      "colla": 5175,
      "coste": 5176,
      "vare": 5177,
      "quant": 5178,
      "sot": 5179,
      "esal": 5180,
      "pos": 5181,
      "miti": 5182,
      "maman": 5183,
      "permette": 5184,
      "catto": 5185,
      "nondimeno": 5186,
      "mela": 5187,
      "meni": 5188,
      "zion": 5189,
      "facoltà": 5190,
      "presse": 5191,
      "parsa": 5192,
      "uolo": 5193,
      "seno": 5194,
      "trascu": 5195,
      "fissò": 5196,
      "manco": 5197,
      "corsero": 5198,
      "pendio": 5199,
      "addi": 5200,
      "volgare": 5201,
      "imposse": 5202,
      "tremen": 5203,
      "forni": 5204,
      "vini": 5205,
      "Leah": 5206,
      "cuci": 5207,
      "allegri": 5208,
      "Andate": 5209,
      "Quale": 5210,
      "crede": 5211,
      "antica": 5212,
      "trovavano": 5213,
      "signorine": 5214,
      "saltare": 5215,
      "utamente": 5216,
      "ingino": 5217,
      "stromenti": 5218,
      "botti": 5219,
      "sapevano": 5220,
      "sottovoce": 5221,
      "esserne": 5222,
      "person": 5223,
      "chiedo": 5224,
      "tarla": 5225,
      "tornata": 5226,
      "marinai": 5227,
      "agitata": 5228,
      "irre": 5229,
      "ggeva": 5230,
      "decidere": 5231,
      "incess": 5232,
      "rimanente": 5233,
      "altrett": 5234,
      "condusse": 5235,
      "occupazione": 5236,
      "classe": 5237,
      "avreste": 5238,
      "ferito": 5239,
      "padroni": 5240,
      "ripetere": 5241,
      "formaggio": 5242,
      "udii": 5243,
      "militare": 5244,
      "mercen": 5245,
      "aut": 5246,
      "preparare": 5247,
      "attratti": 5248,
      "scorgeva": 5249,
      "brutto": 5250,
      "acceso": 5251,
      "larga": 5252,
      "inglesi": 5253,
      "club": 5254,
      "trattenendo": 5255,
      "probabile": 5256,
      "accenn": 5257,
      "simpatico": 5258,
      "opposto": 5259,
      "aprire": 5260,
      "offendere": 5261,
      "estranea": 5262,
      "inferiore": 5263,
      "timido": 5264,
      "Avrei": 5265,
      "scelto": 5266,
      "dintorni": 5267,
      "precedente": 5268,
      "membro": 5269,
      "comandante": 5270,
      "nervi": 5271,
      "accettare": 5272,
      "operai": 5273,
      "naufragio": 5274,
      "Tuttavia": 5275,
      "oggetto": 5276,
      "cordiale": 5277,
      "lavoratore": 5278,
      "mostrando": 5279,
      "riconobbe": 5280,
      "sufficiente": 5281,
      "vicinanza": 5282,
      "ruote": 5283,
      "scintillanti": 5284,
      "attribui": 5285,
      "improvviso": 5286,
      "Abbot": 5287,
      "?...": 5288,
      "Cam": 5289,
      "Tre": 5290,
      "Tanja": 5291,
      "ccava": 5292,
      "gall": 5293,
      "mun": 5294,
      "mandosi": 5295,
      "nere": 5296,
      "odi": 5297,
      "rca": 5298,
      "ugu": 5299,
      "dina": 5300,
      "dirsi": 5301,
      "dichiara": 5302,
      "red": 5303,
      "ines": 5304,
      "infuori": 5305,
      "inutili": 5306,
      "cho": 5307,
      "cote": 5308,
      "copia": 5309,
      "ritto": 5310,
      "rifiu": 5311,
      "riteneva": 5312,
      "ravano": 5313,
      "sogni": 5314,
      "sogge": 5315,
      "condan": 5316,
      "vodka": 5317,
      "mole": 5318,
      "mosse": 5319,
      "gliene": 5320,
      "veta": 5321,
      "suoni": 5322,
      "stanche": 5323,
      "orzo": 5324,
      "bimbo": 5325,
      "pregò": 5326,
      "avvia": 5327,
      "proge": 5328,
      "ttata": 5329,
      "ttima": 5330,
      "corta": 5331,
      "corda": 5332,
      "vengo": 5333,
      "tenuta": 5334,
      "gol": 5335,
      "baffi": 5336,
      "battu": 5337,
      "russi": 5338,
      "disce": 5339,
      "sentivano": 5340,
      "gravi": 5341,
      "spetto": 5342,
      "gliate": 5343,
      "Annu": 5344,
      "nubi": 5345,
      "Quello": 5346,
      "credei": 5347,
      "giornate": 5348,
      "fedeltà": 5349,
      "onava": 5350,
      "carriera": 5351,
      "fargli": 5352,
      "essione": 5353,
      "direttamente": 5354,
      "parlargli": 5355,
      "scatola": 5356,
      "inevita": 5357,
      "ingann": 5358,
      "domandare": 5359,
      "darle": 5360,
      "darono": 5361,
      "parecchie": 5362,
      "diate": 5363,
      "bolo": 5364,
      "continuo": 5365,
      "continente": 5366,
      "minu": 5367,
      "minaccia": 5368,
      "persino": 5369,
      "dovrebbe": 5370,
      "tarvi": 5371,
      "rimasti": 5372,
      "bei": 5373,
      "esattamente": 5374,
      "circolo": 5375,
      "alzarsi": 5376,
      "raccolto": 5377,
      "incro": 5378,
      "sposar": 5379,
      "rimaner": 5380,
      "tranquilli": 5381,
      "attentamente": 5382,
      "osservato": 5383,
      "apparire": 5384,
      "irritava": 5385,
      "irritazione": 5386,
      "dolori": 5387,
      "proprietà": 5388,
      "naturali": 5389,
      "precisamente": 5390,
      "maggiori": 5391,
      "Gugli": 5392,
      "orien": 5393,
      "probabilità": 5394,
      "avviò": 5395,
      "esercito": 5396,
      "innamorata": 5397,
      "appoggi": 5398,
      "membra": 5399,
      "ingannare": 5400,
      "Topo": 5401,
      "Grazie": 5402,
      "procedere": 5403,
      "vittoria": 5404,
      "sciocchezze": 5405,
      "Petrovna": 5406,
      "prigionieri": 5407,
      "Millcote": 5408,
      "indipendente": 5409,
      "tempesta": 5410,
      "Alcuni": 5411,
      "adempi": 5412,
      "debiti": 5413,
      "spirituale": 5414,
      "balia": 5415,
      "seggiola": 5416,
      "soggiorno": 5417,
      "caverna": 5418,
      "giovanotto": 5419,
      "vassoio": 5420,
      "Annuška": 5421,
      "Edo": 5422,
      "Esse": 5423,
      "Fate": 5424,
      "Mja": 5425,
      "Metro": 5426,
      "Scri": 5427,
      "Tami": 5428,
      "banco": 5429,
      "ist": 5430,
      "mul": 5431,
      "ncora": 5432,
      "tone": 5433,
      "ullo": 5434,
      "veste": 5435,
      "togra": 5436,
      "anello": 5437,
      "alte": 5438,
      "sito": 5439,
      "riguardo": 5440,
      "rabbri": 5441,
      "lezioni": 5442,
      "vaga": 5443,
      "quo": 5444,
      "polo": 5445,
      "poppa": 5446,
      "poveri": 5447,
      "pomeri": 5448,
      "rori": 5449,
      "rosamente": 5450,
      "sapre": 5451,
      "persi": 5452,
      "perdita": 5453,
      "mov": 5454,
      "ille": 5455,
      "piante": 5456,
      "vetri": 5457,
      "girare": 5458,
      "pazzo": 5459,
      "navic": 5460,
      "bicchi": 5461,
      "stasera": 5462,
      "nemico": 5463,
      "trovere": 5464,
      "pettina": 5465,
      "trava": 5466,
      "accusa": 5467,
      "fiam": 5468,
      "figlie": 5469,
      "dula": 5470,
      "mantener": 5471,
      "compiac": 5472,
      "compli": 5473,
      "volò": 5474,
      "volti": 5475,
      "voltandosi": 5476,
      "ciate": 5477,
      "avevate": 5478,
      "batti": 5479,
      "baga": 5480,
      "bascia": 5481,
      "gagliar": 5482,
      "coltello": 5483,
      "trema": 5484,
      "tremante": 5485,
      "fotogra": 5486,
      "sciocca": 5487,
      "curo": 5488,
      "semina": 5489,
      "incirca": 5490,
      "rum": 5491,
      "disin": 5492,
      "disposizioni": 5493,
      "stizza": 5494,
      "sorve": 5495,
      "portavano": 5496,
      "cresc": 5497,
      "indiri": 5498,
      "Sei": 5499,
      "soprav": 5500,
      "giura": 5501,
      "minestra": 5502,
      "Disse": 5503,
      "possiamo": 5504,
      "dandogli": 5505,
      "intendo": 5506,
      "cavall": 5507,
      "scriveva": 5508,
      "circonda": 5509,
      "pronti": 5510,
      "diventato": 5511,
      "ricever": 5512,
      "grosse": 5513,
      "grossi": 5514,
      "attu": 5515,
      "amata": 5516,
      "ascolto": 5517,
      "guari": 5518,
      "rieto": 5519,
      "condussi": 5520,
      "ccati": 5521,
      "potrà": 5522,
      "ripeteva": 5523,
      "sconveni": 5524,
      "passar": 5525,
      "incontrare": 5526,
      "dicesse": 5527,
      "esclamai": 5528,
      "andarsene": 5529,
      "angoscia": 5530,
      "fermato": 5531,
      "apparenza": 5532,
      "assal": 5533,
      "assun": 5534,
      "accese": 5535,
      "assor": 5536,
      "ammazz": 5537,
      "scendeva": 5538,
      "esprimeva": 5539,
      "svegliato": 5540,
      "perfetto": 5541,
      "velocità": 5542,
      "ricevuta": 5543,
      "sapesse": 5544,
      "sapessi": 5545,
      "ciascun": 5546,
      "ciascuna": 5547,
      "ufficiali": 5548,
      "Vedeva": 5549,
      "XXV": 5550,
      "falciata": 5551,
      "salire": 5552,
      "veleno": 5553,
      "discussione": 5554,
      "difesa": 5555,
      "fabbricarmi": 5556,
      "amministrazione": 5557,
      "scomparve": 5558,
      "tormentava": 5559,
      "politica": 5560,
      "parimente": 5561,
      "giornale": 5562,
      "eccetto": 5563,
      "naufragato": 5564,
      "fanciullo": 5565,
      "diversamente": 5566,
      "risultato": 5567,
      "pazienza": 5568,
      "pelliccia": 5569,
      "Elisa": 5570,
      "famoso": 5571,
      "supposi": 5572,
      "quercia": 5573,
      "incessante": 5574,
      "Guglielmo": 5575,
      "Edoardo": 5576,
      "Metrov": 5577,
      "Tamigi": 5578,
      "navicella": 5579,
      "!”.": 5580,
      "Bri": 5581,
      "Dent": 5582,
      "Et": 5583,
      "Sorri": 5584,
      "Scusa": 5585,
      "Sarà": 5586,
      "TO": 5587,
      "Ta": 5588,
      "Ush": 5589,
      "Vinizi": 5590,
      "cendo": 5591,
      "fil": 5592,
      "fante": 5593,
      "gor": 5594,
      "ispi": 5595,
      "istrui": 5596,
      "ju": 5597,
      "pano": 5598,
      "poni": 5599,
      "sgrazia": 5600,
      "usare": 5601,
      "ubria": 5602,
      "vell": 5603,
      "erli": 5604,
      "disegni": 5605,
      "divina": 5606,
      "reso": 5607,
      "infor": 5608,
      "tasi": 5609,
      "altr": 5610,
      "rite": 5611,
      "ramma": 5612,
      "vada": 5613,
      "sepol": 5614,
      "segnato": 5615,
      "sedersi": 5616,
      "sost": 5617,
      "espresso": 5618,
      "mistero": 5619,
      "cad": 5620,
      "viamo": 5621,
      "moder": 5622,
      "pipa": 5623,
      "pittore": 5624,
      "degna": 5625,
      "desola": 5626,
      "turo": 5627,
      "pato": 5628,
      "pati": 5629,
      "padella": 5630,
      "stris": 5631,
      "bir": 5632,
      "bita": 5633,
      "pregato": 5634,
      "nebbia": 5635,
      "iori": 5636,
      "traccia": 5637,
      "verrò": 5638,
      "prove": 5639,
      "processo": 5640,
      "accal": 5641,
      "fir": 5642,
      "fissi": 5643,
      "fidanza": 5644,
      "ttone": 5645,
      "comprendere": 5646,
      "volli": 5647,
      "esseri": 5648,
      "ciamb": 5649,
      "terà": 5650,
      "gola": 5651,
      "batta": 5652,
      "bacio": 5653,
      "gazione": 5654,
      "gaia": 5655,
      "rane": 5656,
      "andr": 5657,
      "apposta": 5658,
      "cercò": 5659,
      "sentirsi": 5660,
      "allegre": 5661,
      "stima": 5662,
      "busto": 5663,
      "credi": 5664,
      "scogli": 5665,
      "annoi": 5666,
      "farci": 5667,
      "lusso": 5668,
      "capii": 5669,
      "uniforme": 5670,
      "pieto": 5671,
      "prendi": 5672,
      "interna": 5673,
      "calze": 5674,
      "darò": 5675,
      "Sem": 5676,
      "carezze": 5677,
      "perato": 5678,
      "passate": 5679,
      "affre": 5680,
      "amiche": 5681,
      "rendeva": 5682,
      "desta": 5683,
      "dovrei": 5684,
      "entrarono": 5685,
      "turalmente": 5686,
      "musco": 5687,
      "Posso": 5688,
      "aspettate": 5689,
      "osservando": 5690,
      "oppri": 5691,
      "incanta": 5692,
      "llera": 5693,
      "schio": 5694,
      "abbass": 5695,
      "visitare": 5696,
      "ghese": 5697,
      "rapporto": 5698,
      "Più": 5699,
      "osservava": 5700,
      "saperlo": 5701,
      "potrò": 5702,
      "tuoi": 5703,
      "ripetè": 5704,
      "deliziosa": 5705,
      "preparativi": 5706,
      "fermamente": 5707,
      "risoluto": 5708,
      "scorgere": 5709,
      "cattive": 5710,
      "Sofia": 5711,
      "convincer": 5712,
      "spettacolo": 5713,
      "uccidere": 5714,
      "salvare": 5715,
      "scuole": 5716,
      "rapido": 5717,
      "stranamente": 5718,
      "possesso": 5719,
      "eccitata": 5720,
      "spaventata": 5721,
      "incontrò": 5722,
      "accompagn": 5723,
      "cassetta": 5724,
      "Pensai": 5725,
      "spaventoso": 5726,
      "montagna": 5727,
      "imparato": 5728,
      "eccellenza": 5729,
      "Bisognava": 5730,
      "semplicità": 5731,
      "rimprovero": 5732,
      "rimprovera": 5733,
      "galoppo": 5734,
      "valigia": 5735,
      "misure": 5736,
      "Naturalmente": 5737,
      "ostacoli": 5738,
      "figliuoli": 5739,
      "innocente": 5740,
      "ragiona": 5741,
      "campana": 5742,
      "salutare": 5743,
      "conforto": 5744,
      "conveniente": 5745,
      "circostanze": 5746,
      "costui": 5747,
      "brillava": 5748,
      "discre": 5749,
      "nord": 5750,
      "Lizaveta": 5751,
      "aggiu": 5752,
      "impazienza": 5753,
      "Feci": 5754,
      "intervallo": 5755,
      "miserabile": 5756,
      "Tverskaja": 5757,
      "cessò": 5758,
      "professore": 5759,
      "Oliver": 5760,
      "finestrino": 5761,
      "autun": 5762,
      "Mjag": 5763,
      "Usher": 5764,
      "Viniziani": 5765,
      "Avendo": 5766,
      "Ces": 5767,
      "Fui": 5768,
      "Ieri": 5769,
      "Landa": 5770,
      "Tanto": 5771,
      "drò": 5772,
      "dston": 5773,
      "gini": 5774,
      "istruzione": 5775,
      "nale": 5776,
      "ppie": 5777,
      "sí": 5778,
      "ves": 5779,
      "yn": 5780,
      "’.": 5781,
      "topo": 5782,
      "dista": 5783,
      "disor": 5784,
      "distretto": 5785,
      "rea": 5786,
      "respon": 5787,
      "ind": 5788,
      "inda": 5789,
      "incomprensibile": 5790,
      "coprì": 5791,
      "costruzione": 5792,
      "rifu": 5793,
      "riguardava": 5794,
      "riscal": 5795,
      "rar": 5796,
      "vasi": 5797,
      "vasta": 5798,
      "secoli": 5799,
      "tis": 5800,
      "dori": 5801,
      "dott": 5802,
      "argli": 5803,
      "esporre": 5804,
      "conqui": 5805,
      "sappi": 5806,
      "mattino": 5807,
      "persuad": 5808,
      "cassa": 5809,
      "viv": 5810,
      "delu": 5811,
      "dedi": 5812,
      "orlo": 5813,
      "bizz": 5814,
      "biblio": 5815,
      "preda": 5816,
      "pregare": 5817,
      "prossimo": 5818,
      "procacci": 5819,
      "accu": 5820,
      "fici": 5821,
      "fias": 5822,
      "durò": 5823,
      "manti": 5824,
      "manca": 5825,
      "manten": 5826,
      "tende": 5827,
      "tentato": 5828,
      "llare": 5829,
      "bast": 5830,
      "gala": 5831,
      "colline": 5832,
      "imper": 5833,
      "puro": 5834,
      "vinci": 5835,
      "rischio": 5836,
      "torto": 5837,
      "gnati": 5838,
      "grasso": 5839,
      "spett": 5840,
      "molle": 5841,
      "portarono": 5842,
      "onario": 5843,
      "capisci": 5844,
      "capitale": 5845,
      "trovati": 5846,
      "bravo": 5847,
      "uscirono": 5848,
      "bisogni": 5849,
      "giurati": 5850,
      "minente": 5851,
      "continuai": 5852,
      "assenza": 5853,
      "minato": 5854,
      "dovessi": 5855,
      "terrazza": 5856,
      "muri": 5857,
      "color": 5858,
      "marina": 5859,
      "denari": 5860,
      "esag": 5861,
      "agire": 5862,
      "aspettavano": 5863,
      "seguita": 5864,
      "scegliere": 5865,
      "racconta": 5866,
      "accosta": 5867,
      "inclina": 5868,
      "guardandola": 5869,
      "talmente": 5870,
      "animata": 5871,
      "freddezza": 5872,
      "classi": 5873,
      "immaginava": 5874,
      "ferita": 5875,
      "spiegò": 5876,
      "tornarono": 5877,
      "formato": 5878,
      "malati": 5879,
      "profondità": 5880,
      "Niente": 5881,
      "apparten": 5882,
      "dolcezza": 5883,
      "rivolger": 5884,
      "convinta": 5885,
      "sovr": 5886,
      "francesi": 5887,
      "uccisi": 5888,
      "lieto": 5889,
      "lieta": 5890,
      "trattenere": 5891,
      "deboli": 5892,
      "privato": 5893,
      "potenza": 5894,
      "aiutare": 5895,
      "Vedo": 5896,
      "sincero": 5897,
      "sposata": 5898,
      "grazioso": 5899,
      "orgogliosa": 5900,
      "dritto": 5901,
      "vantaggi": 5902,
      "sperava": 5903,
      "ding": 5904,
      "canotto": 5905,
      "umiliazione": 5906,
      "rimorchio": 5907,
      "penetran": 5908,
      "ostina": 5909,
      "frequenti": 5910,
      "offerta": 5911,
      "solitaria": 5912,
      "ostacolo": 5913,
      "seriamente": 5914,
      "studiare": 5915,
      "sospetto": 5916,
      "rifiuto": 5917,
      "illuminata": 5918,
      "distingu": 5919,
      "immobile": 5920,
      "terribilmente": 5921,
      "brillante": 5922,
      "ricompensa": 5923,
      "esaminando": 5924,
      "berretto": 5925,
      "dimora": 5926,
      "espedi": 5927,
      "umanità": 5928,
      "Morton": 5929,
      "Nordston": 5930,
      "malinconi": 5931,
      "originale": 5932,
      "sfera": 5933,
      "riconcili": 5934,
      "femminile": 5935,
      "palazzo": 5936,
      "nacque": 5937,
      "Mjagkaja": 5938,
      "Landau": 5939,
      "bibliote": 5940,
      "Ber": 5941,
      "Fino": 5942,
      "LO": 5943,
      "Né": 5944,
      "Pa": 5945,
      "Presto": 5946,
      "St": 5947,
      "Usci": 5948,
      "cella": 5949,
      "cine": 5950,
      "crava": 5951,
      "etti": 5952,
      "ego": 5953,
      "ginna": 5954,
      "ivi": 5955,
      "istru": 5956,
      "lero": 5957,
      "olo": 5958,
      "ppar": 5959,
      "pall": 5960,
      "ppio": 5961,
      "rale": 5962,
      "zando": 5963,
      "zny": 5964,
      "âncora": 5965,
      "disap": 5966,
      "ang": 5967,
      "relazioni": 5968,
      "insopporta": 5969,
      "tavol": 5970,
      "teatro": 5971,
      "costante": 5972,
      "costretta": 5973,
      "sigare": 5974,
      "riguarda": 5975,
      "rimar": 5976,
      "ricolto": 5977,
      "raso": 5978,
      "rassi": 5979,
      "vaso": 5980,
      "sess": 5981,
      "tici": 5982,
      "rosi": 5983,
      "confron": 5984,
      "conviene": 5985,
      "cagioni": 5986,
      "vieni": 5987,
      "gliarsi": 5988,
      "piene": 5989,
      "menza": 5990,
      "nol": 5991,
      "ziale": 5992,
      "patate": 5993,
      "anotte": 5994,
      "nastri": 5995,
      "biasi": 5996,
      "fato": 5997,
      "avuta": 5998,
      "partì": 5999,
      "prossima": 6000,
      "accento": 6001,
      "dubito": 6002,
      "tteri": 6003,
      "guai": 6004,
      "mandava": 6005,
      "mandata": 6006,
      "inaspetta": 6007,
      "scell": 6008,
      "volsi": 6009,
      "bato": 6010,
      "stette": 6011,
      "immer": 6012,
      "imbara": 6013,
      "impadroni": 6014,
      "porsi": 6015,
      "Mai": 6016,
      "zzazione": 6017,
      "culo": 6018,
      "fur": 6019,
      "camere": 6020,
      "gioioso": 6021,
      "ruina": 6022,
      "andatura": 6023,
      "sentite": 6024,
      "sentiero": 6025,
      "stia": 6026,
      "ambascia": 6027,
      "Anch": 6028,
      "portati": 6029,
      "creato": 6030,
      "carlo": 6031,
      "direttore": 6032,
      "università": 6033,
      "spal": 6034,
      "Comin": 6035,
      "Mia": 6036,
      "siepe": 6037,
      "catore": 6038,
      "Sebbene": 6039,
      "dioso": 6040,
      "consigliere": 6041,
      "barriera": 6042,
      "vecchietto": 6043,
      "Domani": 6044,
      "rendita": 6045,
      "desja": 6046,
      "contraria": 6047,
      "strepito": 6048,
      "candele": 6049,
      "lasciati": 6050,
      "betu": 6051,
      "marmo": 6052,
      "abbiano": 6053,
      "offr": 6054,
      "vestibolo": 6055,
      "servire": 6056,
      "cessare": 6057,
      "giaceva": 6058,
      "presentava": 6059,
      "sperando": 6060,
      "seguendo": 6061,
      "tenevano": 6062,
      "abbandonata": 6063,
      "trasferi": 6064,
      "liberale": 6065,
      "dormiva": 6066,
      "brezza": 6067,
      "Chiesa": 6068,
      "proprietari": 6069,
      "intimi": 6070,
      "risolvere": 6071,
      "apparteneva": 6072,
      "dolcemente": 6073,
      "convinzione": 6074,
      "preciso": 6075,
      "cercai": 6076,
      "provvigioni": 6077,
      "esprimer": 6078,
      "indole": 6079,
      "legati": 6080,
      "esaminare": 6081,
      "pericolosa": 6082,
      "cchiava": 6083,
      "versando": 6084,
      "separazione": 6085,
      "bellissimo": 6086,
      "umido": 6087,
      "sollevando": 6088,
      "Tit": 6089,
      "orgoglioso": 6090,
      "asciutto": 6091,
      "schiavi": 6092,
      "comprare": 6093,
      "membri": 6094,
      "commozione": 6095,
      "opere": 6096,
      "impiegato": 6097,
      "zucch": 6098,
      "Spagna": 6099,
      "fanciulla": 6100,
      "inchinò": 6101,
      "pasticcio": 6102,
      "scoprire": 6103,
      "Benché": 6104,
      "magnifica": 6105,
      "familiare": 6106,
      "dominio": 6107,
      "rispetta": 6108,
      "cavaliere": 6109,
      "lavoratori": 6110,
      "cortile": 6111,
      "sincerità": 6112,
      "cadavere": 6113,
      "infantile": 6114,
      "eccessiva": 6115,
      "misericordia": 6116,
      "sorprendente": 6117,
      "Kuz": 6118,
      "inginocchi": 6119,
      "mercenna": 6120,
      "pomeriggio": 6121,
      "Cesare": 6122,
      "biblioteca": 6123,
      "znyš": 6124,
      "!\"": 6125,
      "Abbiamo": 6126,
      "Beni": 6127,
      "CA": 6128,
      "Carlo": 6129,
      "Desi": 6130,
      "Fë": 6131,
      "Gla": 6132,
      "Lyn": 6133,
      "PI": 6134,
      "astu": 6135,
      "bera": 6136,
      "bran": 6137,
      "banch": 6138,
      "eco": 6139,
      "epi": 6140,
      "empi": 6141,
      "ira": 6142,
      "isole": 6143,
      "mona": 6144,
      "odo": 6145,
      "obi": 6146,
      "pò": 6147,
      "rrò": 6148,
      "slan": 6149,
      "sdra": 6150,
      "tana": 6151,
      "uli": 6152,
      "umane": 6153,
      "disto": 6154,
      "distre": 6155,
      "anna": 6156,
      "ansie": 6157,
      "enzia": 6158,
      "late": 6159,
      "rese": 6160,
      "recente": 6161,
      "inn": 6162,
      "incu": 6163,
      "incominciò": 6164,
      "infelicità": 6165,
      "chin": 6166,
      "sil": 6167,
      "rii": 6168,
      "riconosceva": 6169,
      "ritornò": 6170,
      "riguardi": 6171,
      "semi": 6172,
      "secca": 6173,
      "soleva": 6174,
      "somigli": 6175,
      "doppia": 6176,
      "ciono": 6177,
      "consu": 6178,
      "consul": 6179,
      "conveniva": 6180,
      "confermò": 6181,
      "mara": 6182,
      "massime": 6183,
      "caute": 6184,
      "catena": 6185,
      "moda": 6186,
      "gliandosi": 6187,
      "vediamo": 6188,
      "devole": 6189,
      "mentale": 6190,
      "passer": 6191,
      "pagare": 6192,
      "avvenne": 6193,
      "avventura": 6194,
      "verste": 6195,
      "propor": 6196,
      "privo": 6197,
      "accura": 6198,
      "ficare": 6199,
      "fiato": 6200,
      "fisica": 6201,
      "ggiavano": 6202,
      "mancare": 6203,
      "mandai": 6204,
      "compenso": 6205,
      "scro": 6206,
      "volu": 6207,
      "tengo": 6208,
      "gomito": 6209,
      "bari": 6210,
      "stese": 6211,
      "impronta": 6212,
      "porcell": 6213,
      "puscolo": 6214,
      "vincere": 6215,
      "Maša": 6216,
      "foresti": 6217,
      "foresta": 6218,
      "fuga": 6219,
      "futura": 6220,
      "Nondimeno": 6221,
      "strato": 6222,
      "cammo": 6223,
      "temelo": 6224,
      "gioi": 6225,
      "discorrere": 6226,
      "sentita": 6227,
      "grato": 6228,
      "sorprese": 6229,
      "ampia": 6230,
      "duecento": 6231,
      "credendo": 6232,
      "cresce": 6233,
      "anticamera": 6234,
      "carina": 6235,
      "farli": 6236,
      "Perdona": 6237,
      "unicamente": 6238,
      "mond": 6239,
      "monti": 6240,
      "spesa": 6241,
      "partecipa": 6242,
      "Invece": 6243,
      "calza": 6244,
      "calesse": 6245,
      "liberi": 6246,
      "grigi": 6247,
      "soprabito": 6248,
      "passavano": 6249,
      "ricordato": 6250,
      "comparire": 6251,
      "cuoca": 6252,
      "condotti": 6253,
      "accesso": 6254,
      "intento": 6255,
      "abitato": 6256,
      "accorto": 6257,
      "cinto": 6258,
      "ironi": 6259,
      "scese": 6260,
      "sareste": 6261,
      "lasciarmi": 6262,
      "ascoltando": 6263,
      "ordinare": 6264,
      "ordinario": 6265,
      "occupata": 6266,
      "dolente": 6267,
      "spiegar": 6268,
      "osservai": 6269,
      "leggera": 6270,
      "racconti": 6271,
      "udiva": 6272,
      "avvicinandosi": 6273,
      "assistere": 6274,
      "colloquio": 6275,
      "attraente": 6276,
      "carità": 6277,
      "scorse": 6278,
      "precisione": 6279,
      "provvigione": 6280,
      "interrom": 6281,
      "divise": 6282,
      "confuse": 6283,
      "acquista": 6284,
      "meravigliata": 6285,
      "minore": 6286,
      "perfetta": 6287,
      "perfezione": 6288,
      "indul": 6289,
      "tenermi": 6290,
      "versò": 6291,
      "veloce": 6292,
      "falciare": 6293,
      "opposta": 6294,
      "favorevole": 6295,
      "ammirazione": 6296,
      "Guarda": 6297,
      "rammenta": 6298,
      "segreti": 6299,
      "timidezza": 6300,
      "concepi": 6301,
      "armati": 6302,
      "precedenti": 6303,
      "sostenere": 6304,
      "fantasti": 6305,
      "battendo": 6306,
      "conclusione": 6307,
      "galo": 6308,
      "protezione": 6309,
      "Tomma": 6310,
      "oscurità": 6311,
      "ammogliato": 6312,
      "pretesto": 6313,
      "skoe": 6314,
      "diping": 6315,
      "Volevo": 6316,
      "giacchè": 6317,
      "Pensavo": 6318,
      "bestiame": 6319,
      "lineamenti": 6320,
      "dolorosa": 6321,
      "apparivano": 6322,
      "azzurro": 6323,
      "sotter": 6324,
      "interrogativamente": 6325,
      "eterna": 6326,
      "alunne": 6327,
      "abbracciò": 6328,
      "lady": 6329,
      "risparmia": 6330,
      "approvazione": 6331,
      "Stremov": 6332,
      "capriccio": 6333,
      "percettibile": 6334,
      "Spagnuolo": 6335,
      "raddri": 6336,
      "raffred": 6337,
      "imperatore": 6338,
      "replicò": 6339,
      "scoppiò": 6340,
      "Koznyš": 6341,
      "circondavano": 6342,
      "Lynn": 6343,
      "banchina": 6344,
      "Koznyšev": 6345,
      "At": 6346,
      "Ehi": 6347,
      "Gre": 6348,
      "Nè": 6349,
      "Pren": 6350,
      "Passa": 6351,
      "Prov": 6352,
      "Rja": 6353,
      "Sca": 6354,
      "Sai": 6355,
      "agio": 6356,
      "bino": 6357,
      "canno": 6358,
      "cali": 6359,
      "dessero": 6360,
      "esempli": 6361,
      "euro": 6362,
      "fr": 6363,
      "gle": 6364,
      "rone": 6365,
      "sma": 6366,
      "spu": 6367,
      "smor": 6368,
      "sarsi": 6369,
      "sbal": 6370,
      "um": 6371,
      "usu": 6372,
      "diso": 6373,
      "dichia": 6374,
      "divisi": 6375,
      "diveniva": 6376,
      "annu": 6377,
      "enta": 6378,
      "lasc": 6379,
      "reale": 6380,
      "restava": 6381,
      "inca": 6382,
      "infa": 6383,
      "insensa": 6384,
      "taci": 6385,
      "temo": 6386,
      "costrin": 6387,
      "rimento": 6388,
      "rideva": 6389,
      "rimedio": 6390,
      "legi": 6391,
      "lido": 6392,
      "tisi": 6393,
      "tirato": 6394,
      "timori": 6395,
      "espressioni": 6396,
      "espresse": 6397,
      "contri": 6398,
      "consegn": 6399,
      "massimo": 6400,
      "maestre": 6401,
      "cala": 6402,
      "cacio": 6403,
      "viotto": 6404,
      "mosco": 6405,
      "gliardo": 6406,
      "piccio": 6407,
      "vetro": 6408,
      "notava": 6409,
      "ttori": 6410,
      "paglia": 6411,
      "pattina": 6412,
      "chiamo": 6413,
      "stalla": 6414,
      "uopo": 6415,
      "uomi": 6416,
      "traffi": 6417,
      "vermi": 6418,
      "acciò": 6419,
      "fica": 6420,
      "fitta": 6421,
      "ttini": 6422,
      "corru": 6423,
      "corona": 6424,
      "ventù": 6425,
      "essina": 6426,
      "bastante": 6427,
      "imbarca": 6428,
      "ranza": 6429,
      "Macho": 6430,
      "sciol": 6431,
      "cupa": 6432,
      "zzon": 6433,
      "appro": 6434,
      "strade": 6435,
      "caminetto": 6436,
      "gevo": 6437,
      "gioie": 6438,
      "dispetto": 6439,
      "andammo": 6440,
      "sentirmi": 6441,
      "gradi": 6442,
      "spezz": 6443,
      "dergli": 6444,
      "sullo": 6445,
      "Anzi": 6446,
      "Ancora": 6447,
      "scotendo": 6448,
      "cciò": 6449,
      "altrove": 6450,
      "finì": 6451,
      "parlarne": 6452,
      "fermandosi": 6453,
      "India": 6454,
      "partiti": 6455,
      "partimento": 6456,
      "scato": 6457,
      "Cos": 6458,
      "calpes": 6459,
      "serena": 6460,
      "catori": 6461,
      "indicò": 6462,
      "diator": 6463,
      "guardate": 6464,
      "guardavo": 6465,
      "parag": 6466,
      "continui": 6467,
      "ccino": 6468,
      "giurato": 6469,
      "ricorda": 6470,
      "grandemente": 6471,
      "continuando": 6472,
      "dest": 6473,
      "Dietro": 6474,
      "cominciavano": 6475,
      "stridula": 6476,
      "cannon": 6477,
      "principessina": 6478,
      "piacciono": 6479,
      "scricchio": 6480,
      "abisso": 6481,
      "agitando": 6482,
      "vederti": 6483,
      "dirà": 6484,
      "fortemente": 6485,
      "portone": 6486,
      "divenuta": 6487,
      "riceve": 6488,
      "Rea": 6489,
      "pescare": 6490,
      "presentato": 6491,
      "conduttore": 6492,
      "dissima": 6493,
      "mettemmo": 6494,
      "mostrato": 6495,
      "mostrare": 6496,
      "tuosa": 6497,
      "delizioso": 6498,
      "milioni": 6499,
      "caratteri": 6500,
      "attraversa": 6501,
      "carica": 6502,
      "mangiar": 6503,
      "fermata": 6504,
      "importanti": 6505,
      "compito": 6506,
      "esecu": 6507,
      "guardarmi": 6508,
      "cercavo": 6509,
      "legata": 6510,
      "svegliò": 6511,
      "avversione": 6512,
      "vivamente": 6513,
      "sofferto": 6514,
      "rapida": 6515,
      "orizzon": 6516,
      "indubita": 6517,
      "borsa": 6518,
      "palo": 6519,
      "simpatica": 6520,
      "artista": 6521,
      "falciato": 6522,
      "attacca": 6523,
      "conoscevano": 6524,
      "accigliato": 6525,
      "stupido": 6526,
      "affitto": 6527,
      "asciutta": 6528,
      "infermi": 6529,
      "prua": 6530,
      "eccellenti": 6531,
      "canotti": 6532,
      "ingannato": 6533,
      "ppò": 6534,
      "tormentato": 6535,
      "superfi": 6536,
      "linguaggio": 6537,
      "Entra": 6538,
      "pubblico": 6539,
      "miracolo": 6540,
      "pentimento": 6541,
      "addormentato": 6542,
      "cancello": 6543,
      "sprezzante": 6544,
      "avvenimenti": 6545,
      "sciocchezza": 6546,
      "appassionato": 6547,
      "Buon": 6548,
      "centimetri": 6549,
      "pensarci": 6550,
      "fermarono": 6551,
      "familiari": 6552,
      "binin": 6553,
      "capaci": 6554,
      "camminando": 6555,
      "confessare": 6556,
      "viaggiatore": 6557,
      "leggermente": 6558,
      "disteso": 6559,
      "perplessità": 6560,
      "dozzina": 6561,
      "sottra": 6562,
      "orientale": 6563,
      "sconveniente": 6564,
      "TOLO": 6565,
      "affrettò": 6566,
      "fiasche": 6567,
      "egoi": 6568,
      "sessanta": 6569,
      "zucchero": 6570,
      "Benissimo": 6571,
      "CAPI": 6572,
      "Gladiator": 6573,
      "maravi": 6574,
      "Rjabinin": 6575,
      "cannocchi": 6576,
      "europe": 6577,
      "Machotin": 6578,
      "CAPITOLO": 6579,
      "Ac": 6580,
      "As": 6581,
      "Bar": 6582,
      "Man": 6583,
      "Pri": 6584,
      "Pur": 6585,
      "Pari": 6586,
      "San": 6587,
      "Sce": 6588,
      "api": 6589,
      "amente": 6590,
      "adu": 6591,
      "agri": 6592,
      "ball": 6593,
      "crati": 6594,
      "etta": 6595,
      "ffu": 6596,
      "gnu": 6597,
      "lò": 6598,
      "lini": 6599,
      "lletto": 6600,
      "ola": 6601,
      "ospe": 6602,
      "occi": 6603,
      "obli": 6604,
      "palle": 6605,
      "ralleg": 6606,
      "sfu": 6607,
      "sbu": 6608,
      "squi": 6609,
      "selo": 6610,
      "sana": 6611,
      "tero": 6612,
      "ttua": 6613,
      "ura": 6614,
      "erle": 6615,
      "discen": 6616,
      "angio": 6617,
      "inchio": 6618,
      "invisibile": 6619,
      "comodo": 6620,
      "siva": 6621,
      "riccio": 6622,
      "ricoperto": 6623,
      "riconosciuto": 6624,
      "radi": 6625,
      "lista": 6626,
      "livello": 6627,
      "tirando": 6628,
      "sospetta": 6629,
      "domando": 6630,
      "ciando": 6631,
      "concen": 6632,
      "sacco": 6633,
      "perder": 6634,
      "vov": 6635,
      "viver": 6636,
      "vetto": 6637,
      "dap": 6638,
      "metro": 6639,
      "medita": 6640,
      "dettero": 6641,
      "notti": 6642,
      "notai": 6643,
      "zionale": 6644,
      "nascere": 6645,
      "predi": 6646,
      "aveste": 6647,
      "parere": 6648,
      "uola": 6649,
      "trolio": 6650,
      "petrolio": 6651,
      "senz": 6652,
      "verdi": 6653,
      "proseguì": 6654,
      "proble": 6655,
      "fide": 6656,
      "fitto": 6657,
      "guanto": 6658,
      "compreso": 6659,
      "scre": 6660,
      "volgendo": 6661,
      "ciai": 6662,
      "tentare": 6663,
      "terna": 6664,
      "terina": 6665,
      "termini": 6666,
      "babilmente": 6667,
      "impressioni": 6668,
      "tremava": 6669,
      "zzati": 6670,
      "cucchia": 6671,
      "inimici": 6672,
      "fumare": 6673,
      "fferi": 6674,
      "tempor": 6675,
      "gioventù": 6676,
      "cerim": 6677,
      "cerchia": 6678,
      "disturba": 6679,
      "sentisse": 6680,
      "volezza": 6681,
      "stimo": 6682,
      "stivali": 6683,
      "bus": 6684,
      "amarlo": 6685,
      "Andrò": 6686,
      "carono": 6687,
      "mortale": 6688,
      "ziosi": 6689,
      "capisce": 6690,
      "trovarmi": 6691,
      "Infatti": 6692,
      "gliela": 6693,
      "chiare": 6694,
      "cciare": 6695,
      "calmar": 6696,
      "fresche": 6697,
      "serve": 6698,
      "serba": 6699,
      "domandato": 6700,
      "parea": 6701,
      "parevano": 6702,
      "uscio": 6703,
      "guidare": 6704,
      "passai": 6705,
      "desto": 6706,
      "desinare": 6707,
      "Dite": 6708,
      "dovessero": 6709,
      "strette": 6710,
      "affolla": 6711,
      "mettendosi": 6712,
      "spagnuo": 6713,
      "tarta": 6714,
      "tornate": 6715,
      "scrive": 6716,
      "abbiglia": 6717,
      "vestirsi": 6718,
      "dirti": 6719,
      "diventò": 6720,
      "Avevamo": 6721,
      "pausa": 6722,
      "provando": 6723,
      "crista": 6724,
      "atmo": 6725,
      "dovevamo": 6726,
      "lasciarlo": 6727,
      "animazione": 6728,
      "freddamente": 6729,
      "lontan": 6730,
      "accadde": 6731,
      "arrivai": 6732,
      "arrivata": 6733,
      "tornar": 6734,
      "dirittura": 6735,
      "falsa": 6736,
      "raccontava": 6737,
      "Lisb": 6738,
      "delitto": 6739,
      "inteso": 6740,
      "detevi": 6741,
      "incontrava": 6742,
      "estremo": 6743,
      "aperte": 6744,
      "andarmene": 6745,
      "selvaggia": 6746,
      "potreste": 6747,
      "quarti": 6748,
      "Negri": 6749,
      "perdonato": 6750,
      "confusa": 6751,
      "acquistare": 6752,
      "trattenne": 6753,
      "spinto": 6754,
      "spingeva": 6755,
      "Signor": 6756,
      "Signorina": 6757,
      "vivace": 6758,
      "Credete": 6759,
      "possano": 6760,
      "garz": 6761,
      "giardini": 6762,
      "Probabilmente": 6763,
      "XXI": 6764,
      "avviene": 6765,
      "lottare": 6766,
      "procuratore": 6767,
      "raggiunto": 6768,
      "confess": 6769,
      "prudente": 6770,
      "volontari": 6771,
      "rivelava": 6772,
      "splendeva": 6773,
      "curioso": 6774,
      "mezzanotte": 6775,
      "conseguenze": 6776,
      "ferrovia": 6777,
      "abitudini": 6778,
      "cosí": 6779,
      "tribuna": 6780,
      "rallegrava": 6781,
      "preoccupazioni": 6782,
      "opportuno": 6783,
      "aggro": 6784,
      "misterioso": 6785,
      "trionfo": 6786,
      "Basta": 6787,
      "Qualche": 6788,
      "Korsun": 6789,
      "cavalieri": 6790,
      "parliamo": 6791,
      "istinto": 6792,
      "tesoro": 6793,
      "distribui": 6794,
      "temevo": 6795,
      "vedrete": 6796,
      "pistole": 6797,
      "avventure": 6798,
      "pezzetto": 6799,
      "Chiesia": 6800,
      "ripugn": 6801,
      "sigaro": 6802,
      "cattoli": 6803,
      "rabbrivi": 6804,
      "indirizzo": 6805,
      "velluto": 6806,
      "birra": 6807,
      "autunno": 6808,
      "sappiamo": 6809,
      "delusione": 6810,
      "Provvidenza": 6811,
      "Reading": 6812,
      "vettova": 6813,
      "Lisbona": 6814,
      "?».": 6815,
      "Bol": 6816,
      "Esso": 6817,
      "King": 6818,
      "Là": 6819,
      "Oggi": 6820,
      "Stavo": 6821,
      "XII": 6822,
      "ahi": 6823,
      "cra": 6824,
      "cene": 6825,
      "cele": 6826,
      "dro": 6827,
      "doni": 6828,
      "dale": 6829,
      "eche": 6830,
      "ebbero": 6831,
      "fen": 6832,
      "galle": 6833,
      "idio": 6834,
      "lando": 6835,
      "osamente": 6836,
      "ppare": 6837,
      "pesa": 6838,
      "sd": 6839,
      "ssendo": 6840,
      "sconosciuta": 6841,
      "tcher": 6842,
      "ut": 6843,
      "vskij": 6844,
      "zin": 6845,
      "redini": 6846,
      "insol": 6847,
      "talento": 6848,
      "teo": 6849,
      "tella": 6850,
      "temendo": 6851,
      "alba": 6852,
      "sivo": 6853,
      "ric": 6854,
      "ricchi": 6855,
      "ricerca": 6856,
      "raggio": 6857,
      "raramente": 6858,
      "sedile": 6859,
      "sedè": 6860,
      "liqu": 6861,
      "libbre": 6862,
      "tipo": 6863,
      "tirare": 6864,
      "esce": 6865,
      "povere": 6866,
      "rossi": 6867,
      "consegna": 6868,
      "matta": 6869,
      "magra": 6870,
      "perto": 6871,
      "percorso": 6872,
      "pittura": 6873,
      "vegg": 6874,
      "girò": 6875,
      "suggeri": 6876,
      "demonio": 6877,
      "deplo": 6878,
      "cedere": 6879,
      "bisbi": 6880,
      "pregava": 6881,
      "avvolto": 6882,
      "avveniva": 6883,
      "nega": 6884,
      "trota": 6885,
      "troppa": 6886,
      "prigione": 6887,
      "file": 6888,
      "duello": 6889,
      "vendi": 6890,
      "vendere": 6891,
      "ventaglio": 6892,
      "gnolo": 6893,
      "comparve": 6894,
      "adden": 6895,
      "tendendo": 6896,
      "impre": 6897,
      "suolo": 6898,
      "Mamma": 6899,
      "zzate": 6900,
      "futuro": 6901,
      "andone": 6902,
      "vicenda": 6903,
      "ffe": 6904,
      "potemmo": 6905,
      "cerchio": 6906,
      "rugia": 6907,
      "torte": 6908,
      "spetti": 6909,
      "derino": 6910,
      "ronza": 6911,
      "ammalata": 6912,
      "portate": 6913,
      "Quante": 6914,
      "fedeli": 6915,
      "febbri": 6916,
      "scoppia": 6917,
      "quet": 6918,
      "viaggi": 6919,
      "farma": 6920,
      "farina": 6921,
      "luci": 6922,
      "lusin": 6923,
      "capite": 6924,
      "venissero": 6925,
      "unito": 6926,
      "trovavo": 6927,
      "fermai": 6928,
      "fermezza": 6929,
      "scappa": 6930,
      "pietre": 6931,
      "pieghe": 6932,
      "interpre": 6933,
      "interru": 6934,
      "sorrisi": 6935,
      "frettolo": 6936,
      "ministero": 6937,
      "esserlo": 6938,
      "ontane": 6939,
      "contrad": 6940,
      "contrasse": 6941,
      "affaccen": 6942,
      "stavamo": 6943,
      "spari": 6944,
      "rimasero": 6945,
      "colore": 6946,
      "giungeva": 6947,
      "ghie": 6948,
      "aspettato": 6949,
      "cominciata": 6950,
      "urn": 6951,
      "cinta": 6952,
      "occupare": 6953,
      "serviva": 6954,
      "diventare": 6955,
      "amate": 6956,
      "ascoltato": 6957,
      "sposare": 6958,
      "occupati": 6959,
      "Subito": 6960,
      "abbassò": 6961,
      "desiderate": 6962,
      "attento": 6963,
      "raccontato": 6964,
      "delizia": 6965,
      "abbandonare": 6966,
      "avvicinavano": 6967,
      "liberarsi": 6968,
      "passarono": 6969,
      "carrozzino": 6970,
      "preparava": 6971,
      "metterlo": 6972,
      "completo": 6973,
      "completa": 6974,
      "brusca": 6975,
      "facciamo": 6976,
      "significava": 6977,
      "infil": 6978,
      "liberamente": 6979,
      "afferrare": 6980,
      "guardarono": 6981,
      "sangu": 6982,
      "provvidenza": 6983,
      "parleremo": 6984,
      "pensosa": 6985,
      "pianoforte": 6986,
      "merito": 6987,
      "meridi": 6988,
      "rapidità": 6989,
      "cchetto": 6990,
      "origine": 6991,
      "passeggia": 6992,
      "regolare": 6993,
      "croquet": 6994,
      "saliva": 6995,
      "cativo": 6996,
      "sollevata": 6997,
      "umile": 6998,
      "interessanti": 6999,
      "turbamento": 7000,
      "fungo": 7001,
      "funziona": 7002,
      "principii": 7003,
      "assicurarmi": 7004,
      "timida": 7005,
      "rinunziare": 7006,
      "istituzione": 7007,
      "serie": 7008,
      "ottima": 7009,
      "rivelato": 7010,
      "comprato": 7011,
      "mutamento": 7012,
      "dimostrare": 7013,
      "respirare": 7014,
      "mediante": 7015,
      "preferito": 7016,
      "mangiava": 7017,
      "concluso": 7018,
      "guanciale": 7019,
      "monia": 7020,
      "circondato": 7021,
      "eleganti": 7022,
      "invitati": 7023,
      "acconcia": 7024,
      "dipende": 7025,
      "fanciul": 7026,
      "lunghezza": 7027,
      "ombrello": 7028,
      "figliuolo": 7029,
      "posato": 7030,
      "sospetti": 7031,
      "rifiuta": 7032,
      "casetta": 7033,
      "beccaccia": 7034,
      "ravvi": 7035,
      "Ricordò": 7036,
      "sgomento": 7037,
      "generosità": 7038,
      "immensa": 7039,
      "Miller": 7040,
      "mormorio": 7041,
      "000": 7042,
      "ballare": 7043,
      "alunna": 7044,
      "romanzo": 7045,
      "gloria": 7046,
      "materiale": 7047,
      "dignità": 7048,
      "fastidio": 7049,
      "Sembrava": 7050,
      "patria": 7051,
      "Spesso": 7052,
      "stanchezza": 7053,
      "saprei": 7054,
      "bicchier": 7055,
      "fiamme": 7056,
      "dottrina": 7057,
      "esagera": 7058,
      "penetrante": 7059,
      "cravatta": 7060,
      "pallini": 7061,
      "obie": 7062,
      "sdraia": 7063,
      "Scatcher": 7064,
      "sbalordi": 7065,
      "Parigi": 7066,
      "concentra": 7067,
      "abbigliamento": 7068,
      "atmosfera": 7069,
      "lontananza": 7070,
      "Kingston": 7071,
      "Scatcherd": 7072,
      "Ai": 7073,
      "Ce": 7074,
      "Cel": 7075,
      "Mer": 7076,
      "Marlo": 7077,
      "Nello": 7078,
      "Ogn": 7079,
      "Pav": 7080,
      "Tal": 7081,
      "VIII": 7082,
      "apriva": 7083,
      "aprendo": 7084,
      "banca": 7085,
      "cenza": 7086,
      "dessi": 7087,
      "fri": 7088,
      "ganti": 7089,
      "garlo": 7090,
      "han": 7091,
      "ki": 7092,
      "mel": 7093,
      "narra": 7094,
      "ossa": 7095,
      "palla": 7096,
      "pelo": 7097,
      "sla": 7098,
      "sgra": 7099,
      "sparo": 7100,
      "sbri": 7101,
      "tani": 7102,
      "udendo": 7103,
      "valz": 7104,
      "erbe": 7105,
      "toccar": 7106,
      "diciotto": 7107,
      "lamen": 7108,
      "lavano": 7109,
      "rebbero": 7110,
      "inghio": 7111,
      "cham": 7112,
      "tazze": 7113,
      "tagliare": 7114,
      "coppa": 7115,
      "coppia": 7116,
      "rise": 7117,
      "rigo": 7118,
      "riferì": 7119,
      "sete": 7120,
      "sedei": 7121,
      "quero": 7122,
      "soglia": 7123,
      "domeni": 7124,
      "arco": 7125,
      "estri": 7126,
      "roto": 7127,
      "missi": 7128,
      "miseria": 7129,
      "consape": 7130,
      "samo": 7131,
      "satis": 7132,
      "masc": 7133,
      "perco": 7134,
      "perduti": 7135,
      "cadeva": 7136,
      "vien": 7137,
      "gliando": 7138,
      "vedov": 7139,
      "definita": 7140,
      "nomi": 7141,
      "notando": 7142,
      "paga": 7143,
      "steri": 7144,
      "standosi": 7145,
      "bion": 7146,
      "chiesta": 7147,
      "fama": 7148,
      "prestando": 7149,
      "net": 7150,
      "parco": 7151,
      "trovo": 7152,
      "sentono": 7153,
      "bbono": 7154,
      "mancavano": 7155,
      "corni": 7156,
      "commi": 7157,
      "compu": 7158,
      "commesso": 7159,
      "addolo": 7160,
      "scand": 7161,
      "essino": 7162,
      "tenero": 7163,
      "tendenza": 7164,
      "teria": 7165,
      "godere": 7166,
      "baule": 7167,
      "gagliardo": 7168,
      "ranni": 7169,
      "tremu": 7170,
      "tremendo": 7171,
      "erie": 7172,
      "ful": 7173,
      "miamo": 7174,
      "trista": 7175,
      "tristo": 7176,
      "camino": 7177,
      "dispiacere": 7178,
      "torr": 7179,
      "torta": 7180,
      "derle": 7181,
      "stipendio": 7182,
      "frac": 7183,
      "frasi": 7184,
      "ampio": 7185,
      "ammettere": 7186,
      "crepuscolo": 7187,
      "mble": 7188,
      "quatto": 7189,
      "carretta": 7190,
      "dovette": 7191,
      "fingere": 7192,
      "occorse": 7193,
      "lucci": 7194,
      "morente": 7195,
      "Perfino": 7196,
      "unità": 7197,
      "Indi": 7198,
      "partiva": 7199,
      "salì": 7200,
      "prende": 7201,
      "potevamo": 7202,
      "calda": 7203,
      "domandava": 7204,
      "darlo": 7205,
      "piatta": 7206,
      "Arriva": 7207,
      "giugno": 7208,
      "Romani": 7209,
      "Robin": 7210,
      "fonte": 7211,
      "entrambe": 7212,
      "piogge": 7213,
      "spada": 7214,
      "mucchio": 7215,
      "accessi": 7216,
      "intenzioni": 7217,
      "Quest": 7218,
      "colori": 7219,
      "martello": 7220,
      "esau": 7221,
      "agile": 7222,
      "vestite": 7223,
      "vederci": 7224,
      "alzarono": 7225,
      "avvicinato": 7226,
      "conoscendo": 7227,
      "conoscenti": 7228,
      "arrischi": 7229,
      "pronte": 7230,
      "portano": 7231,
      "ideale": 7232,
      "diventata": 7233,
      "vuota": 7234,
      "accostai": 7235,
      "levare": 7236,
      "correnti": 7237,
      "llò": 7238,
      "conduce": 7239,
      "llio": 7240,
      "Sulla": 7241,
      "conversazioni": 7242,
      "immagini": 7243,
      "tranquillità": 7244,
      "ripete": 7245,
      "House": 7246,
      "brigata": 7247,
      "delibera": 7248,
      "intelle": 7249,
      "irritata": 7250,
      "alzare": 7251,
      "alzati": 7252,
      "estrema": 7253,
      "complesso": 7254,
      "riflett": 7255,
      "risolvei": 7256,
      "potrete": 7257,
      "affasc": 7258,
      "giudizi": 7259,
      "larmente": 7260,
      "tondo": 7261,
      "facevo": 7262,
      "facemmo": 7263,
      "Nevedov": 7264,
      "impediva": 7265,
      "fiore": 7266,
      "acquistato": 7267,
      "prenderlo": 7268,
      "vivacità": 7269,
      "Addio": 7270,
      "pronunciare": 7271,
      "suppongo": 7272,
      "passeggiare": 7273,
      "pericoloso": 7274,
      "eccitato": 7275,
      "sensazioni": 7276,
      "maggioranza": 7277,
      "leggerezza": 7278,
      "sbadi": 7279,
      "Dovete": 7280,
      "accompagna": 7281,
      "Sentii": 7282,
      "procurarmi": 7283,
      "Guardate": 7284,
      "funghi": 7285,
      "tacere": 7286,
      "spense": 7287,
      "sospiro": 7288,
      "scalinata": 7289,
      "raggiante": 7290,
      "muoversi": 7291,
      "curiosa": 7292,
      "raccogliere": 7293,
      "malattie": 7294,
      "esterno": 7295,
      "punizione": 7296,
      "descrivere": 7297,
      "odiato": 7298,
      "consolazione": 7299,
      "immaginarsi": 7300,
      "riflettuto": 7301,
      "ragionare": 7302,
      "circostanza": 7303,
      "costume": 7304,
      "cresciuto": 7305,
      "raccolta": 7306,
      "svelta": 7307,
      "Rimasi": 7308,
      "rompere": 7309,
      "sparato": 7310,
      "chiedergli": 7311,
      "Capisco": 7312,
      "ridicolo": 7313,
      "capacità": 7314,
      "giovinezza": 7315,
      "materiali": 7316,
      "bottega": 7317,
      "centinaio": 7318,
      "quantunque": 7319,
      "altrettanto": 7320,
      "sgraziati": 7321,
      "battaglia": 7322,
      "responsa": 7323,
      "bastone": 7324,
      "distinguere": 7325,
      "confronto": 7326,
      "Fëdor": 7327,
      "distrettuale": 7328,
      "accuratamente": 7329,
      "Tommaso": 7330,
      "orizzonte": 7331,
      "ospedale": 7332,
      "garzone": 7333,
      "Korsunskij": 7334,
      "vettovaglie": 7335,
      "teoria": 7336,
      "Marlow": 7337,
      "Pavlovna": 7338,
      "valzer": 7339,
      "Nevedovskij": 7340,
      "):": 7341,
      "16": 7342,
      "Abb": 7343,
      "Burn": 7344,
      "Dalla": 7345,
      "Gia": 7346,
      "Kra": 7347,
      "VI": 7348,
      "atura": 7349,
      "deria": 7350,
      "gante": 7351,
      "garmi": 7352,
      "gavano": 7353,
      "ham": 7354,
      "ito": 7355,
      "kic": 7356,
      "panta": 7357,
      "rino": 7358,
      "randosi": 7359,
      "scorso": 7360,
      "sprofon": 7361,
      "sfuggire": 7362,
      "tz": 7363,
      "ëna": 7364,
      "erne": 7365,
      "tova": 7366,
      "tocca": 7367,
      "dili": 7368,
      "dimi": 7369,
      "dicio": 7370,
      "divenire": 7371,
      "dimmi": 7372,
      "anskij": 7373,
      "anelli": 7374,
      "lai": 7375,
      "later": 7376,
      "laonde": 7377,
      "regi": 7378,
      "regg": 7379,
      "regalo": 7380,
      "incarico": 7381,
      "coster": 7382,
      "costring": 7383,
      "costitui": 7384,
      "rigi": 7385,
      "ricava": 7386,
      "chetta": 7387,
      "sela": 7388,
      "sett": 7389,
      "sedie": 7390,
      "secolo": 7391,
      "sepp": 7392,
      "socio": 7393,
      "sociale": 7394,
      "sostitui": 7395,
      "arbi": 7396,
      "esclu": 7397,
      "posò": 7398,
      "rosse": 7399,
      "mite": 7400,
      "convul": 7401,
      "lodato": 7402,
      "maco": 7403,
      "magi": 7404,
      "matura": 7405,
      "perse": 7406,
      "perso": 7407,
      "permetteva": 7408,
      "catene": 7409,
      "viste": 7410,
      "vittima": 7411,
      "mogli": 7412,
      "pianto": 7413,
      "sus": 7414,
      "sussu": 7415,
      "dese": 7416,
      "defen": 7417,
      "novità": 7418,
      "nottur": 7419,
      "paci": 7420,
      "paesa": 7421,
      "paesi": 7422,
      "pagne": 7423,
      "stria": 7424,
      "orf": 7425,
      "orono": 7426,
      "bisco": 7427,
      "fati": 7428,
      "pressa": 7429,
      "avve": 7430,
      "nego": 7431,
      "uole": 7432,
      "trasse": 7433,
      "verun": 7434,
      "verti": 7435,
      "fice": 7436,
      "ttano": 7437,
      "venga": 7438,
      "gnole": 7439,
      "combattere": 7440,
      "scarla": 7441,
      "ciata": 7442,
      "tente": 7443,
      "llava": 7444,
      "basse": 7445,
      "gara": 7446,
      "imè": 7447,
      "imprese": 7448,
      "tremare": 7449,
      "pura": 7450,
      "Matr": 7451,
      "scivo": 7452,
      "scienza": 7453,
      "cugina": 7454,
      "cugino": 7455,
      "fussino": 7456,
      "onie": 7457,
      "trici": 7458,
      "appli": 7459,
      "approvava": 7460,
      "gete": 7461,
      "temuto": 7462,
      "distur": 7463,
      "dispiace": 7464,
      "disposta": 7465,
      "tortura": 7466,
      "grappo": 7467,
      "spedizione": 7468,
      "frago": 7469,
      "Andai": 7470,
      "Quelli": 7471,
      "fedine": 7472,
      "carri": 7473,
      "carni": 7474,
      "trovate": 7475,
      "trovammo": 7476,
      "tine": 7477,
      "fermare": 7478,
      "spontane": 7479,
      "avervi": 7480,
      "scara": 7481,
      "chiari": 7482,
      "calz": 7483,
      "calderino": 7484,
      "pareti": 7485,
      "indicato": 7486,
      "diacono": 7487,
      "botta": 7488,
      "grigio": 7489,
      "aspetti": 7490,
      "sopratutto": 7491,
      "affon": 7492,
      "ricordarsi": 7493,
      "destina": 7494,
      "dovrò": 7495,
      "dovunque": 7496,
      "entravano": 7497,
      "provai": 7498,
      "provavo": 7499,
      "chiede": 7500,
      "lasciatemi": 7501,
      "Potre": 7502,
      "scuri": 7503,
      "particolarità": 7504,
      "orecchi": 7505,
      "racca": 7506,
      "servito": 7507,
      "cieco": 7508,
      "cambiata": 7509,
      "pauroso": 7510,
      "incante": 7511,
      "rimanendo": 7512,
      "occupavano": 7513,
      "pensieroso": 7514,
      "Sup": 7515,
      "immagine": 7516,
      "visitatori": 7517,
      "attendere": 7518,
      "vorrebbe": 7519,
      "piacevolmente": 7520,
      "polso": 7521,
      "trasportato": 7522,
      "irrita": 7523,
      "personaggio": 7524,
      "alzava": 7525,
      "strumenti": 7526,
      "trando": 7527,
      "intima": 7528,
      "sinchè": 7529,
      "cattivi": 7530,
      "poterlo": 7531,
      "operazione": 7532,
      "piangeva": 7533,
      "arrivò": 7534,
      "Michail": 7535,
      "parlerò": 7536,
      "starda": 7537,
      "esaminò": 7538,
      "gelosa": 7539,
      "violenta": 7540,
      "aiutarlo": 7541,
      "nascondeva": 7542,
      "gentil": 7543,
      "riposa": 7544,
      "bellissime": 7545,
      "umida": 7546,
      "conoscevo": 7547,
      "esercizio": 7548,
      "accigliandosi": 7549,
      "innamorati": 7550,
      "raggiungere": 7551,
      "scrittoio": 7552,
      "rammento": 7553,
      "fabbrica": 7554,
      "fabbricare": 7555,
      "confesso": 7556,
      "spaventosa": 7557,
      "frumento": 7558,
      "Sapevo": 7559,
      "scalini": 7560,
      "rinunzi": 7561,
      "arrampi": 7562,
      "schiava": 7563,
      "alberghi": 7564,
      "ardore": 7565,
      "umiliante": 7566,
      "tormentoso": 7567,
      "giustifi": 7568,
      "scompartimento": 7569,
      "abbandonò": 7570,
      "improvvisa": 7571,
      "soffitto": 7572,
      "esteriore": 7573,
      "guadagn": 7574,
      "vedrà": 7575,
      "regolari": 7576,
      "gruppi": 7577,
      "prodotta": 7578,
      "introdo": 7579,
      "divertimento": 7580,
      "inquieta": 7581,
      "rappresentava": 7582,
      "manifesta": 7583,
      "sgomenta": 7584,
      "generoso": 7585,
      "Buona": 7586,
      "recipro": 7587,
      "svelto": 7588,
      "azzurri": 7589,
      "misteriosa": 7590,
      "matita": 7591,
      "indovinare": 7592,
      "indovinato": 7593,
      "nervosa": 7594,
      "avanzò": 7595,
      "Passò": 7596,
      "Aspettate": 7597,
      "allusione": 7598,
      "comitato": 7599,
      "pistola": 7600,
      "levante": 7601,
      "lampo": 7602,
      "centinaia": 7603,
      "singolare": 7604,
      "Trovai": 7605,
      "pranzare": 7606,
      "raggiugnere": 7607,
      "cespuglio": 7608,
      "Lukic": 7609,
      "insignificante": 7610,
      "progetti": 7611,
      "battuta": 7612,
      "troverete": 7613,
      "Sorrise": 7614,
      "insopportabile": 7615,
      "tavolino": 7616,
      "offrì": 7617,
      "ansietà": 7618,
      "infermiera": 7619,
      "cannocchiale": 7620,
      "Ascol": 7621,
      "rugiada": 7622,
      "Celina": 7623,
      "champagne": 7624,
      "missionario": 7625,
      "Burns": 7626,
      "pantal": 7627,
      "Matrëna": 7628,
      "!».": 7629,
      "Af": 7630,
      "Esa": 7631,
      "Evi": 7632,
      "Mad": 7633,
      "Snet": 7634,
      "Torn": 7635,
      "Ved": 7636,
      "Veramente": 7637,
      "aio": 7638,
      "bad": 7639,
      "bora": 7640,
      "binetto": 7641,
      "ei": 7642,
      "effi": 7643,
      "ebbene": 7644,
      "jo": 7645,
      "lana": 7646,
      "mpo": 7647,
      "mellata": 7648,
      "osi": 7649,
      "ozio": 7650,
      "ostri": 7651,
      "rine": 7652,
      "speri": 7653,
      "sbarca": 7654,
      "smun": 7655,
      "tan": 7656,
      "ubbi": 7657,
      "zar": 7658,
      "errori": 7659,
      "ond": 7660,
      "onessa": 7661,
      "tossi": 7662,
      "endone": 7663,
      "regina": 7664,
      "respetto": 7665,
      "recinto": 7666,
      "intu": 7667,
      "infra": 7668,
      "incen": 7669,
      "investi": 7670,
      "infedeltà": 7671,
      "altera": 7672,
      "copriva": 7673,
      "rici": 7674,
      "ritorna": 7675,
      "ramento": 7676,
      "rarmi": 7677,
      "rasser": 7678,
      "leghe": 7679,
      "unghie": 7680,
      "vaci": 7681,
      "vasto": 7682,
      "secco": 7683,
      "setten": 7684,
      "semenza": 7685,
      "soe": 7686,
      "sostanza": 7687,
      "sognato": 7688,
      "doppio": 7689,
      "poma": 7690,
      "potu": 7691,
      "ciarla": 7692,
      "concerto": 7693,
      "voti": 7694,
      "vido": 7695,
      "vill": 7696,
      "vivono": 7697,
      "moi": 7698,
      "moveva": 7699,
      "piglia": 7700,
      "vetture": 7701,
      "giallo": 7702,
      "medic": 7703,
      "nolo": 7704,
      "pas": 7705,
      "eredita": 7706,
      "cea": 7707,
      "cetta": 7708,
      "zampa": 7709,
      "orna": 7710,
      "nava": 7711,
      "nagione": 7712,
      "bia": 7713,
      "facci": 7714,
      "fatiche": 7715,
      "avena": 7716,
      "pezz": 7717,
      "sensibile": 7718,
      "avemmo": 7719,
      "proi": 7720,
      "proposto": 7721,
      "providenza": 7722,
      "fico": 7723,
      "fiere": 7724,
      "durare": 7725,
      "durezza": 7726,
      "ggianti": 7727,
      "guer": 7728,
      "corto": 7729,
      "vendita": 7730,
      "vendetta": 7731,
      "voltando": 7732,
      "tendeva": 7733,
      "tenuti": 7734,
      "termin": 7735,
      "babbo": 7736,
      "gabinetto": 7737,
      "impressi": 7738,
      "imminente": 7739,
      "stomaco": 7740,
      "trecento": 7741,
      "formi": 7742,
      "foglia": 7743,
      "culi": 7744,
      "cuffi": 7745,
      "stravag": 7746,
      "disparte": 7747,
      "sentirono": 7748,
      "derci": 7749,
      "buro": 7750,
      "fraca": 7751,
      "frascato": 7752,
      "ammala": 7753,
      "Quell": 7754,
      "credenza": 7755,
      "nuoto": 7756,
      "antipa": 7757,
      "soldato": 7758,
      "carnagione": 7759,
      "finzione": 7760,
      "diretto": 7761,
      "bbie": 7762,
      "uniti": 7763,
      "univers": 7764,
      "trovarvi": 7765,
      "montò": 7766,
      "montare": 7767,
      "spalli": 7768,
      "averli": 7769,
      "manica": 7770,
      "manifa": 7771,
      "Aleksandr": 7772,
      "bracci": 7773,
      "interlo": 7774,
      "panna": 7775,
      "calmò": 7776,
      "inea": 7777,
      "sereno": 7778,
      "fuora": 7779,
      "piatti": 7780,
      "ggs": 7781,
      "pensiera": 7782,
      "bott": 7783,
      "sciagu": 7784,
      "uscir": 7785,
      "stufato": 7786,
      "Secondo": 7787,
      "ministro": 7788,
      "baro": 7789,
      "baroni": 7790,
      "continuato": 7791,
      "Rosmun": 7792,
      "rendere": 7793,
      "rendite": 7794,
      "contrasto": 7795,
      "sarmi": 7796,
      "cuoco": 7797,
      "piov": 7798,
      "mucchi": 7799,
      "cominciando": 7800,
      "tarli": 7801,
      "cantu": 7802,
      "colorito": 7803,
      "principalmente": 7804,
      "giunti": 7805,
      "Eravamo": 7806,
      "marono": 7807,
      "abita": 7808,
      "abitava": 7809,
      "esame": 7810,
      "ppato": 7811,
      "chiudere": 7812,
      "chiudendo": 7813,
      "spiaceva": 7814,
      "diventar": 7815,
      "decisamente": 7816,
      "paure": 7817,
      "provvedere": 7818,
      "enato": 7819,
      "attiva": 7820,
      "oppresso": 7821,
      "pesanti": 7822,
      "lasciarsi": 7823,
      "periculo": 7824,
      "sposo": 7825,
      "condurmi": 7826,
      "condurla": 7827,
      "stanchi": 7828,
      "Sua": 7829,
      "mattinata": 7830,
      "talità": 7831,
      "contea": 7832,
      "chiamate": 7833,
      "riuscire": 7834,
      "riuscita": 7835,
      "tuosi": 7836,
      "considerato": 7837,
      "ripeto": 7838,
      "liberalità": 7839,
      "irrisione": 7840,
      "carrozze": 7841,
      "merci": 7842,
      "mercante": 7843,
      "preparate": 7844,
      "Vado": 7845,
      "estremi": 7846,
      "intimo": 7847,
      "fermava": 7848,
      "labbro": 7849,
      "Sopra": 7850,
      "compiva": 7851,
      "giudicato": 7852,
      "afferrava": 7853,
      "trattare": 7854,
      "rovinato": 7855,
      "Nei": 7856,
      "ammalato": 7857,
      "sovra": 7858,
      "confusamente": 7859,
      "gettai": 7860,
      "gettata": 7861,
      "prendermi": 7862,
      "chiamano": 7863,
      "ancheria": 7864,
      "pronunziare": 7865,
      "industria": 7866,
      "maggiormente": 7867,
      "falciatori": 7868,
      "sincera": 7869,
      "bellissimi": 7870,
      "accompagnò": 7871,
      "sollevato": 7872,
      "soffri": 7873,
      "soffriva": 7874,
      "spiegazioni": 7875,
      "raggiunger": 7876,
      "Guardò": 7877,
      "rossore": 7878,
      "stupida": 7879,
      "osavo": 7880,
      "titolo": 7881,
      "adoper": 7882,
      "adatto": 7883,
      "chiedendo": 7884,
      "gravemente": 7885,
      "armato": 7886,
      "fortificazione": 7887,
      "migliaia": 7888,
      "sparso": 7889,
      "batté": 7890,
      "aggiunsi": 7891,
      "commosso": 7892,
      "ingannata": 7893,
      "buia": 7894,
      "guancia": 7895,
      "eleganza": 7896,
      "Nessuna": 7897,
      "trascina": 7898,
      "disgraziato": 7899,
      "piaciuta": 7900,
      "allontanava": 7901,
      "dubitare": 7902,
      "guadagnare": 7903,
      "oscuro": 7904,
      "obbligo": 7905,
      "vedrò": 7906,
      "Cominci": 7907,
      "Hay": 7908,
      "limite": 7909,
      "Milano": 7910,
      "governare": 7911,
      "somme": 7912,
      "soffocare": 7913,
      "tirar": 7914,
      "inchino": 7915,
      "riflette": 7916,
      "addormentò": 7917,
      "inquietudine": 7918,
      "nutrimento": 7919,
      "doloroso": 7920,
      "folti": 7921,
      "riconobbi": 7922,
      "archibu": 7923,
      "equivo": 7924,
      "traversata": 7925,
      "affezione": 7926,
      "vergognoso": 7927,
      "aspira": 7928,
      "intervalli": 7929,
      "ottanta": 7930,
      "legale": 7931,
      "filosofia": 7932,
      "Tornato": 7933,
      "Spagnuoli": 7934,
      "edifi": 7935,
      "progresso": 7936,
      "ingenu": 7937,
      "Potete": 7938,
      "coniugi": 7939,
      "testimone": 7940,
      "esaltazione": 7941,
      "tremenda": 7942,
      "bottiglia": 7943,
      "tremavano": 7944,
      "Briggs": 7945,
      "rimproverava": 7946,
      "distacco": 7947,
      "indrieto": 7948,
      "procacciarmi": 7949,
      "sigaretta": 7950,
      "rassicura": 7951,
      "consegnò": 7952,
      "viottolo": 7953,
      "problema": 7954,
      "settanta": 7955,
      "seppelli": 7956,
      "pantaloni": 7957,
      "Africa": 7958,
      "Snetkov": 7959,
      "Rosmunda": 7960,
      "Cin": 7961,
      "Dina": 7962,
      "Fo": 7963,
      "Gran": 7964,
      "Hanno": 7965,
      "Kar": 7966,
      "Suo": 7967,
      "Sam": 7968,
      "Sare": 7969,
      "Sento": 7970,
      "TE": 7971,
      "Ten": 7972,
      "Vangelo": 7973,
      "Wall": 7974,
      "XIII": 7975,
      "ago": 7976,
      "bes": 7977,
      "ela": 7978,
      "fluo": 7979,
      "ggo": 7980,
      "gandosi": 7981,
      "gerò": 7982,
      "ilette": 7983,
      "ke": 7984,
      "lsione": 7985,
      "muto": 7986,
      "osci": 7987,
      "obe": 7988,
      "pil": 7989,
      "panno": 7990,
      "ral": 7991,
      "squad": 7992,
      "trin": 7993,
      "uzioni": 7994,
      "zd": 7995,
      "šin": 7996,
      "onestà": 7997,
      "tombe": 7998,
      "tollera": 7999,
      "toilette": 8000,
      "dichiar": 8001,
      "lari": 8002,
      "resa": 8003,
      "retto": 8004,
      "restar": 8005,
      "inva": 8006,
      "insu": 8007,
      "ingo": 8008,
      "insul": 8009,
      "ingiu": 8010,
      "infran": 8011,
      "infelici": 8012,
      "chini": 8013,
      "cherà": 8014,
      "tesi": 8015,
      "coppie": 8016,
      "silla": 8017,
      "ritratti": 8018,
      "ritengo": 8019,
      "vago": 8020,
      "chezza": 8021,
      "setto": 8022,
      "sedici": 8023,
      "tirata": 8024,
      "arpa": 8025,
      "cimi": 8026,
      "ciglia": 8027,
      "ciavano": 8028,
      "confe": 8029,
      "loma": 8030,
      "sapr": 8031,
      "saggio": 8032,
      "sagge": 8033,
      "sacchetto": 8034,
      "mariti": 8035,
      "visti": 8036,
      "ville": 8037,
      "vivente": 8038,
      "modello": 8039,
      "glianza": 8040,
      "gliarono": 8041,
      "piè": 8042,
      "vettur": 8043,
      "dammo": 8044,
      "gimento": 8045,
      "meta": 8046,
      "sudore": 8047,
      "mendic": 8048,
      "tudini": 8049,
      "paggi": 8050,
      "ceano": 8051,
      "nasce": 8052,
      "bimbi": 8053,
      "biancheria": 8054,
      "avversa": 8055,
      "staccar": 8056,
      "nej": 8057,
      "trovando": 8058,
      "pett": 8059,
      "trato": 8060,
      "prolun": 8061,
      "profumo": 8062,
      "ttaggio": 8063,
      "fie": 8064,
      "fiera": 8065,
      "corna": 8066,
      "corrono": 8067,
      "venute": 8068,
      "inatte": 8069,
      "gnoli": 8070,
      "nido": 8071,
      "nipote": 8072,
      "compro": 8073,
      "comporta": 8074,
      "tenera": 8075,
      "teranno": 8076,
      "godimento": 8077,
      "bagnata": 8078,
      "colletto": 8079,
      "immi": 8080,
      "ssata": 8081,
      "focolare": 8082,
      "zzai": 8083,
      "risca": 8084,
      "andrei": 8085,
      "seminare": 8086,
      "giova": 8087,
      "edì": 8088,
      "disporre": 8089,
      "torvo": 8090,
      "gradini": 8091,
      "gravità": 8092,
      "spezzato": 8093,
      "spegnere": 8094,
      "derli": 8095,
      "busta": 8096,
      "sorgente": 8097,
      "amp": 8098,
      "amaro": 8099,
      "proprii": 8100,
      "nudo": 8101,
      "null": 8102,
      "allogeni": 8103,
      "credevano": 8104,
      "antiche": 8105,
      "onate": 8106,
      "dovea": 8107,
      "olino": 8108,
      "semprechè": 8109,
      "lugu": 8110,
      "capivo": 8111,
      "voltare": 8112,
      "unita": 8113,
      "mentire": 8114,
      "farete": 8115,
      "...”.": 8116,
      "tiny": 8117,
      "ferenza": 8118,
      "averle": 8119,
      "risposte": 8120,
      "partii": 8121,
      "glieva": 8122,
      "mania": 8123,
      "manico": 8124,
      "salsa": 8125,
      "chiarire": 8126,
      "calcola": 8127,
      "Chia": 8128,
      "serà": 8129,
      "abbino": 8130,
      "domandando": 8131,
      "Sia": 8132,
      "Siamo": 8133,
      "darà": 8134,
      "darci": 8135,
      "parecchi": 8136,
      "indignazione": 8137,
      "grigia": 8138,
      "menomo": 8139,
      "bensì": 8140,
      "benessere": 8141,
      "sapea": 8142,
      "aspettò": 8143,
      "Tur": 8144,
      "consist": 8145,
      "considero": 8146,
      "lavorava": 8147,
      "baronessa": 8148,
      "derai": 8149,
      "affron": 8150,
      "lenz": 8151,
      "reni": 8152,
      "Dicono": 8153,
      "genze": 8154,
      "ull": 8155,
      "strega": 8156,
      "entrate": 8157,
      "cuori": 8158,
      "metterò": 8159,
      "mutò": 8160,
      "mucche": 8161,
      "finiva": 8162,
      "tornasse": 8163,
      "Poco": 8164,
      "principali": 8165,
      "marmellata": 8166,
      "piacesse": 8167,
      "scriver": 8168,
      "Vieni": 8169,
      "facessi": 8170,
      "facessero": 8171,
      "offriva": 8172,
      "vedersi": 8173,
      "seguivano": 8174,
      "seguitò": 8175,
      "occupar": 8176,
      "cambio": 8177,
      "riceveva": 8178,
      "accogli": 8179,
      "pesci": 8180,
      "pesca": 8181,
      "amavo": 8182,
      "lascio": 8183,
      "ascolta": 8184,
      "Eccolo": 8185,
      "incl": 8186,
      "contatto": 8187,
      "llino": 8188,
      "conversare": 8189,
      "visite": 8190,
      "visioni": 8191,
      "bilan": 8192,
      "attenta": 8193,
      "silenziosa": 8194,
      "tenebre": 8195,
      "falso": 8196,
      "raccontar": 8197,
      "delica": 8198,
      "abbandono": 8199,
      "intelletto": 8200,
      "milizia": 8201,
      "stendeva": 8202,
      "metterla": 8203,
      "strumento": 8204,
      "aperti": 8205,
      "plica": 8206,
      "Bibbia": 8207,
      "apparso": 8208,
      "appartamento": 8209,
      "cacciatori": 8210,
      "sfortuna": 8211,
      "afferma": 8212,
      "cercate": 8213,
      "atteso": 8214,
      "interrotto": 8215,
      "esprime": 8216,
      "Signora": 8217,
      "minori": 8218,
      "salvato": 8219,
      "quindicina": 8220,
      "terminare": 8221,
      "Providenza": 8222,
      "medesimi": 8223,
      "resistenza": 8224,
      "paludi": 8225,
      "avvili": 8226,
      "falciate": 8227,
      "separare": 8228,
      "gentili": 8229,
      "attaccato": 8230,
      "accompagnato": 8231,
      "stringeva": 8232,
      "turbato": 8233,
      "frutto": 8234,
      "frutti": 8235,
      "prudenza": 8236,
      "pulita": 8237,
      "segreta": 8238,
      "segretario": 8239,
      "ovunque": 8240,
      "sinistro": 8241,
      "compratore": 8242,
      "splendente": 8243,
      "segnale": 8244,
      "sportello": 8245,
      "raccogliendo": 8246,
      "circondata": 8247,
      "trascinare": 8248,
      "canzonato": 8249,
      "rimproveri": 8250,
      "invitato": 8251,
      "sicuramente": 8252,
      "remoto": 8253,
      "soffiava": 8254,
      "nascosta": 8255,
      "offerto": 8256,
      "obbligato": 8257,
      "superiori": 8258,
      "aiutato": 8259,
      "cartella": 8260,
      "brodo": 8261,
      "salutando": 8262,
      "pelleg": 8263,
      "diploma": 8264,
      "comoda": 8265,
      "esperimento": 8266,
      "assumere": 8267,
      "asilo": 8268,
      "cancella": 8269,
      "sprezzo": 8270,
      "Verso": 8271,
      "fisico": 8272,
      "appassionata": 8273,
      "Romagna": 8274,
      "notevole": 8275,
      "narrare": 8276,
      "increscio": 8277,
      "Varja": 8278,
      "valletto": 8279,
      "Kornej": 8280,
      "Conosco": 8281,
      "accolse": 8282,
      "bronzo": 8283,
      "istintivamente": 8284,
      "religioso": 8285,
      "fondamento": 8286,
      "riserva": 8287,
      "legname": 8288,
      "Giunto": 8289,
      "affettuoso": 8290,
      "sviluppo": 8291,
      "abbondanza": 8292,
      "clima": 8293,
      "paniere": 8294,
      "tentativo": 8295,
      "acchiappato": 8296,
      "cucire": 8297,
      "attrattiva": 8298,
      "bagaglio": 8299,
      "fotografia": 8300,
      "altrui": 8301,
      "sosteneva": 8302,
      "pietoso": 8303,
      "Sempre": 8304,
      "abbassando": 8305,
      "scellera": 8306,
      "desjatiny": 8307,
      "mercennarie": 8308,
      "astuzia": 8309,
      "distol": 8310,
      "cautela": 8311,
      "moscovita": 8312,
      "superficie": 8313,
      "inchiostro": 8314,
      "temporale": 8315,
      "inghiotti": 8316,
      "consapevolezza": 8317,
      "laterale": 8318,
      "Evidentemente": 8319,
      "effica": 8320,
      "fracasso": 8321,
      "spalliera": 8322,
      "Cinque": 8323,
      "Walling": 8324,
      "cimitero": 8325,
      ");": 8326,
      "?\"": 8327,
      "Dron": 8328,
      "Er": 8329,
      "Egor": 8330,
      "Fatto": 8331,
      "Ox": 8332,
      "Presi": 8333,
      "Sto": 8334,
      "Sci": 8335,
      "Tacque": 8336,
      "VII": 8337,
      "avi": 8338,
      "abili": 8339,
      "ador": 8340,
      "bone": 8341,
      "em": 8342,
      "emo": 8343,
      "esor": 8344,
      "fale": 8345,
      "feno": 8346,
      "festa": 8347,
      "garla": 8348,
      "identi": 8349,
      "kin": 8350,
      "kalo": 8351,
      "ltà": 8352,
      "nde": 8353,
      "oli": 8354,
      "pando": 8355,
      "pallo": 8356,
      "rti": 8357,
      "rere": 8358,
      "rini": 8359,
      "sven": 8360,
      "santi": 8361,
      "sonare": 8362,
      "ulu": 8363,
      "usanza": 8364,
      "uth": 8365,
      "vandosi": 8366,
      "zzia": 8367,
      "zur": 8368,
      "toccare": 8369,
      "toccava": 8370,
      "dila": 8371,
      "dimen": 8372,
      "reali": 8373,
      "infu": 8374,
      "invero": 8375,
      "inservi": 8376,
      "infuria": 8377,
      "altura": 8378,
      "altare": 8379,
      "cope": 8380,
      "sio": 8381,
      "sir": 8382,
      "risu": 8383,
      "ritta": 8384,
      "rimb": 8385,
      "ritornare": 8386,
      "rientrare": 8387,
      "ravo": 8388,
      "ramenti": 8389,
      "radici": 8390,
      "letta": 8391,
      "lessi": 8392,
      "severamente": 8393,
      "tiene": 8394,
      "arren": 8395,
      "armonio": 8396,
      "escu": 8397,
      "pori": 8398,
      "pozzo": 8399,
      "poster": 8400,
      "polli": 8401,
      "cibar": 8402,
      "miglie": 8403,
      "miele": 8404,
      "lodi": 8405,
      "lombo": 8406,
      "matu": 8407,
      "massa": 8408,
      "matri": 8409,
      "mazur": 8410,
      "permettere": 8411,
      "cagi": 8412,
      "cauto": 8413,
      "cazioni": 8414,
      "vizio": 8415,
      "mostarda": 8416,
      "nono": 8417,
      "pizzi": 8418,
      "vedute": 8419,
      "datemi": 8420,
      "suto": 8421,
      "sussi": 8422,
      "debito": 8423,
      "mena": 8424,
      "nole": 8425,
      "pazzia": 8426,
      "orent": 8427,
      "nai": 8428,
      "ssette": 8429,
      "fascia": 8430,
      "famiglie": 8431,
      "preca": 8432,
      "andole": 8433,
      "senta": 8434,
      "senten": 8435,
      "tragi": 8436,
      "onomia": 8437,
      "profu": 8438,
      "prosciu": 8439,
      "propose": 8440,
      "ssigno": 8441,
      "primere": 8442,
      "acuto": 8443,
      "mandate": 8444,
      "corro": 8445,
      "venendo": 8446,
      "nità": 8447,
      "comb": 8448,
      "comando": 8449,
      "compresi": 8450,
      "scelli": 8451,
      "voltura": 8452,
      "tentò": 8453,
      "terie": 8454,
      "basa": 8455,
      "bassi": 8456,
      "bagnato": 8457,
      "gabb": 8458,
      "gamb": 8459,
      "colta": 8460,
      "colti": 8461,
      "steso": 8462,
      "steccato": 8463,
      "impalli": 8464,
      "impenetra": 8465,
      "tremò": 8466,
      "puta": 8467,
      "ssari": 8468,
      "formare": 8469,
      "fora": 8470,
      "scienti": 8471,
      "cupi": 8472,
      "curante": 8473,
      "furore": 8474,
      "fumava": 8475,
      "dalli": 8476,
      "trifoglio": 8477,
      "strata": 8478,
      "aiuti": 8479,
      "tempie": 8480,
      "giocare": 8481,
      "gioiosa": 8482,
      "rumo": 8483,
      "rupe": 8484,
      "ruffa": 8485,
      "disposti": 8486,
      "andavo": 8487,
      "andassero": 8488,
      "grata": 8489,
      "derne": 8490,
      "volessi": 8491,
      "fattore": 8492,
      "spiana": 8493,
      "spighe": 8494,
      "stile": 8495,
      "stituto": 8496,
      "ammettiamo": 8497,
      "Andre": 8498,
      "Quali": 8499,
      "cresceva": 8500,
      "credea": 8501,
      "scolare": 8502,
      "soldi": 8503,
      "carla": 8504,
      "anime": 8505,
      "grand": 8506,
      "fingendo": 8507,
      "diretta": 8508,
      "lucenti": 8509,
      "morì": 8510,
      "pensasse": 8511,
      "capirlo": 8512,
      "Perciò": 8513,
      "voltava": 8514,
      "voltarsi": 8515,
      "faremo": 8516,
      "spesse": 8517,
      "ggiate": 8518,
      "ggiatura": 8519,
      "Colombo": 8520,
      "cciate": 8521,
      "cciati": 8522,
      "cenere": 8523,
      "cenni": 8524,
      "Mit": 8525,
      "parete": 8526,
      "indici": 8527,
      "uscirne": 8528,
      "paradiso": 8529,
      "consigliò": 8530,
      "sterlini": 8531,
      "lunedì": 8532,
      "bisognò": 8533,
      "minor": 8534,
      "perata": 8535,
      "lenta": 8536,
      "rende": 8537,
      "deste": 8538,
      "destro": 8539,
      "Dice": 8540,
      "utilità": 8541,
      "possibili": 8542,
      "bambine": 8543,
      "curare": 8544,
      "entrati": 8545,
      "cantò": 8546,
      "canestro": 8547,
      "accesa": 8548,
      "marcia": 8549,
      "scura": 8550,
      "scuderia": 8551,
      "verai": 8552,
      "volevate": 8553,
      "cominciasse": 8554,
      "scesi": 8555,
      "sonne": 8556,
      "occuparsi": 8557,
      "sapevamo": 8558,
      "avvicinai": 8559,
      "conoscente": 8560,
      "prontamente": 8561,
      "fortezze": 8562,
      "padron": 8563,
      "ricevimento": 8564,
      "provveduto": 8565,
      "Safo": 8566,
      "atley": 8567,
      "ascoltarlo": 8568,
      "corregg": 8569,
      "intral": 8570,
      "difficili": 8571,
      "spogliato": 8572,
      "presenta": 8573,
      "fredde": 8574,
      "dimenticate": 8575,
      "schioppo": 8576,
      "seguenti": 8577,
      "arrivava": 8578,
      "leggendo": 8579,
      "leggeri": 8580,
      "silenzioso": 8581,
      "greco": 8582,
      "grembi": 8583,
      "necessari": 8584,
      "formata": 8585,
      "Consi": 8586,
      "udimmo": 8587,
      "enico": 8588,
      "assistenza": 8589,
      "assicuro": 8590,
      "assass": 8591,
      "Moor": 8592,
      "liberarmi": 8593,
      "preparata": 8594,
      "incontravano": 8595,
      "Alza": 8596,
      "scorsa": 8597,
      "volontario": 8598,
      "domandammo": 8599,
      "potersi": 8600,
      "Datemi": 8601,
      "assol": 8602,
      "conosciuti": 8603,
      "conosciute": 8604,
      "cercavano": 8605,
      "ammazzare": 8606,
      "tolti": 8607,
      "starnu": 8608,
      "indosso": 8609,
      "trattenuto": 8610,
      "spinta": 8611,
      "linee": 8612,
      "comunicò": 8613,
      "fortunato": 8614,
      "popolazione": 8615,
      "terminata": 8616,
      "pronunzia": 8617,
      "propositi": 8618,
      "tenerlo": 8619,
      "Certamente": 8620,
      "eccitazione": 8621,
      "ridotto": 8622,
      "violento": 8623,
      "balen": 8624,
      "effetti": 8625,
      "Vedete": 8626,
      "avvilu": 8627,
      "impaccio": 8628,
      "sollevava": 8629,
      "latitudine": 8630,
      "aristo": 8631,
      "diffu": 8632,
      "stupiva": 8633,
      "sentendosi": 8634,
      "pulito": 8635,
      "appoggiato": 8636,
      "rinunziato": 8637,
      "quieto": 8638,
      "serietà": 8639,
      "scherza": 8640,
      "scherzando": 8641,
      "Quivi": 8642,
      "bonda": 8643,
      "batter": 8644,
      "tormentosa": 8645,
      "commossa": 8646,
      "rimorchia": 8647,
      "produsse": 8648,
      "bevve": 8649,
      "annunzi": 8650,
      "piacimento": 8651,
      "galan": 8652,
      "difetto": 8653,
      "ballottaggio": 8654,
      "nascose": 8655,
      "Entrò": 8656,
      "offerse": 8657,
      "vedrai": 8658,
      "superiorità": 8659,
      "dipendeva": 8660,
      "limiti": 8661,
      "cristiana": 8662,
      "sommessa": 8663,
      "salutato": 8664,
      "vivevano": 8665,
      "Napoli": 8666,
      "placi": 8667,
      "comodamente": 8668,
      "naviglio": 8669,
      "cordialità": 8670,
      "ricovero": 8671,
      "giacché": 8672,
      "Pensava": 8673,
      "suscitato": 8674,
      "torniamo": 8675,
      "difendere": 8676,
      "repulsione": 8677,
      "Ricordo": 8678,
      "smarrito": 8679,
      "indispensabili": 8680,
      "folto": 8681,
      "disgustosa": 8682,
      "ricchezze": 8683,
      "congettura": 8684,
      "Petrov": 8685,
      "munizioni": 8686,
      "sbarco": 8687,
      "terribili": 8688,
      "prigioniero": 8689,
      "immenso": 8690,
      "Rimasto": 8691,
      "domestici": 8692,
      "nervoso": 8693,
      "avanz": 8694,
      "riempiva": 8695,
      "impaziente": 8696,
      "XIV": 8697,
      "eterno": 8698,
      "Fece": 8699,
      "sforzava": 8700,
      "risate": 8701,
      "Streatley": 8702,
      "infinite": 8703,
      "dominava": 8704,
      "abbandonati": 8705,
      "vedremo": 8706,
      "sensibilità": 8707,
      "monovna": 8708,
      "parentela": 8709,
      "feroci": 8710,
      "impul": 8711,
      "appicci": 8712,
      "Sembra": 8713,
      "Filimonovna": 8714,
      "ostilità": 8715,
      "povertà": 8716,
      "arrossire": 8717,
      "colleghi": 8718,
      "celeste": 8719,
      "italiana": 8720,
      "generazione": 8721,
      "cognizioni": 8722,
      "chiacchiera": 8723,
      "abituato": 8724,
      "accennando": 8725,
      "Cammina": 8726,
      "soggetto": 8727,
      "disinvoltura": 8728,
      "rammarico": 8729,
      "fidanzata": 8730,
      "disordine": 8731,
      "inclinazione": 8732,
      "espediente": 8733,
      "betulle": 8734,
      "Desidera": 8735,
      "dipingere": 8736,
      "eternamente": 8737,
      "Primi": 8738,
      "rallegrò": 8739,
      "squisi": 8740,
      "angiolo": 8741,
      "cristallo": 8742,
      "Merkalo": 8743,
      "Ognuno": 8744,
      "melan": 8745,
      "domenica": 8746,
      "torrente": 8747,
      "quattor": 8748,
      "sussul": 8749,
      "paesaggio": 8750,
      "grappoli": 8751,
      "ostriche": 8752,
      "incendio": 8753,
      "settentri": 8754,
      "moidori": 8755,
      "medicina": 8756,
      "interlocu": 8757,
      "bestem": 8758,
      "Dronte": 8759,
      "Oxford": 8760,
      "mazurca": 8761,
      "Merkalova": 8762,
      "Ameri": 8763,
      "Bor": 8764,
      "CO": 8765,
      "Cru": 8766,
      "Dor": 8767,
      "El": 8768,
      "Fini": 8769,
      "Ges": 8770,
      "IV": 8771,
      "IX": 8772,
      "Ir": 8773,
      "Llo": 8774,
      "Oc": 8775,
      "Rin": 8776,
      "Sar": 8777,
      "Sotto": 8778,
      "Vuoi": 8779,
      "ala": 8780,
      "agu": 8781,
      "arebbe": 8782,
      "balli": 8783,
      "balu": 8784,
      "cà": 8785,
      "ccome": 8786,
      "cni": 8787,
      "cesse": 8788,
      "danti": 8789,
      "dria": 8790,
      "eh": 8791,
      "esemp": 8792,
      "eseguire": 8793,
      "fà": 8794,
      "falla": 8795,
      "gma": 8796,
      "gesso": 8797,
      "gessi": 8798,
      "ippo": 8799,
      "imag": 8800,
      "ku": 8801,
      "lenza": 8802,
      "pin": 8803,
      "pale": 8804,
      "rgi": 8805,
      "sli": 8806,
      "santo": 8807,
      "sani": 8808,
      "squar": 8809,
      "sdegno": 8810,
      "ts": 8811,
      "udita": 8812,
      "yd": 8813,
      "ergli": 8814,
      "erpi": 8815,
      "ernere": 8816,
      "topi": 8817,
      "dimin": 8818,
      "antro": 8819,
      "lass": 8820,
      "lampe": 8821,
      "remedio": 8822,
      "reggere": 8823,
      "reggeva": 8824,
      "insor": 8825,
      "inorri": 8826,
      "incominciare": 8827,
      "ingiusto": 8828,
      "ingiusta": 8829,
      "incapace": 8830,
      "taglia": 8831,
      "tedì": 8832,
      "tecni": 8833,
      "cov": 8834,
      "cotta": 8835,
      "costru": 8836,
      "rivedere": 8837,
      "rimise": 8838,
      "ridevano": 8839,
      "rag": 8840,
      "rarono": 8841,
      "vati": 8842,
      "vaghi": 8843,
      "secondi": 8844,
      "severità": 8845,
      "liv": 8846,
      "lilla": 8847,
      "limpi": 8848,
      "sofà": 8849,
      "docile": 8850,
      "ardenti": 8851,
      "essen": 8852,
      "esero": 8853,
      "rovin": 8854,
      "cipo": 8855,
      "mith": 8856,
      "conven": 8857,
      "contare": 8858,
      "consentire": 8859,
      "maglia": 8860,
      "masti": 8861,
      "macchia": 8862,
      "perla": 8863,
      "permise": 8864,
      "cavi": 8865,
      "cader": 8866,
      "vigi": 8867,
      "videro": 8868,
      "vivendo": 8869,
      "momen": 8870,
      "mosso": 8871,
      "modesta": 8872,
      "pis": 8873,
      "pipe": 8874,
      "vevano": 8875,
      "veglia": 8876,
      "dama": 8877,
      "gie": 8878,
      "giò": 8879,
      "giacca": 8880,
      "mecc": 8881,
      "sur": 8882,
      "decre": 8883,
      "tue": 8884,
      "bio": 8885,
      "farebbe": 8886,
      "pregar": 8887,
      "avvel": 8888,
      "staccare": 8889,
      "peti": 8890,
      "tramezzo": 8891,
      "versar": 8892,
      "verrete": 8893,
      "ttai": 8894,
      "allar": 8895,
      "ggiai": 8896,
      "ggiante": 8897,
      "manzo": 8898,
      "mancò": 8899,
      "cortina": 8900,
      "pende": 8901,
      "gnola": 8902,
      "nient": 8903,
      "comunque": 8904,
      "commettere": 8905,
      "combatti": 8906,
      "vollero": 8907,
      "tenore": 8908,
      "tentazione": 8909,
      "tendenze": 8910,
      "gomiti": 8911,
      "baia": 8912,
      "balau": 8913,
      "bauli": 8914,
      "gammo": 8915,
      "stezza": 8916,
      "impossibilità": 8917,
      "stori": 8918,
      "cchiare": 8919,
      "tremuo": 8920,
      "ssai": 8921,
      "ssare": 8922,
      "ssava": 8923,
      "forbi": 8924,
      "formità": 8925,
      "folli": 8926,
      "culla": 8927,
      "rison": 8928,
      "tuttora": 8929,
      "incidente": 8930,
      "giove": 8931,
      "disonesto": 8932,
      "deranno": 8933,
      "bucato": 8934,
      "ammai": 8935,
      "nube": 8936,
      "Quelle": 8937,
      "Quasi": 8938,
      "alloggio": 8939,
      "scora": 8940,
      "scossa": 8941,
      "scoglio": 8942,
      "scopriva": 8943,
      "viaggiato": 8944,
      "carvi": 8945,
      "temporane": 8946,
      "conoscono": 8947,
      "benedizione": 8948,
      "benedica": 8949,
      "finta": 8950,
      "parlasse": 8951,
      "parlarmi": 8952,
      "trovasse": 8953,
      "trovassi": 8954,
      "trovarla": 8955,
      "ghino": 8956,
      "gherò": 8957,
      "fervo": 8958,
      "sponde": 8959,
      "Indie": 8960,
      "Ingle": 8961,
      "ggiati": 8962,
      "ggiamenti": 8963,
      "rioso": 8964,
      "salto": 8965,
      "saltato": 8966,
      "saltando": 8967,
      "brav": 8968,
      "brava": 8969,
      "piegai": 8970,
      "chiamai": 8971,
      "prendesse": 8972,
      "calcolo": 8973,
      "calmarsi": 8974,
      "Siccome": 8975,
      "indivi": 8976,
      "gridando": 8977,
      "menoma": 8978,
      "menomamente": 8979,
      "uscii": 8980,
      "uscivano": 8981,
      "eloqu": 8982,
      "passasse": 8983,
      "rsione": 8984,
      "ricordate": 8985,
      "rendersi": 8986,
      "Dico": 8987,
      "Ditemi": 8988,
      "contenere": 8989,
      "conteneva": 8990,
      "minata": 8991,
      "dovreste": 8992,
      "gnando": 8993,
      "versato": 8994,
      "piovo": 8995,
      "piombo": 8996,
      "turno": 8997,
      "muso": 8998,
      "music": 8999,
      "tarne": 9000,
      "intenta": 9001,
      "cavò": 9002,
      "caval": 9003,
      "giunger": 9004,
      "scritta": 9005,
      "scrittura": 9006,
      "scure": 9007,
      "ghiaccia": 9008,
      "offese": 9009,
      "vederne": 9010,
      "seguii": 9011,
      "irresi": 9012,
      "belva": 9013,
      "diventava": 9014,
      "amara": 9015,
      "amasse": 9016,
      "lasciarla": 9017,
      "corredo": 9018,
      "ellino": 9019,
      "rietà": 9020,
      "esist": 9021,
      "esitazione": 9022,
      "dimentico": 9023,
      "dimenticando": 9024,
      "mettesse": 9025,
      "mettetemi": 9026,
      "accadere": 9027,
      "ottobre": 9028,
      "visitato": 9029,
      "contegno": 9030,
      "mostrai": 9031,
      "spiegarsi": 9032,
      "vorrà": 9033,
      "vorrete": 9034,
      "piacevano": 9035,
      "tornerò": 9036,
      "udirono": 9037,
      "trasportare": 9038,
      "Mori": 9039,
      "mercato": 9040,
      "francamente": 9041,
      "mettervi": 9042,
      "Vasil": 9043,
      "collocata": 9044,
      "divertente": 9045,
      "figure": 9046,
      "Altri": 9047,
      "esclama": 9048,
      "mangiano": 9049,
      "brutti": 9050,
      "facciata": 9051,
      "vergognarsi": 9052,
      "significativo": 9053,
      "dorso": 9054,
      "dorme": 9055,
      "lanciato": 9056,
      "cacciato": 9057,
      "affamato": 9058,
      "feciono": 9059,
      "guardarsi": 9060,
      "Svizz": 9061,
      "cercasse": 9062,
      "Neppure": 9063,
      "arriverà": 9064,
      "interrotta": 9065,
      "Guinea": 9066,
      "presidente": 9067,
      "acquisto": 9068,
      "creazione": 9069,
      "avvertiva": 9070,
      "pronunzi": 9071,
      "Prova": 9072,
      "esamina": 9073,
      "suppone": 9074,
      "Katerina": 9075,
      "camerieri": 9076,
      "colpita": 9077,
      "regole": 9078,
      "eccitamento": 9079,
      "palpe": 9080,
      "catego": 9081,
      "accennato": 9082,
      "violenti": 9083,
      "violentemente": 9084,
      "aiutarmi": 9085,
      "aiutarvi": 9086,
      "peggiori": 9087,
      "coscien": 9088,
      "vedea": 9089,
      "opposi": 9090,
      "sbagliato": 9091,
      "spaventò": 9092,
      "accompagnata": 9093,
      "assemble": 9094,
      "spiegava": 9095,
      "accigliò": 9096,
      "dicendomi": 9097,
      "innamorarsi": 9098,
      "Sentivo": 9099,
      "cassetto": 9100,
      "discussioni": 9101,
      "coraggiosamente": 9102,
      "funzione": 9103,
      "Temo": 9104,
      "inferno": 9105,
      "montagnole": 9106,
      "biglietti": 9107,
      "appoggio": 9108,
      "adagio": 9109,
      "spento": 9110,
      "istituzioni": 9111,
      "artel": 9112,
      "gaffa": 9113,
      "armadio": 9114,
      "invitò": 9115,
      "raccogli": 9116,
      "Fiorent": 9117,
      "Luisa": 9118,
      "distruzione": 9119,
      "distruggere": 9120,
      "assoluta": 9121,
      "trascin": 9122,
      "supersti": 9123,
      "superfluo": 9124,
      "invitata": 9125,
      "cambiava": 9126,
      "difese": 9127,
      "vanità": 9128,
      "Enrico": 9129,
      "ignoranza": 9130,
      "autore": 9131,
      "cristiani": 9132,
      "sommer": 9133,
      "fissava": 9134,
      "Orsini": 9135,
      "dipinto": 9136,
      "naviganti": 9137,
      "diletta": 9138,
      "inchin": 9139,
      "infiamma": 9140,
      "pesantemente": 9141,
      "illuminato": 9142,
      "Vorku": 9143,
      "intraprendere": 9144,
      "campanello": 9145,
      "barbari": 9146,
      "preoccupato": 9147,
      "ricordandosi": 9148,
      "rammentate": 9149,
      "Molti": 9150,
      "convenienze": 9151,
      "paziente": 9152,
      "mostruo": 9153,
      "fisionomia": 9154,
      "volavano": 9155,
      "riparare": 9156,
      "cresciuta": 9157,
      "brillanti": 9158,
      "domestiche": 9159,
      "architetto": 9160,
      "magnifico": 9161,
      "organizzazione": 9162,
      "tronco": 9163,
      "riconoscente": 9164,
      "respinto": 9165,
      "contempla": 9166,
      "persuasione": 9167,
      "Passarono": 9168,
      "laddove": 9169,
[...]
